// Auto-generated on 2026-05-12
// Model: drone_model_qat_int8.tflite  |  Quantization: INT8 QAT  |  Size: 142816 bytes
#ifndef TF_DRONE_MODEL_QAT_H
#define TF_DRONE_MODEL_QAT_H
#include <stdint.h>
#include <stdalign.h>

alignas(16) const uint8_t tf_drone_model_qat[] = {
  0x1C, 0x00, 0x00, 0x00, 0x54, 0x46, 0x4C, 0x33, 0x14, 0x00, 0x20, 0x00,
  0x1C, 0x00, 0x18, 0x00, 0x14, 0x00, 0x10, 0x00, 0x0C, 0x00, 0x00, 0x00,
  0x08, 0x00, 0x04, 0x00, 0x14, 0x00, 0x00, 0x00, 0x1C, 0x00, 0x00, 0x00,
  0xD8, 0x00, 0x00, 0x00, 0x58, 0x01, 0x00, 0x00, 0xBC, 0x02, 0x02, 0x00,
  0xCC, 0x02, 0x02, 0x00, 0x0C, 0x2D, 0x02, 0x00, 0x03, 0x00, 0x00, 0x00,
  0x01, 0x00, 0x00, 0x00, 0x04, 0x00, 0x00, 0x00, 0xBE, 0xF9, 0xFD, 0xFF,
  0x0C, 0x00, 0x00, 0x00, 0x1C, 0x00, 0x00, 0x00, 0x64, 0x00, 0x00, 0x00,
  0x0F, 0x00, 0x00, 0x00, 0x73, 0x65, 0x72, 0x76, 0x69, 0x6E, 0x67, 0x5F,
  0x64, 0x65, 0x66, 0x61, 0x75, 0x6C, 0x74, 0x00, 0x02, 0x00, 0x00, 0x00,
  0x28, 0x00, 0x00, 0x00, 0x04, 0x00, 0x00, 0x00, 0x20, 0xFF, 0xFF, 0xFF,
  0x30, 0x00, 0x00, 0x00, 0x04, 0x00, 0x00, 0x00, 0x0F, 0x00, 0x00, 0x00,
  0x71, 0x75, 0x61, 0x6E, 0x74, 0x5F, 0x63, 0x6C, 0x61, 0x73, 0x73, 0x5F,
  0x6F, 0x75, 0x74, 0x00, 0x40, 0xFF, 0xFF, 0xFF, 0x21, 0x00, 0x00, 0x00,
  0x04, 0x00, 0x00, 0x00, 0x0E, 0x00, 0x00, 0x00, 0x71, 0x75, 0x61, 0x6E,
  0x74, 0x5F, 0x62, 0x62, 0x6F, 0x78, 0x5F, 0x6F, 0x75, 0x74, 0x00, 0x00,
  0x02, 0x00, 0x00, 0x00, 0x28, 0x00, 0x00, 0x00, 0x04, 0x00, 0x00, 0x00,
  0x6C, 0xFF, 0xFF, 0xFF, 0x01, 0x00, 0x00, 0x00, 0x04, 0x00, 0x00, 0x00,
  0x0C, 0x00, 0x00, 0x00, 0x69, 0x6D, 0x61, 0x67, 0x65, 0x32, 0x5F, 0x69,
  0x6E, 0x70, 0x75, 0x74, 0x00, 0x00, 0x00, 0x00, 0x7E, 0xFA, 0xFD, 0xFF,
  0x04, 0x00, 0x00, 0x00, 0x0C, 0x00, 0x00, 0x00, 0x69, 0x6D, 0x61, 0x67,
  0x65, 0x31, 0x5F, 0x69, 0x6E, 0x70, 0x75, 0x74, 0x00, 0x00, 0x00, 0x00,
  0x03, 0x00, 0x00, 0x00, 0x5C, 0x00, 0x00, 0x00, 0x2C, 0x00, 0x00, 0x00,
  0x04, 0x00, 0x00, 0x00, 0xB8, 0xFF, 0xFF, 0xFF, 0x34, 0x00, 0x00, 0x00,
  0x04, 0x00, 0x00, 0x00, 0x13, 0x00, 0x00, 0x00, 0x43, 0x4F, 0x4E, 0x56,
  0x45, 0x52, 0x53, 0x49, 0x4F, 0x4E, 0x5F, 0x4D, 0x45, 0x54, 0x41, 0x44,
  0x41, 0x54, 0x41, 0x00, 0xDC, 0xFF, 0xFF, 0xFF, 0x33, 0x00, 0x00, 0x00,
  0x04, 0x00, 0x00, 0x00, 0x13, 0x00, 0x00, 0x00, 0x6D, 0x69, 0x6E, 0x5F,
  0x72, 0x75, 0x6E, 0x74, 0x69, 0x6D, 0x65, 0x5F, 0x76, 0x65, 0x72, 0x73,
  0x69, 0x6F, 0x6E, 0x00, 0x08, 0x00, 0x0C, 0x00, 0x08, 0x00, 0x04, 0x00,
  0x08, 0x00, 0x00, 0x00, 0x32, 0x00, 0x00, 0x00, 0x04, 0x00, 0x00, 0x00,
  0x13, 0x00, 0x00, 0x00, 0x6D, 0x69, 0x6E, 0x5F, 0x72, 0x75, 0x6E, 0x74,
  0x69, 0x6D, 0x65, 0x5F, 0x76, 0x65, 0x72, 0x73, 0x69, 0x6F, 0x6E, 0x00,
  0x35, 0x00, 0x00, 0x00, 0x60, 0x01, 0x02, 0x00, 0x58, 0x01, 0x02, 0x00,
  0x50, 0x01, 0x02, 0x00, 0x38, 0x01, 0x02, 0x00, 0x20, 0x01, 0x02, 0x00,
  0x94, 0xFF, 0x01, 0x00, 0xDC, 0xFE, 0x01, 0x00, 0xD4, 0xFE, 0x01, 0x00,
  0x0C, 0xED, 0x01, 0x00, 0xCC, 0xEC, 0x01, 0x00, 0xC4, 0xEC, 0x01, 0x00,
  0xBC, 0xEC, 0x01, 0x00, 0x30, 0xEB, 0x01, 0x00, 0x78, 0xEA, 0x01, 0x00,
  0x70, 0xEA, 0x01, 0x00, 0xA8, 0xD8, 0x01, 0x00, 0x68, 0xD8, 0x01, 0x00,
  0x60, 0xD8, 0x01, 0x00, 0x58, 0xD8, 0x01, 0x00, 0x50, 0xD8, 0x01, 0x00,
  0x48, 0xD8, 0x01, 0x00, 0x40, 0xD8, 0x01, 0x00, 0x30, 0x16, 0x00, 0x00,
  0xE0, 0x15, 0x00, 0x00, 0xD8, 0x15, 0x00, 0x00, 0xC8, 0x14, 0x00, 0x00,
  0x78, 0x14, 0x00, 0x00, 0x70, 0x14, 0x00, 0x00, 0xE0, 0x13, 0x00, 0x00,
  0xB0, 0x13, 0x00, 0x00, 0xA8, 0x13, 0x00, 0x00, 0x78, 0x13, 0x00, 0x00,
  0x58, 0x13, 0x00, 0x00, 0x50, 0x13, 0x00, 0x00, 0x48, 0x13, 0x00, 0x00,
  0x40, 0x13, 0x00, 0x00, 0x38, 0x13, 0x00, 0x00, 0x28, 0x0D, 0x00, 0x00,
  0x18, 0x0C, 0x00, 0x00, 0x10, 0x0C, 0x00, 0x00, 0x00, 0x04, 0x00, 0x00,
  0x70, 0x03, 0x00, 0x00, 0x68, 0x03, 0x00, 0x00, 0x58, 0x01, 0x00, 0x00,
  0x08, 0x01, 0x00, 0x00, 0x00, 0x01, 0x00, 0x00, 0xE0, 0x00, 0x00, 0x00,
  0xCC, 0x00, 0x00, 0x00, 0xC4, 0x00, 0x00, 0x00, 0xBC, 0x00, 0x00, 0x00,
  0x9C, 0x00, 0x00, 0x00, 0x7C, 0x00, 0x00, 0x00, 0x04, 0x00, 0x00, 0x00,
  0xF6, 0xFB, 0xFD, 0xFF, 0x04, 0x00, 0x00, 0x00, 0x68, 0x00, 0x00, 0x00,
  0x10, 0x00, 0x00, 0x00, 0x00, 0x00, 0x00, 0x00, 0x08, 0x00, 0x0E, 0x00,
  0x08, 0x00, 0x04, 0x00, 0x08, 0x00, 0x00, 0x00, 0x10, 0x00, 0x00, 0x00,
  0x2C, 0x00, 0x00, 0x00, 0x00, 0x00, 0x06, 0x00, 0x08, 0x00, 0x04, 0x00,
  0x06, 0x00, 0x00, 0x00, 0x04, 0x00, 0x00, 0x00, 0x02, 0x00, 0x00, 0x00,
  0xEB, 0x03, 0x00, 0x00, 0xD0, 0x07, 0x00, 0x00, 0x0C, 0x00, 0x18, 0x00,
  0x14, 0x00, 0x10, 0x00, 0x0C, 0x00, 0x04, 0x00, 0x0C, 0x00, 0x00, 0x00,
  0x2C, 0xA2, 0x8C, 0x47, 0xFE, 0xE2, 0xDA, 0xED, 0x02, 0x00, 0x00, 0x00,
  0x02, 0x00, 0x00, 0x00, 0x04, 0x00, 0x00, 0x00, 0x06, 0x00, 0x00, 0x00,
  0x32, 0x2E, 0x31, 0x39, 0x2E, 0x30, 0x00, 0x00, 0x6A, 0xFC, 0xFD, 0xFF,
  0x04, 0x00, 0x00, 0x00, 0x10, 0x00, 0x00, 0x00, 0x00, 0x00, 0x00, 0x00,
  0x00, 0x00, 0x00, 0x00, 0x00, 0x00, 0x00, 0x00, 0x00, 0x00, 0x00, 0x00,
  0x86, 0xFC, 0xFD, 0xFF, 0x04, 0x00, 0x00, 0x00, 0x10, 0x00, 0x00, 0x00,
  0x31, 0x2E, 0x31, 0x34, 0x2E, 0x30, 0x00, 0x00, 0x00, 0x00, 0x00, 0x00,
  0x00, 0x00, 0x00, 0x00, 0x24, 0xD7, 0xFD, 0xFF, 0x28, 0xD7, 0xFD, 0xFF,
  0xAA, 0xFC, 0xFD, 0xFF, 0x04, 0x00, 0x00, 0x00, 0x04, 0x00, 0x00, 0x00,
  0x2C, 0x28, 0x00, 0x00, 0xBA, 0xFC, 0xFD, 0xFF, 0x04, 0x00, 0x00, 0x00,
  0x10, 0x00, 0x00, 0x00, 0x58, 0xAC, 0x81, 0x9E, 0x9D, 0xF8, 0xA2, 0x98,
  0x22, 0x1C, 0xA7, 0x1F, 0x90, 0x99, 0x23, 0xD4, 0x58, 0xD7, 0xFD, 0xFF,
  0xDA, 0xFC, 0xFD, 0xFF, 0x04, 0x00, 0x00, 0x00, 0x40, 0x00, 0x00, 0x00,
  0x7D, 0xFB, 0xFF, 0xFF, 0x44, 0x00, 0x00, 0x00, 0xA3, 0x00, 0x00, 0x00,
  0xF4, 0x00, 0x00, 0x00, 0x93, 0x00, 0x00, 0x00, 0xCA, 0xFF, 0xFF, 0xFF,
  0x9C, 0x00, 0x00, 0x00, 0x5B, 0x00, 0x00, 0x00, 0x92, 0xFF, 0xFF, 0xFF,
  0xA2, 0xFF, 0xFF, 0xFF, 0x69, 0x00, 0x00, 0x00, 0x37, 0xFF, 0xFF, 0xFF,
  0xAE, 0x00, 0x00, 0x00, 0x03, 0x01, 0x00, 0x00, 0x25, 0xFF, 0xFF, 0xFF,
  0xDE, 0xFF, 0xFF, 0xFF, 0x26, 0xFD, 0xFD, 0xFF, 0x04, 0x00, 0x00, 0x00,
  0x00, 0x02, 0x00, 0x00, 0x07, 0x16, 0xF9, 0x81, 0xFE, 0x1A, 0x26, 0xD0,
  0x11, 0x1E, 0x37, 0x16, 0xC3, 0xF5, 0xD5, 0x15, 0x05, 0x06, 0x22, 0xFC,
  0x20, 0xB6, 0x05, 0xFE, 0x1E, 0x01, 0x0B, 0x09, 0xBA, 0x1C, 0x0D, 0xF3,
  0x0B, 0x25, 0xF9, 0xCF, 0xFC, 0x11, 0x21, 0xC1, 0x0B, 0x15, 0xFF, 0x1F,
  0x19, 0xF8, 0xD6, 0x19, 0xFA, 0x22, 0x24, 0x08, 0x1B, 0xC7, 0xF8, 0xF1,
  0x02, 0x1C, 0x10, 0x20, 0xB9, 0x0C, 0x0C, 0xF2, 0xFC, 0x18, 0xF3, 0xC2,
  0x04, 0x08, 0xFE, 0xDE, 0xFC, 0x1E, 0x15, 0x14, 0x2E, 0xFA, 0xCB, 0x1D,
  0xF1, 0x09, 0x1B, 0x10, 0x1A, 0xC0, 0xF1, 0xF0, 0x0C, 0x16, 0x20, 0x1B,
  0xC9, 0x0D, 0x02, 0x06, 0x0B, 0x26, 0x0B, 0xC5, 0xF2, 0x1E, 0x0B, 0xC0,
  0xF9, 0x08, 0x05, 0x0D, 0x2F, 0xF2, 0xD8, 0x0C, 0xF2, 0x13, 0x15, 0x09,
  0x1D, 0xBF, 0x08, 0xF9, 0x1C, 0x07, 0x22, 0x19, 0xB5, 0x0C, 0x0F, 0x11,
  0xFD, 0x0A, 0x00, 0xC0, 0xFD, 0x1E, 0x04, 0xD5, 0xFC, 0x1F, 0x0E, 0x18,
  0x33, 0xFD, 0xC6, 0x1E, 0xF6, 0x15, 0x05, 0x08, 0x18, 0xB6, 0xF5, 0x03,
  0x22, 0x13, 0x17, 0x09, 0xCC, 0x08, 0xFC, 0xF2, 0xFF, 0x06, 0x0B, 0x05,
  0x05, 0x06, 0x0F, 0x09, 0x0A, 0x02, 0xF0, 0xFA, 0x00, 0x0A, 0x03, 0x0E,
  0x04, 0xF5, 0xFE, 0xF3, 0xF7, 0xF8, 0x0F, 0x11, 0x07, 0xF9, 0xF2, 0xF9,
  0xF0, 0x0E, 0xF8, 0xF2, 0xFB, 0x0E, 0x0A, 0xD6, 0xFC, 0x08, 0x21, 0xD3,
  0x14, 0x10, 0x02, 0x09, 0x35, 0xF5, 0xE1, 0x09, 0xF9, 0x23, 0x15, 0xF8,
  0x1E, 0xB4, 0x06, 0x03, 0x0A, 0x14, 0x17, 0x16, 0xC8, 0x1F, 0xFE, 0xFD,
  0xFB, 0x23, 0xF6, 0xB9, 0x0A, 0x21, 0x1F, 0xCD, 0x0B, 0x1C, 0x19, 0x17,
  0x2E, 0x06, 0xC9, 0x0F, 0xFD, 0x24, 0x23, 0xF8, 0x11, 0xB8, 0xF6, 0x09,
  0x20, 0x18, 0x0A, 0x16, 0xB9, 0x1D, 0xF6, 0xF8, 0xF3, 0xFB, 0x0D, 0xEF,
  0xFD, 0xEF, 0x0E, 0xF5, 0x07, 0xFA, 0x03, 0xF9, 0x0E, 0x06, 0x10, 0xF7,
  0x0D, 0x07, 0x04, 0xF1, 0xF4, 0xF7, 0xF2, 0x00, 0x01, 0xF5, 0x09, 0xFE,
  0x04, 0x01, 0x07, 0xFE, 0x09, 0x0F, 0xFD, 0x09, 0xF8, 0x0B, 0xF8, 0xFA,
  0xFA, 0xEE, 0x01, 0xF5, 0x10, 0x05, 0x0A, 0xF0, 0xF3, 0x02, 0xFF, 0xF1,
  0xF6, 0xF0, 0x0D, 0x0D, 0xFC, 0xEF, 0x0D, 0x05, 0xF4, 0xF0, 0x07, 0xF3,
  0xF3, 0x1F, 0xF4, 0xCF, 0x0A, 0x24, 0x13, 0xC6, 0x0F, 0x0A, 0x15, 0x12,
  0x22, 0xF7, 0xDF, 0x20, 0x0B, 0x09, 0x1F, 0x11, 0x05, 0xBA, 0x01, 0xF8,
  0x11, 0x1C, 0x1C, 0x01, 0xBF, 0x0D, 0xF3, 0xFE, 0xF0, 0xFF, 0xF0, 0x0B,
  0x03, 0xF6, 0x04, 0xFB, 0xF9, 0xED, 0x0C, 0x04, 0x05, 0xF5, 0xEF, 0x00,
  0xF4, 0x09, 0xEF, 0xFF, 0xFC, 0xFF, 0x02, 0xFE, 0x03, 0x0E, 0xF7, 0xFD,
  0x08, 0xEB, 0xF2, 0xF2, 0x03, 0x0F, 0x03, 0xC4, 0xEF, 0x1A, 0x20, 0xC9,
  0xFA, 0x1A, 0x11, 0x14, 0x30, 0x0A, 0xC7, 0x15, 0x0A, 0x12, 0x05, 0x12,
  0x0D, 0xC6, 0xF8, 0x0A, 0x1B, 0x10, 0x21, 0x05, 0xBC, 0x1E, 0xF0, 0x11,
  0x02, 0x1E, 0xFA, 0xBD, 0xFF, 0x23, 0x0E, 0xC2, 0xF9, 0x1B, 0x20, 0x15,
  0x2C, 0xF4, 0xDA, 0x04, 0x05, 0x25, 0x04, 0xF1, 0x13, 0xB8, 0xF9, 0x09,
  0x07, 0x0E, 0x0C, 0x14, 0xD8, 0x0C, 0x03, 0xFD, 0xF1, 0x02, 0xF2, 0xF4,
  0xF6, 0x04, 0x0C, 0x06, 0xF6, 0xEE, 0x01, 0x07, 0xF7, 0x11, 0x0B, 0x05,
  0xF7, 0xF0, 0x0F, 0x02, 0x01, 0xF1, 0x07, 0x08, 0x0A, 0xED, 0xEF, 0xF6,
  0x0C, 0xED, 0xF9, 0x05, 0x10, 0x0E, 0x06, 0xFB, 0x04, 0xFC, 0x0F, 0x01,
  0xF0, 0x07, 0xF5, 0xFE, 0x02, 0x0E, 0xFF, 0xFC, 0x10, 0xF9, 0xFB, 0xF4,
  0x0E, 0xEE, 0xF2, 0x08, 0x06, 0xF0, 0xF2, 0xF1, 0xFF, 0xF7, 0x03, 0xFF,
  0xB4, 0xD9, 0xFD, 0xFF, 0x36, 0xFF, 0xFD, 0xFF, 0x04, 0x00, 0x00, 0x00,
  0x80, 0x00, 0x00, 0x00, 0xEF, 0xFE, 0xFF, 0xFF, 0x93, 0x01, 0x00, 0x00,
  0xC4, 0xFF, 0xFF, 0xFF, 0x00, 0x03, 0x00, 0x00, 0xFE, 0xFF, 0xFF, 0xFF,
  0x10, 0x01, 0x00, 0x00, 0xF3, 0xFF, 0xFF, 0xFF, 0x7F, 0x02, 0x00, 0x00,
  0x82, 0xFE, 0xFF, 0xFF, 0xDC, 0x00, 0x00, 0x00, 0xEE, 0xFF, 0xFF, 0xFF,
  0x6B, 0x00, 0x00, 0x00, 0x72, 0x00, 0x00, 0x00, 0x51, 0xFF, 0xFF, 0xFF,
  0x36, 0x02, 0x00, 0x00, 0x14, 0x00, 0x00, 0x00, 0xE0, 0xFF, 0xFF, 0xFF,
  0xC5, 0x00, 0x00, 0x00, 0x41, 0x00, 0x00, 0x00, 0x80, 0x00, 0x00, 0x00,
  0x79, 0x00, 0x00, 0x00, 0x4C, 0x03, 0x00, 0x00, 0x2F, 0xFF, 0xFF, 0xFF,
  0x82, 0xFF, 0xFF, 0xFF, 0xDE, 0x00, 0x00, 0x00, 0x3A, 0x00, 0x00, 0x00,
  0x77, 0x01, 0x00, 0x00, 0x4F, 0x00, 0x00, 0x00, 0xAF, 0x03, 0x00, 0x00,
  0x94, 0x00, 0x00, 0x00, 0x60, 0xFF, 0xFF, 0xFF, 0xA1, 0xFF, 0xFF, 0xFF,
  0xC2, 0xFF, 0xFD, 0xFF, 0x04, 0x00, 0x00, 0x00, 0x00, 0x08, 0x00, 0x00,
  0x16, 0x05, 0xF9, 0xFE, 0x06, 0xF0, 0xEB, 0x0F, 0x02, 0xF1, 0xE9, 0xEA,
  0x13, 0x03, 0xFD, 0xFE, 0xF3, 0x0D, 0x10, 0xF7, 0xFB, 0xFC, 0xFB, 0xFE,
  0x0F, 0x00, 0xF1, 0xF6, 0xFB, 0xE9, 0x08, 0x07, 0xEB, 0x08, 0x10, 0x0B,
  0xEF, 0xF8, 0x0A, 0x09, 0xEF, 0xF7, 0x0B, 0x06, 0x0F, 0x03, 0x11, 0xFD,
  0xEF, 0xEB, 0xF0, 0xFE, 0x0D, 0xF8, 0x04, 0x04, 0x08, 0xF5, 0x0D, 0x01,
  0xF4, 0xEA, 0x15, 0xEA, 0x10, 0xFE, 0x43, 0xEA, 0x1D, 0xFE, 0xF5, 0x2A,
  0xF0, 0x1F, 0xD3, 0x15, 0x04, 0xF0, 0x34, 0xEB, 0xF3, 0xEB, 0x06, 0x1B,
  0x04, 0xE3, 0x01, 0xE8, 0x01, 0x09, 0x10, 0x03, 0x02, 0x16, 0x0D, 0x08,
  0x0E, 0x0A, 0xE9, 0x19, 0xF3, 0xFD, 0x0A, 0xF3, 0x15, 0xBA, 0xF9, 0xD1,
  0x08, 0x0A, 0x2C, 0x1D, 0x31, 0xE9, 0xF5, 0x3F, 0x53, 0xD3, 0xF2, 0x17,
  0xC4, 0x14, 0xCA, 0xFA, 0xF7, 0x27, 0xEB, 0x47, 0xFD, 0x0A, 0xEF, 0xEB,
  0xFE, 0xF7, 0xEA, 0x02, 0xFD, 0x0D, 0xF6, 0xFF, 0x04, 0xF5, 0xEE, 0xFD,
  0x0D, 0xF9, 0xEB, 0xFA, 0xF3, 0xF2, 0x02, 0xFA, 0xF3, 0x0A, 0xF1, 0x0F,
  0x09, 0x00, 0xFF, 0xF5, 0x02, 0xEF, 0xFA, 0xED, 0x05, 0xE8, 0x0F, 0x07,
  0xEB, 0xEB, 0xFE, 0x11, 0xF1, 0xF4, 0xF8, 0xF3, 0x09, 0x12, 0xEB, 0x01,
  0xF1, 0x02, 0xFF, 0x10, 0x11, 0x06, 0x12, 0xF1, 0xEF, 0xEB, 0xEA, 0xF0,
  0x16, 0xE3, 0xE6, 0xFB, 0x08, 0xAB, 0xEA, 0xEF, 0x11, 0xCD, 0x0A, 0xE4,
  0x11, 0xED, 0xBF, 0x0E, 0x04, 0x1D, 0x8A, 0xCA, 0x0D, 0x0B, 0x00, 0xBD,
  0xEE, 0x1B, 0xEA, 0x05, 0xEA, 0xDB, 0xEA, 0x07, 0xB2, 0x02, 0xFD, 0x87,
  0x93, 0xF4, 0xFD, 0xEA, 0xE9, 0x3F, 0xFD, 0xA6, 0xF4, 0xF3, 0xCD, 0xFE,
  0xD7, 0x01, 0x10, 0xA4, 0xAC, 0x28, 0xC9, 0xB4, 0x2E, 0xAE, 0x2C, 0x02,
  0xBF, 0x9E, 0xF8, 0x91, 0xF0, 0x15, 0xF0, 0x04, 0xF1, 0x03, 0xEB, 0xF0,
  0xF0, 0x0E, 0xF4, 0x0D, 0x03, 0x0C, 0x10, 0xEA, 0x07, 0x06, 0x04, 0xF0,
  0x14, 0xF3, 0x07, 0xF3, 0xEF, 0xE7, 0xF2, 0x07, 0xF8, 0xEC, 0x08, 0x09,
  0x00, 0xF5, 0xEB, 0xFD, 0x02, 0xFB, 0xFA, 0x0B, 0x16, 0xFC, 0x04, 0xF8,
  0xF3, 0xEA, 0xF6, 0xEA, 0x13, 0xF2, 0xF1, 0x03, 0x04, 0x0F, 0xF0, 0xE7,
  0xE9, 0x0F, 0xFF, 0xFE, 0xEF, 0x11, 0x05, 0xF3, 0x03, 0x10, 0x33, 0xF8,
  0x17, 0xF8, 0x03, 0x2A, 0xF7, 0x1F, 0xCF, 0x10, 0x0F, 0xFB, 0x1D, 0xF8,
  0xF3, 0xEF, 0x0C, 0xF5, 0x13, 0xD9, 0x07, 0xF8, 0x00, 0xF1, 0xEE, 0xF1,
  0x07, 0x04, 0x05, 0x0D, 0x29, 0x24, 0x03, 0x1E, 0xFC, 0x00, 0xEE, 0x0E,
  0x06, 0xC3, 0xEE, 0xD5, 0x07, 0x0B, 0x28, 0x13, 0x1F, 0x06, 0x14, 0x1E,
  0x40, 0xCB, 0x15, 0x1A, 0xBC, 0x36, 0xC5, 0x04, 0x13, 0x2A, 0x0C, 0x30,
  0x09, 0x09, 0x37, 0xF9, 0x01, 0x19, 0x17, 0x0B, 0x0A, 0x2A, 0xCF, 0x28,
  0x02, 0x09, 0x14, 0x0F, 0x11, 0xE2, 0x0E, 0x07, 0x09, 0xF3, 0x10, 0x05,
  0x01, 0x05, 0x03, 0xEA, 0xEE, 0x21, 0x17, 0x13, 0x21, 0x01, 0xEF, 0x0C,
  0xF1, 0x07, 0x00, 0x10, 0x0E, 0xB1, 0xF9, 0xCF, 0x0E, 0x0B, 0x35, 0x1A,
  0x09, 0x07, 0x01, 0x3E, 0x3E, 0xE9, 0x13, 0x24, 0xCB, 0x31, 0xCC, 0x04,
  0x08, 0x26, 0xF0, 0x22, 0x15, 0xE7, 0xE5, 0x0D, 0xF7, 0xBF, 0x14, 0xF1,
  0x01, 0xD2, 0x24, 0xBF, 0xED, 0x04, 0xBA, 0xED, 0x07, 0x1F, 0xC2, 0xC5,
  0x08, 0x12, 0xFE, 0xC5, 0x0F, 0x05, 0xEF, 0x02, 0x0B, 0xBB, 0xEF, 0x03,
  0xD8, 0x1C, 0x0E, 0xBB, 0xC7, 0xF5, 0xF6, 0x12, 0xFF, 0x42, 0x02, 0xDD,
  0x0B, 0xF7, 0xBC, 0xF4, 0xC5, 0x07, 0x08, 0xA3, 0xC4, 0x18, 0xC1, 0xD4,
  0x39, 0xA8, 0x44, 0x15, 0xD5, 0xA8, 0xF0, 0xC0, 0x15, 0xF4, 0xF7, 0xF9,
  0x08, 0xEC, 0x06, 0xF2, 0x0C, 0xE8, 0x0D, 0xF4, 0xEE, 0xF5, 0x0B, 0x11,
  0x0C, 0x07, 0xF7, 0xE9, 0xF1, 0xF0, 0x02, 0xEF, 0xFD, 0x04, 0x0F, 0x09,
  0x14, 0xEC, 0x0B, 0x01, 0xEA, 0xE2, 0xFF, 0xF0, 0x03, 0xFA, 0x14, 0x05,
  0x05, 0xF1, 0x14, 0x0C, 0xFB, 0xF3, 0xEB, 0xF6, 0x0B, 0x0A, 0xF3, 0xF6,
  0xEC, 0x0C, 0x0F, 0xFB, 0x07, 0x11, 0x17, 0xEC, 0x07, 0xFD, 0x00, 0x03,
  0x03, 0x1D, 0x2A, 0xF6, 0x21, 0x07, 0x07, 0x24, 0x03, 0x1A, 0xD0, 0x16,
  0x03, 0xE9, 0x0D, 0xEB, 0x0E, 0xDB, 0xFD, 0x15, 0x13, 0xE9, 0x01, 0x0D,
  0x0C, 0xE9, 0x00, 0x07, 0x10, 0x21, 0x1D, 0x13, 0x0A, 0x25, 0xE8, 0x0B,
  0x02, 0x0D, 0xEC, 0x0D, 0xF7, 0xA5, 0xF5, 0xBC, 0x04, 0xEE, 0x2C, 0x18,
  0x05, 0xE7, 0xF1, 0x13, 0x3D, 0xE5, 0x0F, 0x2C, 0xE1, 0x37, 0xCE, 0x0E,
  0x11, 0x2B, 0xFE, 0x2D, 0xFB, 0x25, 0x22, 0x03, 0x0D, 0x08, 0xF7, 0x29,
  0x05, 0x2F, 0xEA, 0x1F, 0xF9, 0xF0, 0x2A, 0x06, 0xFF, 0xF6, 0x25, 0xFF,
  0x0D, 0xF5, 0x0D, 0x20, 0xF9, 0x0F, 0x0B, 0xEC, 0x04, 0x26, 0x07, 0x17,
  0x19, 0x00, 0x09, 0x44, 0x0A, 0xEC, 0xFA, 0xF7, 0x17, 0xBB, 0xEE, 0xEA,
  0xEB, 0x0F, 0x2F, 0x11, 0x23, 0x02, 0xF9, 0x45, 0x4E, 0xD5, 0x25, 0x37,
  0xCD, 0x35, 0xBF, 0xEB, 0x1C, 0x32, 0x01, 0x31, 0x0E, 0x0D, 0x45, 0xF8,
  0x2C, 0x0E, 0x07, 0x17, 0x02, 0x11, 0xF1, 0x17, 0x11, 0xF5, 0x30, 0x16,
  0xFD, 0xE4, 0x1D, 0xF2, 0xF8, 0x03, 0x04, 0xEC, 0xFA, 0x0B, 0xED, 0x0A,
  0x07, 0x04, 0x20, 0x04, 0x25, 0x1E, 0xD9, 0x2A, 0xF5, 0xF7, 0xEC, 0x00,
  0x01, 0xB9, 0xED, 0xDD, 0x0F, 0x15, 0x1B, 0x20, 0x13, 0x09, 0xED, 0x16,
  0x40, 0xCC, 0x01, 0x2E, 0xDB, 0x31, 0xBB, 0xF1, 0x0D, 0x35, 0x0A, 0x2F,
  0xEB, 0x21, 0x5F, 0xED, 0xE0, 0xF9, 0x02, 0xE4, 0xEC, 0xE9, 0xB5, 0xD3,
  0x10, 0x03, 0xE7, 0x17, 0xF7, 0xF5, 0x12, 0xE4, 0xEA, 0xB9, 0xFD, 0xB5,
  0x00, 0xE4, 0xFA, 0x14, 0x0A, 0xEF, 0xEF, 0x03, 0xC5, 0xEC, 0xE4, 0xD8,
  0x0B, 0xED, 0xEE, 0x13, 0x07, 0xFF, 0x1D, 0x0F, 0x03, 0x12, 0xDF, 0xFF,
  0xEC, 0xEC, 0x0A, 0xFB, 0x4F, 0xDD, 0xBE, 0xEB, 0xD8, 0xF9, 0x04, 0x15,
  0xF4, 0xDE, 0x0E, 0xED, 0x15, 0x00, 0x13, 0x06, 0x01, 0x13, 0xFB, 0xE7,
  0x11, 0xEC, 0x08, 0xEF, 0xF5, 0x12, 0xE7, 0xFA, 0xF2, 0xFE, 0xE9, 0xE9,
  0xF1, 0x0A, 0x05, 0x0C, 0xEC, 0xED, 0x00, 0xEC, 0x0D, 0xF4, 0x03, 0x10,
  0xEE, 0xEA, 0xEB, 0xF3, 0x12, 0xFF, 0x00, 0xF7, 0xFD, 0xF4, 0xFC, 0x0B,
  0x00, 0x03, 0xEB, 0xFD, 0xF6, 0x0D, 0xEF, 0xF8, 0xED, 0x07, 0xF5, 0xFD,
  0xFA, 0x02, 0x0D, 0x10, 0xE7, 0xF4, 0xEC, 0xEE, 0xFF, 0xF1, 0xCE, 0x12,
  0x0D, 0xBA, 0x00, 0xF5, 0x12, 0xBD, 0x0C, 0xD0, 0xFC, 0xFF, 0xCE, 0xF1,
  0xF9, 0x04, 0xAB, 0xD2, 0x04, 0x1C, 0xF9, 0xD7, 0x0A, 0x0A, 0x09, 0x0D,
  0xEE, 0xCB, 0xFA, 0x02, 0xC5, 0xF4, 0x10, 0xA9, 0xB0, 0x0D, 0x0A, 0x00,
  0x07, 0x37, 0xFE, 0xC5, 0x0A, 0x00, 0xDF, 0xED, 0xEB, 0x01, 0xF5, 0xC8,
  0xC1, 0x0B, 0xC6, 0xC4, 0x3B, 0xAA, 0x25, 0x0A, 0xE7, 0xCB, 0x07, 0xB5,
  0x04, 0xFD, 0x2A, 0x0C, 0x25, 0x02, 0xF6, 0xFD, 0x17, 0xFF, 0xE9, 0x23,
  0xEA, 0x0E, 0x30, 0xED, 0x0B, 0xD5, 0xFC, 0x0D, 0x00, 0xDD, 0xFA, 0xE6,
  0xF9, 0x04, 0x10, 0xEC, 0x0A, 0xFE, 0x13, 0x0C, 0x04, 0x1E, 0x01, 0x27,
  0xE0, 0xF2, 0x0F, 0xFB, 0x11, 0xC2, 0xF6, 0xD8, 0xFC, 0x07, 0x2E, 0x10,
  0x29, 0xEB, 0x0B, 0x31, 0x5B, 0xC9, 0xF6, 0x2E, 0xDE, 0x0E, 0xBB, 0xFC,
  0xF7, 0x13, 0x01, 0x31, 0xF3, 0xFC, 0xED, 0x06, 0xEC, 0xEF, 0x07, 0x0B,
  0x0C, 0x0A, 0xF0, 0xF6, 0xF3, 0xF0, 0xFD, 0x06, 0x07, 0xF7, 0xF7, 0x01,
  0x11, 0xEA, 0xED, 0xEB, 0xE9, 0xEE, 0xF3, 0x03, 0xEC, 0xFE, 0x09, 0xF3,
  0xF4, 0xEF, 0x09, 0x0C, 0x01, 0x0A, 0xE9, 0x0D, 0xF9, 0xFB, 0x15, 0xF5,
  0xFB, 0x0A, 0x0D, 0x13, 0xFB, 0xF8, 0xF7, 0xE8, 0xFA, 0x00, 0x0E, 0x0A,
  0x0D, 0x03, 0xF5, 0x17, 0xEF, 0x04, 0x01, 0x0F, 0x16, 0x06, 0x45, 0xE8,
  0x2A, 0x13, 0xFA, 0x0E, 0xFF, 0x11, 0xD9, 0x1D, 0x12, 0x08, 0x30, 0x0D,
  0xF2, 0xE2, 0x0F, 0xFF, 0xF5, 0xD8, 0xF9, 0xF6, 0xFD, 0xF8, 0x08, 0xF6,
  0x12, 0xF9, 0x0E, 0x12, 0x20, 0xFF, 0x01, 0x15, 0x01, 0xFE, 0xF2, 0x19,
  0x08, 0xA5, 0xDA, 0xBE, 0xFD, 0xF9, 0x31, 0x19, 0x28, 0xF2, 0xF2, 0x0A,
  0x53, 0xC8, 0xFE, 0x00, 0xC5, 0x22, 0xB2, 0xFB, 0x0D, 0x1D, 0x14, 0x2E,
  0xEA, 0x16, 0x26, 0xF7, 0x2B, 0x0C, 0x0F, 0x21, 0xFE, 0x11, 0xE8, 0x01,
  0xFC, 0x05, 0x12, 0xF4, 0x0F, 0xDA, 0x09, 0x06, 0x0C, 0xE0, 0xF0, 0xE4,
  0x03, 0xEC, 0xEF, 0x02, 0x06, 0x0D, 0x1C, 0x10, 0x1C, 0x14, 0xE0, 0x27,
  0xF4, 0xFC, 0xF7, 0x0F, 0x17, 0xB8, 0xE9, 0xB9, 0xEA, 0x15, 0x2A, 0x05,
  0x32, 0x03, 0x0D, 0x3C, 0x4E, 0xDD, 0xF0, 0x0A, 0xC0, 0x15, 0xDB, 0xF4,
  0x09, 0x10, 0x12, 0x4A, 0xF8, 0x17, 0xE9, 0xFC, 0xEC, 0xFE, 0xF2, 0xFC,
  0xFA, 0x07, 0x05, 0x15, 0xEC, 0x13, 0x00, 0xEC, 0xEF, 0xE9, 0xFF, 0xF9,
  0x09, 0xEE, 0x09, 0x0F, 0x00, 0x0A, 0x14, 0xEB, 0x04, 0xEC, 0x0A, 0xEE,
  0xF5, 0xF3, 0x16, 0xF5, 0xF1, 0xED, 0x07, 0xF4, 0x05, 0x16, 0x1A, 0xED,
  0x07, 0x0E, 0x00, 0xED, 0x03, 0x03, 0x16, 0x14, 0xF1, 0xF1, 0xF6, 0xF0,
  0x02, 0xEE, 0x06, 0xEF, 0xFE, 0xFB, 0x0A, 0xF5, 0x12, 0x18, 0x2C, 0x01,
  0x29, 0x14, 0x04, 0x1A, 0xEC, 0x1F, 0xE7, 0x28, 0x03, 0x0D, 0x30, 0xEA,
  0x06, 0xFB, 0x22, 0xF1, 0xFD, 0xF5, 0x0A, 0xFC, 0xF9, 0xFA, 0x03, 0x0A,
  0xF4, 0x11, 0x0E, 0x00, 0x20, 0x16, 0xE3, 0x11, 0xEA, 0x0F, 0xF1, 0xF3,
  0xF2, 0xC3, 0xDE, 0xCC, 0x0D, 0x03, 0x30, 0x0F, 0x31, 0xE9, 0x0A, 0x23,
  0x49, 0xF3, 0x14, 0x05, 0xC1, 0x19, 0xC5, 0x0D, 0x12, 0x2E, 0xFE, 0x1D,
  0x01, 0xD1, 0xEC, 0x0F, 0xEE, 0xB9, 0xF1, 0x09, 0xF9, 0xBE, 0x16, 0xE0,
  0x05, 0x00, 0xC6, 0x00, 0xFF, 0x1E, 0xA9, 0xD8, 0xEB, 0x00, 0xF6, 0xB7,
  0x04, 0xFE, 0x04, 0x02, 0x04, 0xB0, 0xF2, 0x0C, 0xA0, 0xE7, 0x05, 0xA0,
  0xB9, 0x0F, 0x11, 0x09, 0xEB, 0x38, 0x17, 0xBD, 0xEC, 0x03, 0xCA, 0x03,
  0xCF, 0xFB, 0x09, 0xBF, 0xA7, 0x3D, 0xC2, 0xB6, 0x3B, 0xC2, 0x32, 0x17,
  0xCF, 0x93, 0xEC, 0x92, 0xEF, 0xF6, 0xEB, 0x07, 0xF7, 0x01, 0xF0, 0x03,
  0xFE, 0x01, 0xF0, 0x15, 0x0A, 0xF8, 0xFB, 0xF1, 0xEF, 0xEA, 0xEA, 0xF9,
  0xEB, 0x12, 0xEC, 0x0D, 0x0D, 0xFC, 0xF5, 0x0C, 0xEB, 0x0A, 0xF7, 0xE7,
  0xFB, 0x0D, 0x09, 0xFD, 0x0C, 0xEA, 0xE9, 0x03, 0x12, 0x08, 0xFB, 0x0A,
  0xF2, 0x05, 0x07, 0x01, 0xF7, 0xF3, 0xEE, 0xF8, 0x01, 0x0D, 0xEE, 0xF6,
  0x14, 0xF9, 0x14, 0xF7, 0x0E, 0xF2, 0x00, 0xFB, 0x12, 0x0C, 0x11, 0xEB,
  0x0B, 0x03, 0xF6, 0x13, 0x01, 0xEA, 0xF7, 0x01, 0x13, 0xFE, 0xF3, 0x13,
  0x08, 0xF5, 0x02, 0x11, 0xEE, 0xF7, 0xF7, 0xE9, 0xF9, 0x01, 0xF4, 0x0D,
  0xF5, 0x10, 0xE6, 0xFA, 0x11, 0xEF, 0x0E, 0xE8, 0xEA, 0xFA, 0x15, 0x08,
  0xEF, 0xEA, 0xEB, 0xF5, 0x0F, 0xF9, 0xFF, 0xF4, 0x13, 0xF9, 0xEB, 0xF3,
  0xFB, 0xFB, 0xFD, 0xE8, 0x0B, 0x12, 0x03, 0xF9, 0x0D, 0x0A, 0xFC, 0xF0,
  0xEF, 0x21, 0x2C, 0xE7, 0x2F, 0x1D, 0x08, 0x28, 0xFB, 0x0E, 0xD7, 0x09,
  0xF0, 0x10, 0x3D, 0x0D, 0x1A, 0xFA, 0x0F, 0xFA, 0x0E, 0xF5, 0x06, 0xEF,
  0x13, 0xFA, 0x11, 0x0C, 0x05, 0x0F, 0x23, 0x06, 0x2D, 0x1D, 0x04, 0x11,
  0x06, 0x0E, 0x05, 0xF1, 0x00, 0xB8, 0xF2, 0xDA, 0x16, 0x0B, 0x18, 0x07,
  0x15, 0xE7, 0x0C, 0x34, 0x3A, 0xCB, 0xFB, 0x18, 0xC2, 0x1D, 0xBD, 0xE9,
  0x08, 0x3C, 0xEB, 0x45, 0x15, 0x0E, 0x46, 0xF7, 0x16, 0xEA, 0xEB, 0xF8,
  0xFB, 0x12, 0xCF, 0x14, 0xFD, 0xE9, 0x28, 0xFC, 0xE5, 0xFF, 0x1A, 0xF0,
  0x17, 0xFF, 0x14, 0xE2, 0x14, 0x07, 0x0F, 0xF6, 0xF4, 0x00, 0xFC, 0xFA,
  0x1D, 0x23, 0xE0, 0x25, 0xF0, 0x07, 0x06, 0x06, 0xF1, 0xAA, 0xD9, 0xC1,
  0x0D, 0x02, 0x25, 0x15, 0x24, 0xFD, 0xEF, 0x1D, 0x4D, 0xD6, 0xF3, 0x25,
  0xC9, 0x1B, 0xD5, 0x13, 0xEF, 0x15, 0x07, 0x37, 0x0B, 0x02, 0x36, 0x00,
  0x17, 0xF2, 0x15, 0x27, 0xFA, 0x11, 0xCB, 0x1D, 0x01, 0x08, 0x27, 0x01,
  0x1C, 0xD7, 0x1E, 0x08, 0xEA, 0xF3, 0xF4, 0x06, 0xED, 0xE4, 0xEA, 0xF9,
  0xF6, 0x06, 0x23, 0x16, 0x0B, 0x20, 0xE6, 0x2F, 0x06, 0x0B, 0x0C, 0xF5,
  0xE9, 0xAA, 0xEA, 0xC3, 0x13, 0x00, 0x15, 0x0F, 0x28, 0xEF, 0x04, 0x34,
  0x45, 0xD3, 0xF1, 0x22, 0xCF, 0x28, 0xB8, 0x12, 0x16, 0x1C, 0x02, 0x36,
  0xEB, 0xFA, 0x2E, 0xFB, 0x03, 0xF9, 0x00, 0x11, 0xF0, 0x25, 0xD0, 0x23,
  0xEC, 0xFA, 0x04, 0x09, 0xFA, 0xE5, 0x0F, 0x0C, 0x0A, 0xE8, 0x0D, 0xF9,
  0x04, 0xFE, 0xEA, 0xED, 0x10, 0x17, 0x13, 0x05, 0x07, 0x03, 0x02, 0x25,
  0xF5, 0x02, 0xFF, 0xF0, 0x08, 0xA6, 0xFA, 0xB7, 0x00, 0xEA, 0x29, 0x08,
  0x12, 0xFB, 0x0B, 0x28, 0x67, 0xE5, 0xE6, 0x0E, 0xE3, 0x26, 0xB7, 0xEC,
  0x03, 0x26, 0xF4, 0x28, 0x0A, 0xEE, 0xEF, 0x07, 0x02, 0xC9, 0x03, 0x13,
  0xEC, 0xB2, 0x0D, 0xB5, 0xF6, 0x15, 0xCD, 0xEF, 0xFD, 0x04, 0xA4, 0xB2,
  0x10, 0x0E, 0xF2, 0xB6, 0x03, 0x11, 0xF4, 0x08, 0xF5, 0xC9, 0xE2, 0xF2,
  0x9D, 0xF4, 0x13, 0x81, 0xAB, 0xF9, 0xEB, 0xF0, 0x13, 0x3F, 0x11, 0xD2,
  0xFA, 0xFB, 0xC2, 0xF4, 0xC1, 0x0B, 0x16, 0xA6, 0xB1, 0x1E, 0xD9, 0xD4,
  0x34, 0xC3, 0x3E, 0x0B, 0xE5, 0xA3, 0x15, 0x8E, 0xF0, 0xFE, 0x21, 0xE9,
  0x2D, 0xEE, 0x0C, 0x16, 0x10, 0x1E, 0xEC, 0x12, 0xED, 0xFE, 0x13, 0xF1,
  0xF9, 0xDE, 0x04, 0x16, 0xFE, 0xF1, 0x03, 0x04, 0xFF, 0xF9, 0x0E, 0xF6,
  0xED, 0x14, 0x0D, 0xF1, 0x1F, 0x13, 0xF0, 0x21, 0x10, 0x12, 0xFC, 0xFC,
  0x06, 0xAE, 0x02, 0xE3, 0xEA, 0xEA, 0x1A, 0x18, 0x2C, 0xEC, 0x05, 0x11,
  0x51, 0xE1, 0x12, 0x2E, 0xDE, 0x2C, 0xD0, 0x00, 0xFC, 0x30, 0xED, 0x30,
  0xFE, 0xF8, 0xEA, 0xEC, 0xFB, 0x13, 0x10, 0xF1, 0xFA, 0x0F, 0xF1, 0xF7,
  0x15, 0xF6, 0x06, 0xFE, 0xFC, 0xF2, 0xF7, 0x01, 0xF7, 0xF6, 0x0D, 0xFF,
  0xF3, 0x08, 0x09, 0xEC, 0xEC, 0x09, 0xF5, 0xF9, 0xFE, 0x0D, 0x0D, 0x12,
  0xFB, 0xF5, 0x05, 0x0D, 0xF4, 0x0F, 0x14, 0xEC, 0x07, 0xEA, 0xF7, 0xEE,
  0xEB, 0xEC, 0xED, 0x0F, 0xEC, 0xF3, 0x12, 0xEF, 0xFA, 0xFF, 0x00, 0xED,
  0xFA, 0x00, 0x0A, 0xEE, 0x01, 0xF8, 0xEF, 0x03, 0x06, 0x08, 0x09, 0xF9,
  0x07, 0x0A, 0xF1, 0x03, 0x09, 0xEA, 0xF4, 0x0F, 0xF6, 0xF0, 0x12, 0xF5,
  0x09, 0x06, 0x05, 0xF9, 0xFB, 0x07, 0x0E, 0xF4, 0xF9, 0xF0, 0xED, 0xED,
  0xE9, 0xF9, 0x11, 0xE9, 0xEC, 0x02, 0xFD, 0x03, 0xED, 0x0D, 0x03, 0xF9,
  0xF0, 0xED, 0x0E, 0x06, 0x08, 0x01, 0xF5, 0x09, 0xFE, 0x03, 0x05, 0x10,
  0xF3, 0x00, 0x00, 0x0D, 0x09, 0xED, 0x17, 0x12, 0x50, 0xE2, 0xFD, 0xFF,
  0xD2, 0x07, 0xFE, 0xFF, 0x04, 0x00, 0x00, 0x00, 0x00, 0x01, 0x00, 0x00,
  0xEF, 0xFF, 0xFF, 0xFF, 0x72, 0xFF, 0xFF, 0xFF, 0xDC, 0xFF, 0xFF, 0xFF,
  0x19, 0x00, 0x00, 0x00, 0x51, 0xFF, 0xFF, 0xFF, 0x27, 0xFF, 0xFF, 0xFF,
  0xFD, 0xFF, 0xFF, 0xFF, 0x86, 0xFF, 0xFF, 0xFF, 0xC6, 0xFF, 0xFF, 0xFF,
  0xB5, 0xFF, 0xFF, 0xFF, 0x23, 0x00, 0x00, 0x00, 0xAC, 0xFF, 0xFF, 0xFF,
  0x78, 0xFF, 0xFF, 0xFF, 0x00, 0x00, 0x00, 0x00, 0xF4, 0xFF, 0xFF, 0xFF,
  0x00, 0x00, 0x00, 0x00, 0xAA, 0xFF, 0xFF, 0xFF, 0x01, 0x00, 0x00, 0x00,
  0x34, 0xFF, 0xFF, 0xFF, 0xD0, 0xFF, 0xFF, 0xFF, 0x00, 0x00, 0x00, 0x00,
  0x13, 0x00, 0x00, 0x00, 0xFB, 0xFF, 0xFF, 0xFF, 0xF9, 0xFF, 0xFF, 0xFF,
  0x8E, 0xFF, 0xFF, 0xFF, 0x2C, 0x00, 0x00, 0x00, 0x00, 0x00, 0x00, 0x00,
  0x00, 0x00, 0x00, 0x00, 0x00, 0x00, 0x00, 0x00, 0xCD, 0xFF, 0xFF, 0xFF,
  0x89, 0xFF, 0xFF, 0xFF, 0xA7, 0xFF, 0xFF, 0xFF, 0xC7, 0xFF, 0xFF, 0xFF,
  0x77, 0x00, 0x00, 0x00, 0xD0, 0xFF, 0xFF, 0xFF, 0xF2, 0xFF, 0xFF, 0xFF,
  0xF6, 0xFF, 0xFF, 0xFF, 0x54, 0xFF, 0xFF, 0xFF, 0x9B, 0xFF, 0xFF, 0xFF,
  0xBC, 0xFF, 0xFF, 0xFF, 0xE4, 0xFF, 0xFF, 0xFF, 0x63, 0x00, 0x00, 0x00,
  0x6E, 0x00, 0x00, 0x00, 0x04, 0x00, 0x00, 0x00, 0xDF, 0xFF, 0xFF, 0xFF,
  0x00, 0x00, 0x00, 0x00, 0x2A, 0x00, 0x00, 0x00, 0xAA, 0xFF, 0xFF, 0xFF,
  0xB7, 0xFF, 0xFF, 0xFF, 0x11, 0x00, 0x00, 0x00, 0xBC, 0xFF, 0xFF, 0xFF,
  0x27, 0x00, 0x00, 0x00, 0xD0, 0xFF, 0xFF, 0xFF, 0x5C, 0x00, 0x00, 0x00,
  0xC8, 0xFF, 0xFF, 0xFF, 0xC8, 0xFF, 0xFF, 0xFF, 0x49, 0x00, 0x00, 0x00,
  0xEA, 0xFF, 0xFF, 0xFF, 0x0A, 0x00, 0x00, 0x00, 0xD6, 0xFF, 0xFF, 0xFF,
  0xBE, 0xFF, 0xFF, 0xFF, 0xE1, 0xFF, 0xFF, 0xFF, 0xEA, 0xFF, 0xFF, 0xFF,
  0xE5, 0xFF, 0xFF, 0xFF, 0xDE, 0x08, 0xFE, 0xFF, 0x04, 0x00, 0x00, 0x00,
  0x00, 0x06, 0x00, 0x00, 0xFF, 0x00, 0xFE, 0xFE, 0xF7, 0x0B, 0xF7, 0x00,
  0xF7, 0xF7, 0xF8, 0xFE, 0x04, 0xF6, 0x03, 0x0B, 0x01, 0x05, 0xF4, 0x09,
  0x07, 0x02, 0xFE, 0x0C, 0xF0, 0x19, 0x03, 0xE8, 0x03, 0x0D, 0x2B, 0xFC,
  0x24, 0x24, 0x04, 0x0F, 0x05, 0xF6, 0x02, 0xF8, 0xF7, 0xF4, 0x05, 0xF9,
  0xF9, 0x00, 0xFB, 0xFC, 0x13, 0x03, 0xF6, 0xF9, 0x1D, 0xFE, 0x0B, 0x0B,
  0xE8, 0x1C, 0xF4, 0xF3, 0x05, 0xFD, 0x03, 0x08, 0x06, 0xFF, 0x00, 0x04,
  0x08, 0xFD, 0x06, 0x08, 0x12, 0xD3, 0xE6, 0x0E, 0xDD, 0xEA, 0xD5, 0x03,
  0xDF, 0xD9, 0xEE, 0x05, 0x0B, 0xFB, 0x03, 0xFD, 0x01, 0x0A, 0xF6, 0xF4,
  0xFE, 0xF5, 0xFF, 0x06, 0xF3, 0x05, 0x19, 0xF5, 0x0A, 0x18, 0x0F, 0x05,
  0x2B, 0x2C, 0x13, 0x08, 0xFD, 0x0A, 0xF7, 0x07, 0xFD, 0xFF, 0xF4, 0x06,
  0x09, 0x07, 0x04, 0xFE, 0x03, 0x27, 0x0C, 0x0E, 0x09, 0x1B, 0x2C, 0xFC,
  0x14, 0x27, 0x05, 0x03, 0x09, 0xF9, 0xFE, 0x06, 0xFC, 0x02, 0xFF, 0xFF,
  0x0A, 0x03, 0x01, 0x04, 0xFD, 0xF6, 0x02, 0xF9, 0xFB, 0xFD, 0xF8, 0xFB,
  0xFB, 0x07, 0xFD, 0xFB, 0x05, 0x03, 0xF8, 0x07, 0x0C, 0x04, 0x0B, 0x09,
  0x0A, 0x02, 0xF5, 0x07, 0xF3, 0x09, 0x14, 0x07, 0x19, 0x16, 0x1C, 0x01,
  0x19, 0x24, 0x08, 0x01, 0xFC, 0xF6, 0xF5, 0x05, 0xFF, 0x03, 0xFF, 0xFE,
  0xFF, 0xF7, 0xFE, 0xFA, 0xF5, 0xF9, 0xFC, 0x03, 0x09, 0xF7, 0xFD, 0x05,
  0x02, 0x06, 0x08, 0xF5, 0x01, 0x01, 0x02, 0x08, 0xF4, 0x09, 0xFF, 0x0B,
  0x05, 0x0A, 0x06, 0xFD, 0xE5, 0x20, 0x09, 0xD6, 0x21, 0xE1, 0x0E, 0x0A,
  0x26, 0x1C, 0x18, 0x0F, 0xFC, 0xFE, 0xF5, 0xF9, 0x05, 0x09, 0xFD, 0x0B,
  0xFB, 0x05, 0xFB, 0x06, 0x12, 0xA0, 0xE7, 0x1A, 0xB7, 0x04, 0xDC, 0xF0,
  0xD1, 0xDA, 0xF4, 0x05, 0xFA, 0x02, 0xFE, 0x0D, 0x04, 0xFD, 0xFB, 0xFC,
  0x03, 0xF8, 0x05, 0xF4, 0xE2, 0x17, 0x11, 0xF1, 0x0B, 0x00, 0x11, 0xFF,
  0x25, 0x2F, 0x0C, 0x10, 0x00, 0xF7, 0xF8, 0x0A, 0x0A, 0x05, 0x01, 0x03,
  0xFF, 0x05, 0x08, 0x04, 0x09, 0xF5, 0x04, 0x01, 0x03, 0xF4, 0xFA, 0x0A,
  0x09, 0xF7, 0xFA, 0xFC, 0xF5, 0xF5, 0x05, 0xF9, 0x07, 0xFB, 0x09, 0xFF,
  0x00, 0xFD, 0x01, 0x06, 0xFA, 0x01, 0x00, 0xFC, 0xF6, 0xF4, 0x01, 0x0B,
  0x09, 0xF4, 0x00, 0xFD, 0x05, 0xFE, 0x09, 0xFE, 0xFA, 0x06, 0xFA, 0xF6,
  0x09, 0x07, 0xFD, 0xFD, 0xE1, 0x05, 0x0B, 0xF4, 0x0E, 0xF4, 0x1B, 0x10,
  0x21, 0x2C, 0x1D, 0x03, 0xFC, 0xFB, 0x00, 0x08, 0xFB, 0x03, 0x0A, 0xF9,
  0xF7, 0xF8, 0xFC, 0xF9, 0x00, 0x01, 0x01, 0xF5, 0xF9, 0xF5, 0x0B, 0xF4,
  0x09, 0xF6, 0x0B, 0xF6, 0x05, 0xFE, 0xF4, 0xFD, 0x01, 0xFB, 0xF7, 0xFD,
  0x0C, 0xF6, 0x00, 0x07, 0xF6, 0x0E, 0x04, 0xF2, 0x04, 0x02, 0x18, 0xF1,
  0x25, 0x28, 0x07, 0x08, 0xFA, 0x02, 0xF6, 0xF4, 0x05, 0xFC, 0xFC, 0x00,
  0x06, 0xF9, 0x06, 0xFE, 0x0E, 0xB4, 0xFD, 0x1B, 0xDE, 0xF4, 0xDD, 0xE9,
  0xDD, 0xD5, 0xE5, 0xFD, 0xF5, 0xF7, 0xF5, 0x01, 0x0B, 0xFD, 0x03, 0xFC,
  0x0B, 0x0B, 0xFC, 0x0C, 0x00, 0x2A, 0x08, 0xFF, 0x09, 0x2C, 0x23, 0xF9,
  0x15, 0x33, 0xF8, 0x03, 0xFE, 0xFD, 0xFC, 0x02, 0x05, 0x09, 0x0A, 0xF7,
  0x02, 0x03, 0x03, 0x06, 0xEA, 0x1D, 0x07, 0xEF, 0x02, 0x0A, 0x1B, 0x03,
  0x2B, 0x2F, 0x13, 0x0B, 0xF4, 0xFF, 0x0B, 0xFB, 0x02, 0x00, 0x0A, 0xFD,
  0xFA, 0x04, 0x01, 0xFE, 0xFC, 0xFB, 0xF7, 0xFA, 0x0B, 0xFF, 0xF5, 0xFB,
  0xF8, 0x07, 0xFA, 0xF8, 0x0A, 0xFC, 0x08, 0x06, 0x06, 0xF5, 0xFA, 0x03,
  0xFB, 0xFF, 0x08, 0x02, 0x09, 0xB9, 0xF3, 0x19, 0xC4, 0x01, 0xDF, 0xF9,
  0xDF, 0xE4, 0xE7, 0xFD, 0xFE, 0x07, 0x0B, 0x08, 0x03, 0xF9, 0x04, 0x03,
  0x05, 0x0C, 0xFD, 0xF6, 0xF8, 0xFB, 0xF7, 0xFE, 0xFD, 0x0B, 0x0B, 0xF6,
  0xF8, 0xF6, 0xF5, 0xF4, 0xF9, 0x09, 0xF6, 0x01, 0x0A, 0x06, 0xF9, 0xF8,
  0x05, 0x03, 0xFC, 0xF9, 0xE9, 0x1B, 0x0B, 0x0B, 0x13, 0xF1, 0x21, 0x11,
  0x17, 0x16, 0x11, 0x0C, 0x00, 0x06, 0xF7, 0x09, 0x04, 0x07, 0x08, 0x0A,
  0xF4, 0x00, 0xF8, 0x08, 0x02, 0x05, 0xF5, 0x09, 0x00, 0xF4, 0xFB, 0x07,
  0x00, 0xF8, 0xF9, 0xF4, 0x09, 0xF5, 0x03, 0xF8, 0xFA, 0x0B, 0x03, 0xFD,
  0xFE, 0xFD, 0x00, 0x05, 0x07, 0xD2, 0xF3, 0x09, 0xEA, 0xEF, 0xCB, 0xFB,
  0xD6, 0xCB, 0xF2, 0x01, 0xF9, 0x06, 0x08, 0xFE, 0xFA, 0x05, 0x08, 0x03,
  0xF5, 0xF8, 0x08, 0xF6, 0xF7, 0x00, 0x05, 0x01, 0xF5, 0x01, 0xFE, 0xFD,
  0x03, 0xFB, 0xF4, 0xF7, 0xF6, 0xFE, 0x0A, 0x07, 0x02, 0x02, 0x08, 0xF8,
  0x05, 0xF7, 0x01, 0x08, 0xFA, 0xF7, 0xFE, 0x03, 0xFE, 0xF8, 0xF9, 0xFA,
  0x02, 0xF6, 0xFE, 0xFB, 0x05, 0x00, 0x02, 0xF6, 0x02, 0xFD, 0x08, 0xF6,
  0xF8, 0xF5, 0xFC, 0xFF, 0xF5, 0xF7, 0x01, 0xFE, 0x02, 0x01, 0x00, 0x06,
  0xF9, 0xFF, 0x08, 0xF4, 0x09, 0x0B, 0x03, 0x01, 0xFF, 0xF5, 0xFF, 0xF6,
  0xF7, 0x08, 0x00, 0xFC, 0xEA, 0x19, 0x07, 0xF1, 0x03, 0xF6, 0x22, 0xF6,
  0x32, 0x2F, 0x07, 0x0E, 0xFE, 0xFC, 0x05, 0xF4, 0xFD, 0xFA, 0xFC, 0xFE,
  0x00, 0xFA, 0xFF, 0xF6, 0xF3, 0x18, 0x15, 0xE5, 0x15, 0x0F, 0x1A, 0xF2,
  0x1A, 0x2B, 0x02, 0x09, 0x08, 0x00, 0x03, 0xF4, 0x0A, 0xFA, 0xFA, 0xF7,
  0xF4, 0x03, 0xF7, 0x00, 0xF8, 0xFF, 0x0D, 0xEA, 0x10, 0x0C, 0x15, 0xF8,
  0x21, 0x1B, 0xF8, 0x0B, 0x0C, 0xF6, 0xFF, 0x07, 0xFE, 0xFB, 0xFF, 0xFC,
  0xF4, 0xF3, 0x06, 0x0C, 0xE8, 0x0A, 0x15, 0xFE, 0x10, 0xEB, 0x13, 0x02,
  0x36, 0x27, 0x11, 0x0A, 0x07, 0xFC, 0xFC, 0x07, 0x0A, 0xF7, 0xFE, 0x07,
  0xFB, 0x09, 0x04, 0xFA, 0xF3, 0x0D, 0x17, 0xEE, 0x19, 0x11, 0x1A, 0xF3,
  0x26, 0x26, 0x0A, 0xFF, 0xF9, 0xFF, 0xF9, 0x09, 0x06, 0xFA, 0xFD, 0xF8,
  0xFA, 0x00, 0xFA, 0x00, 0x11, 0xBF, 0xE4, 0x17, 0xBB, 0x00, 0xD4, 0xF6,
  0xD4, 0xDD, 0xEE, 0x03, 0xF9, 0xF5, 0x07, 0x08, 0x02, 0x00, 0x04, 0xFC,
  0xFA, 0xFA, 0x0A, 0xFC, 0xE7, 0x0C, 0x0E, 0xDC, 0x15, 0xE3, 0x15, 0x15,
  0x1A, 0x25, 0x20, 0x08, 0xF7, 0xFD, 0xFA, 0xF8, 0xFF, 0x00, 0xFA, 0x07,
  0x0A, 0x03, 0x01, 0xF9, 0xF9, 0x38, 0x06, 0xEC, 0x11, 0x04, 0x2C, 0xFF,
  0x1C, 0x3A, 0x10, 0x09, 0xF5, 0x0B, 0x08, 0xF9, 0x03, 0xFC, 0x08, 0x04,
  0xFA, 0x03, 0x06, 0x0C, 0xFD, 0x14, 0x02, 0xEE, 0xFF, 0x0E, 0x1C, 0x09,
  0x13, 0x1A, 0x08, 0x0A, 0x09, 0x03, 0x06, 0x06, 0xFD, 0xFC, 0x0B, 0xFF,
  0x09, 0xF5, 0x09, 0xFD, 0x02, 0x05, 0xFB, 0xFB, 0xF8, 0x02, 0x06, 0x04,
  0xF7, 0xFE, 0x00, 0xF9, 0x06, 0xFA, 0xF4, 0xFC, 0xF5, 0x01, 0x0B, 0x02,
  0x04, 0x05, 0x0B, 0x02, 0x00, 0xF8, 0xFD, 0xFF, 0x0A, 0xF6, 0xFA, 0x05,
  0xFB, 0x03, 0x0B, 0xFF, 0x09, 0xF7, 0x0B, 0x07, 0xF7, 0xF8, 0xF5, 0x00,
  0x09, 0x02, 0xF7, 0x09, 0xFD, 0xF7, 0xFF, 0xFE, 0xF5, 0xFD, 0xFA, 0x01,
  0xFA, 0x0A, 0x05, 0x00, 0xFD, 0xFA, 0x09, 0xF6, 0x08, 0x03, 0xFA, 0xFA,
  0x0B, 0x09, 0x03, 0x02, 0xCE, 0xC4, 0xC3, 0x06, 0x94, 0x93, 0xBF, 0xD5,
  0x81, 0xBF, 0xBC, 0x0D, 0x08, 0x08, 0x09, 0x09, 0x0B, 0x04, 0xF9, 0x03,
  0x09, 0xFC, 0x06, 0xF4, 0x13, 0xD2, 0xF4, 0x16, 0xE4, 0xF4, 0xCE, 0x00,
  0xCE, 0xCF, 0xED, 0x04, 0xFC, 0x01, 0xFD, 0x07, 0x04, 0xF9, 0x02, 0x05,
  0x03, 0xFF, 0x02, 0xFF, 0xFF, 0x37, 0x0E, 0x0C, 0x11, 0x05, 0x1C, 0x1C,
  0x16, 0x0C, 0x20, 0x02, 0x0E, 0xFF, 0x04, 0x03, 0xFB, 0xF6, 0x05, 0x0A,
  0x03, 0xFC, 0xFA, 0xF8, 0x04, 0xFA, 0xFC, 0xF9, 0x03, 0xFA, 0xF9, 0xF5,
  0x0C, 0xF5, 0x00, 0x00, 0x07, 0x02, 0xF9, 0x05, 0x09, 0xF7, 0xF9, 0xF4,
  0x03, 0xFE, 0xF6, 0xF4, 0xFB, 0xF5, 0xFE, 0x00, 0x01, 0x08, 0xF8, 0x02,
  0x07, 0xF8, 0x05, 0xF5, 0x00, 0xFD, 0xFB, 0x03, 0xFE, 0x05, 0xFB, 0x06,
  0x0A, 0xFF, 0xFB, 0x03, 0xDB, 0x13, 0x08, 0xBD, 0x27, 0xDC, 0x0E, 0x08,
  0x1D, 0x17, 0x0E, 0x08, 0xFB, 0x02, 0xF7, 0x09, 0xFB, 0x08, 0x09, 0x08,
  0x05, 0xF4, 0xF8, 0x08, 0xF6, 0x10, 0x17, 0xF6, 0x0A, 0x0D, 0x15, 0x08,
  0x23, 0x36, 0x08, 0xFF, 0xF0, 0x03, 0x0B, 0xF9, 0x07, 0x01, 0xF9, 0xFD,
  0x02, 0xFE, 0x01, 0xF9, 0xDF, 0x0D, 0x13, 0xF5, 0x18, 0xE3, 0x1F, 0x08,
  0x2D, 0x22, 0x14, 0x0C, 0x0A, 0x0C, 0xF9, 0x03, 0x05, 0x01, 0x00, 0x08,
  0x09, 0x07, 0x03, 0x0A, 0x10, 0xC4, 0xE7, 0x0E, 0xE3, 0xF1, 0xD2, 0xFB,
  0xDE, 0xD9, 0xEA, 0x06, 0xF5, 0xF6, 0xFE, 0xF9, 0xFA, 0xFF, 0x03, 0xF5,
  0x03, 0xFA, 0xF6, 0x05, 0x03, 0xF4, 0x05, 0xFA, 0x09, 0xFE, 0x06, 0x08,
  0xFA, 0x09, 0x05, 0xF6, 0x08, 0xFB, 0xF8, 0xF4, 0xFB, 0xF7, 0xF6, 0x09,
  0x00, 0x08, 0x07, 0xF8, 0xDC, 0x22, 0x0D, 0xCC, 0x16, 0xDC, 0x09, 0x0D,
  0x2B, 0x1F, 0x1B, 0x07, 0xF6, 0x0A, 0x03, 0x03, 0xFA, 0xF2, 0x04, 0x09,
  0x06, 0x07, 0xFF, 0x0B, 0x21, 0x03, 0xFB, 0xFC, 0x02, 0x1A, 0x18, 0xF5,
  0xED, 0x11, 0xE8, 0xED, 0x03, 0xFB, 0x04, 0xFB, 0xF5, 0xF7, 0xFB, 0xFF,
  0x0A, 0x04, 0xF9, 0x06, 0x0C, 0xAF, 0x00, 0x20, 0xD4, 0x03, 0xD3, 0xED,
  0xC9, 0xD7, 0xDC, 0xFF, 0x03, 0x02, 0x05, 0xFE, 0xF8, 0x0C, 0x07, 0xFD,
  0x08, 0xFD, 0xFF, 0xF6, 0xED, 0x1C, 0x09, 0xEF, 0x07, 0x03, 0x22, 0x01,
  0x29, 0x27, 0x15, 0x0E, 0xFE, 0x08, 0xFB, 0xF5, 0xFC, 0x00, 0x0A, 0xF6,
  0x0B, 0xF9, 0xFD, 0x05, 0xE3, 0x16, 0x02, 0xF1, 0x16, 0xEE, 0x17, 0x0A,
  0x29, 0x2F, 0x12, 0x0C, 0x08, 0x06, 0xFC, 0xFF, 0xFB, 0xF8, 0xFF, 0x05,
  0xF4, 0x08, 0xFE, 0x03, 0x0C, 0xAA, 0xFD, 0x1F, 0xC5, 0x02, 0xD6, 0xF9,
  0xCD, 0xD8, 0xD8, 0xFD, 0xFC, 0x04, 0xFD, 0x01, 0x00, 0x0A, 0x07, 0xFE,
  0xF5, 0x02, 0xFE, 0x09, 0xDF, 0x16, 0x0B, 0xDA, 0x1A, 0xE1, 0x18, 0x15,
  0x21, 0x1A, 0x24, 0x0A, 0x0A, 0x09, 0x01, 0x08, 0xFB, 0xF7, 0x07, 0xFA,
  0xF5, 0xF6, 0x07, 0xF6, 0xEB, 0xC7, 0xC5, 0xF8, 0xAE, 0xB3, 0xB9, 0xDE,
  0x95, 0xBB, 0xCF, 0x07, 0xFC, 0xF9, 0xF9, 0x0B, 0x0A, 0xF8, 0x0A, 0x01,
  0xF7, 0xFC, 0xFE, 0x04, 0xF4, 0xFA, 0xFD, 0x08, 0xFD, 0xFA, 0xF7, 0x06,
  0x07, 0x08, 0xF3, 0xFF, 0xF8, 0x08, 0xF7, 0x02, 0x00, 0x05, 0xF8, 0x00,
  0x0A, 0x09, 0x0B, 0x01, 0xF3, 0x28, 0x0F, 0xE3, 0x18, 0x0D, 0x1E, 0x05,
  0x16, 0x33, 0x06, 0x09, 0x03, 0xF8, 0x08, 0x01, 0xFB, 0x01, 0x00, 0xFD,
  0xFD, 0xF8, 0x01, 0x0B, 0xDF, 0x14, 0x18, 0xFE, 0x10, 0xED, 0x03, 0x10,
  0x39, 0x2F, 0x1B, 0x0A, 0xF7, 0x09, 0xFE, 0xF6, 0x09, 0x05, 0x07, 0xF6,
  0xFE, 0xF5, 0xFA, 0xF5, 0xFA, 0x09, 0xFE, 0xFE, 0xF9, 0xF7, 0x09, 0xFD,
  0xFD, 0x07, 0x06, 0xF5, 0x0B, 0x0A, 0xFF, 0x0B, 0xF5, 0xF9, 0xFB, 0x0B,
  0xFD, 0x00, 0xF4, 0x04, 0xDA, 0x22, 0x16, 0xC8, 0x27, 0xDE, 0x08, 0x13,
  0x27, 0x1B, 0x27, 0x0C, 0xFA, 0xFA, 0x07, 0xF9, 0x05, 0xF7, 0xF7, 0x04,
  0x0A, 0xF8, 0xFF, 0x00, 0x6C, 0xE9, 0xFD, 0xFF, 0x70, 0xE9, 0xFD, 0xFF,
  0x74, 0xE9, 0xFD, 0xFF, 0x78, 0xE9, 0xFD, 0xFF, 0xFA, 0x0E, 0xFE, 0xFF,
  0x04, 0x00, 0x00, 0x00, 0x10, 0x00, 0x00, 0x00, 0xD7, 0xF7, 0xFF, 0xFF,
  0x36, 0xFD, 0xFF, 0xFF, 0x66, 0xF5, 0xFF, 0xFF, 0xD7, 0xF8, 0xFF, 0xFF,
  0x16, 0x0F, 0xFE, 0xFF, 0x04, 0x00, 0x00, 0x00, 0x20, 0x00, 0x00, 0x00,
  0xFE, 0x43, 0x61, 0x14, 0x38, 0xE8, 0xE7, 0xD2, 0x37, 0x0A, 0xF1, 0x13,
  0xE7, 0xC7, 0xD7, 0x23, 0x05, 0xC1, 0xE7, 0x05, 0x2D, 0xB6, 0x02, 0xEB,
  0xB2, 0x22, 0xEB, 0x7F, 0x08, 0x2D, 0xDD, 0xBF, 0xC4, 0xE9, 0xFD, 0xFF,
  0x46, 0x0F, 0xFE, 0xFF, 0x04, 0x00, 0x00, 0x00, 0x20, 0x00, 0x00, 0x00,
  0x7F, 0x00, 0x00, 0x00, 0x76, 0xFE, 0xFF, 0xFF, 0x00, 0x00, 0x00, 0x00,
  0xA6, 0xFC, 0xFF, 0xFF, 0xFB, 0xFC, 0xFF, 0xFF, 0xE8, 0xFF, 0xFF, 0xFF,
  0x86, 0x05, 0x00, 0x00, 0xCC, 0x01, 0x00, 0x00, 0x72, 0x0F, 0xFE, 0xFF,
  0x04, 0x00, 0x00, 0x00, 0x80, 0x00, 0x00, 0x00, 0x58, 0x27, 0xBC, 0x3F,
  0x0A, 0x24, 0xF1, 0xD0, 0x37, 0x22, 0x1A, 0x23, 0xFF, 0xDF, 0xF4, 0x2D,
  0x09, 0x08, 0xFB, 0xE7, 0xD6, 0xE6, 0xDA, 0x1F, 0x28, 0xCD, 0xCE, 0x00,
  0xEF, 0xC4, 0x17, 0xF7, 0xD2, 0x29, 0xD6, 0x34, 0xC6, 0x18, 0x8C, 0xF0,
  0x22, 0x2A, 0x0C, 0x42, 0x00, 0x13, 0x14, 0x1D, 0x4C, 0x07, 0x05, 0x34,
  0xF6, 0xF6, 0x1B, 0xFC, 0x32, 0x1F, 0x30, 0x2F, 0x16, 0xFE, 0x1C, 0xE5,
  0x13, 0x17, 0x52, 0x20, 0x00, 0xD1, 0xC8, 0x08, 0xE0, 0x21, 0xFD, 0xF5,
  0x2C, 0x14, 0x07, 0xE0, 0xE2, 0xDF, 0x0C, 0x04, 0xE1, 0x00, 0xDB, 0x18,
  0x09, 0xD8, 0x2E, 0x35, 0xCE, 0xE5, 0x02, 0xCE, 0xD4, 0xCF, 0xF2, 0x00,
  0x5C, 0xD1, 0x12, 0x7F, 0xE3, 0xFD, 0xE1, 0xF0, 0x19, 0xE3, 0x58, 0x64,
  0x24, 0x2B, 0x9C, 0x3E, 0x2B, 0xEF, 0x57, 0xFD, 0xCF, 0xDF, 0xD8, 0xE5,
  0xDB, 0xFE, 0x06, 0x32, 0x80, 0xEA, 0xFD, 0xFF, 0x02, 0x10, 0xFE, 0xFF,
  0x04, 0x00, 0x00, 0x00, 0x40, 0x00, 0x00, 0x00, 0x95, 0x04, 0x00, 0x00,
  0x3C, 0xFE, 0xFF, 0xFF, 0xD7, 0xF9, 0xFF, 0xFF, 0x9E, 0xFF, 0xFF, 0xFF,
  0xF4, 0x06, 0x00, 0x00, 0xE2, 0xFF, 0xFF, 0xFF, 0xB7, 0x06, 0x00, 0x00,
  0x22, 0x06, 0x00, 0x00, 0xAE, 0xFF, 0xFF, 0xFF, 0x53, 0xFB, 0xFF, 0xFF,
  0xDB, 0xFF, 0xFF, 0xFF, 0xB7, 0xFD, 0xFF, 0xFF, 0x63, 0xFF, 0xFF, 0xFF,
  0x43, 0x00, 0x00, 0x00, 0x94, 0x03, 0x00, 0x00, 0xAD, 0x08, 0x00, 0x00,
  0x4E, 0x10, 0xFE, 0xFF, 0x04, 0x00, 0x00, 0x00, 0x00, 0x01, 0x00, 0x00,
  0xAC, 0x02, 0xC8, 0xF9, 0xCC, 0x40, 0x29, 0x49, 0x26, 0xC9, 0xF5, 0xA6,
  0xE9, 0xE6, 0xA7, 0xE7, 0x49, 0x38, 0x43, 0x53, 0x7F, 0xCB, 0x39, 0x45,
  0x3B, 0x53, 0xC5, 0xDF, 0x0A, 0xD9, 0x43, 0x0A, 0xAD, 0x47, 0x32, 0x52,
  0x2B, 0xDE, 0xAE, 0x13, 0x57, 0x5A, 0xEB, 0xDB, 0xF6, 0xC5, 0xED, 0x1D,
  0xCB, 0xBD, 0x22, 0x25, 0x48, 0x07, 0xFB, 0x50, 0xA7, 0xD7, 0xF8, 0x28,
  0x01, 0x26, 0xCF, 0xF7, 0xB0, 0xAE, 0xEA, 0xF9, 0xF1, 0xBA, 0x20, 0x1A,
  0xD3, 0x40, 0xE3, 0x4A, 0xEC, 0x04, 0x5A, 0x51, 0x0E, 0x32, 0xF0, 0xF3,
  0xB6, 0xF7, 0x58, 0x52, 0xDF, 0xE3, 0x41, 0x36, 0xBE, 0x02, 0xF6, 0x0F,
  0xE8, 0xE1, 0x27, 0x59, 0x2B, 0xD4, 0xEF, 0xB1, 0xF1, 0xEB, 0x56, 0xB7,
  0xCE, 0x09, 0xC5, 0x18, 0xE3, 0xC1, 0xB0, 0x4E, 0x9E, 0x48, 0xBD, 0x3A,
  0xEA, 0x04, 0xC8, 0xAD, 0x34, 0xBF, 0xA5, 0x5C, 0xAC, 0xB4, 0x34, 0xC7,
  0xE3, 0x2A, 0x20, 0x39, 0x21, 0xDC, 0xC2, 0xBC, 0xFD, 0xF6, 0x31, 0xD0,
  0xD6, 0x30, 0x0D, 0x3C, 0x46, 0x00, 0x22, 0xAB, 0x4A, 0x4C, 0xC8, 0xA3,
  0x4C, 0xDE, 0x48, 0x44, 0x0A, 0xD2, 0x24, 0x42, 0xF0, 0xF8, 0xE3, 0xD4,
  0x51, 0xCD, 0xC2, 0xC0, 0xA6, 0x0D, 0xE8, 0xC4, 0x4B, 0x02, 0xEC, 0x09,
  0x0A, 0x4C, 0x0B, 0xBA, 0xB5, 0xCE, 0xBF, 0x5B, 0x39, 0x5E, 0x3B, 0x26,
  0xF1, 0xC8, 0xC1, 0xFE, 0xE0, 0x3B, 0xD9, 0xEE, 0x57, 0x1E, 0xD0, 0x0C,
  0xE6, 0x0C, 0xB4, 0xB0, 0x58, 0xDF, 0x15, 0x35, 0xC8, 0x9D, 0xC5, 0xE5,
  0xC4, 0xC3, 0xAE, 0xB5, 0x25, 0xCF, 0xB0, 0x39, 0x37, 0x17, 0x3E, 0xC6,
  0xA9, 0x31, 0xA8, 0xF2, 0x23, 0xFE, 0x53, 0x00, 0x7E, 0x2E, 0xC7, 0xB3,
  0x26, 0x0C, 0x19, 0xED, 0xEE, 0xCA, 0xE0, 0xB6, 0xC1, 0xAC, 0xEA, 0x40,
  0x24, 0xB7, 0xF0, 0xC1, 0xDC, 0xEB, 0xFD, 0xFF, 0x5E, 0x11, 0xFE, 0xFF,
  0x04, 0x00, 0x00, 0x00, 0x40, 0x00, 0x00, 0x00, 0xC9, 0xFF, 0xFF, 0xFF,
  0xE4, 0xFF, 0xFF, 0xFF, 0xF3, 0xFF, 0xFF, 0xFF, 0xA8, 0xFF, 0xFF, 0xFF,
  0x46, 0x01, 0x00, 0x00, 0xB2, 0xFF, 0xFF, 0xFF, 0xF2, 0xFF, 0xFF, 0xFF,
  0xF2, 0xFF, 0xFF, 0xFF, 0xF4, 0xFF, 0xFF, 0xFF, 0xE0, 0xFF, 0xFF, 0xFF,
  0xE0, 0xFF, 0xFF, 0xFF, 0xF4, 0xFF, 0xFF, 0xFF, 0xC7, 0x03, 0x00, 0x00,
  0xF3, 0xFF, 0xFF, 0xFF, 0xA6, 0xFF, 0xFF, 0xFF, 0xA7, 0xFF, 0xFF, 0xFF,
  0xAA, 0x11, 0xFE, 0xFF, 0x04, 0x00, 0x00, 0x00, 0x00, 0xC2, 0x01, 0x00,
  0xFE, 0xFD, 0xFF, 0xFF, 0xFC, 0xFD, 0xFF, 0x01, 0x01, 0xFF, 0x01, 0x01,
  0x01, 0x01, 0xFF, 0xFE, 0xFF, 0xFF, 0x01, 0x00, 0x00, 0x00, 0xFE, 0x01,
  0xFF, 0x00, 0x00, 0xFF, 0xFF, 0xFF, 0xFE, 0x00, 0xFF, 0xFF, 0xFF, 0xFF,
  0x01, 0xFF, 0xFF, 0xFD, 0x00, 0x01, 0xFF, 0xFF, 0x01, 0x00, 0x01, 0x01,
  0x00, 0xFF, 0x01, 0x01, 0xFF, 0xFE, 0x01, 0xFF, 0xFF, 0xFF, 0xFF, 0x00,
  0x01, 0x01, 0xFF, 0xFF, 0x01, 0x00, 0xFF, 0x00, 0xFF, 0xFF, 0x01, 0x00,
  0x00, 0xFD, 0x01, 0xFF, 0x01, 0xFE, 0xFF, 0xFF, 0xFF, 0x01, 0xFE, 0xFF,
  0x00, 0xFF, 0xFF, 0xFE, 0xFF, 0xFF, 0xFF, 0x01, 0x00, 0xFF, 0x01, 0x00,
  0x01, 0xFF, 0x01, 0x01, 0xFF, 0xFE, 0xFF, 0x01, 0xFF, 0xFF, 0x00, 0xFF,
  0xFF, 0x01, 0x01, 0x00, 0xFF, 0x00, 0xFF, 0x00, 0x01, 0xFF, 0x00, 0xFF,
  0x00, 0x01, 0xFF, 0x00, 0x00, 0xFF, 0x01, 0xFF, 0xFF, 0x00, 0x00, 0xFF,
  0x00, 0x00, 0xFF, 0xFF, 0xFF, 0x01, 0x00, 0xFF, 0xFF, 0x00, 0x00, 0x00,
  0x00, 0xFE, 0xFF, 0x01, 0xFD, 0x00, 0xFF, 0x01, 0x01, 0xFF, 0xFF, 0xFF,
  0xFF, 0x00, 0x01, 0x00, 0xFF, 0x01, 0x00, 0x00, 0xFF, 0x00, 0x01, 0xFF,
  0xFF, 0x00, 0xFF, 0x00, 0x00, 0x00, 0x01, 0xFF, 0x01, 0xFE, 0x00, 0xFE,
  0x00, 0xFF, 0x01, 0x00, 0x00, 0x01, 0x01, 0x00, 0xFF, 0xFF, 0x00, 0x01,
  0xFF, 0x01, 0x01, 0xFF, 0x00, 0x00, 0x01, 0x00, 0x01, 0xFF, 0x00, 0x00,
  0x00, 0xFF, 0x00, 0xFF, 0x01, 0x00, 0x01, 0x01, 0x01, 0x01, 0x00, 0x00,
  0xFF, 0x00, 0x01, 0xFF, 0x00, 0x01, 0xFF, 0xFF, 0xFF, 0xFF, 0x00, 0xFF,
  0xFF, 0x01, 0xFF, 0x00, 0x01, 0xFF, 0x00, 0x00, 0xFF, 0x01, 0x00, 0x01,
  0xFF, 0x00, 0x00, 0x00, 0x00, 0x00, 0x01, 0x00, 0x01, 0xFF, 0xFF, 0x00,
  0xFF, 0x00, 0x01, 0xFE, 0x00, 0x01, 0xFF, 0x00, 0x00, 0x01, 0xFF, 0xFF,
  0x01, 0x00, 0xFF, 0xFF, 0xFE, 0xFF, 0xFF, 0x00, 0x00, 0xFF, 0x00, 0xFF,
  0x01, 0x01, 0x01, 0xFF, 0x01, 0x01, 0x00, 0xFF, 0x00, 0x00, 0x01, 0x00,
  0x00, 0x02, 0xFF, 0xFF, 0x00, 0x01, 0xFF, 0x00, 0x01, 0x01, 0x00, 0xFF,
  0x01, 0x00, 0x00, 0xFF, 0xFF, 0x00, 0x00, 0xFF, 0x01, 0xFF, 0x01, 0xFF,
  0x01, 0x00, 0xFF, 0xFF, 0xFF, 0xFF, 0x00, 0x01, 0xFF, 0x01, 0xFF, 0xFE,
  0xFF, 0x00, 0x00, 0xFF, 0x01, 0xFF, 0xFF, 0xFF, 0xFF, 0x00, 0x00, 0xFF,
  0xFF, 0xFF, 0x00, 0xFF, 0xFF, 0x00, 0x01, 0x00, 0x01, 0x01, 0x00, 0x00,
  0xFF, 0xFF, 0x01, 0x00, 0x00, 0x01, 0x00, 0x00, 0x01, 0x01, 0xFF, 0xFF,
  0xFF, 0x00, 0x01, 0xFF, 0xFF, 0x01, 0xFF, 0x02, 0x00, 0x00, 0x00, 0xFE,
  0xFF, 0x00, 0x00, 0xFE, 0x00, 0x00, 0x01, 0x01, 0x00, 0x00, 0xFF, 0x00,
  0xFF, 0xFF, 0xFF, 0x01, 0xFF, 0xFF, 0xFF, 0x00, 0x00, 0xFF, 0xFF, 0x00,
  0x00, 0xFF, 0xFF, 0x00, 0xFF, 0x01, 0xFF, 0x01, 0x00, 0x00, 0xFF, 0xFF,
  0x00, 0xFF, 0xFF, 0xFF, 0x01, 0x00, 0xFF, 0xFF, 0xFF, 0xFF, 0x00, 0xFE,
  0xFF, 0xFF, 0x00, 0xFD, 0x01, 0x00, 0xFF, 0xFF, 0x00, 0xFE, 0xFF, 0xFF,
  0x00, 0xFF, 0x01, 0xFF, 0xFF, 0xFF, 0x00, 0xFF, 0xFF, 0xFE, 0x00, 0x01,
  0x01, 0x00, 0x00, 0xFE, 0x00, 0x00, 0x00, 0xFF, 0x01, 0x00, 0x00, 0x01,
  0xFD, 0xFF, 0x00, 0x00, 0x00, 0x00, 0xFF, 0xFF, 0x00, 0xFF, 0x01, 0x01,
  0xFF, 0x01, 0xFF, 0xFF, 0x01, 0x00, 0x00, 0xFE, 0xFF, 0x00, 0x01, 0xFF,
  0xFD, 0xFF, 0xFF, 0xFF, 0x00, 0x00, 0x01, 0x01, 0x01, 0x00, 0x01, 0xFF,
  0x00, 0xFF, 0x00, 0xFE, 0xFF, 0x00, 0xFF, 0x00, 0xFF, 0xFF, 0x00, 0xFF,
  0xFF, 0x00, 0x01, 0xFF, 0x00, 0x01, 0x00, 0x00, 0x01, 0x01, 0x00, 0x01,
  0xFF, 0x01, 0xFF, 0x00, 0x00, 0x00, 0xFF, 0x00, 0x00, 0x01, 0x01, 0xFF,
  0xFF, 0x00, 0x01, 0x00, 0x00, 0x01, 0xFF, 0x01, 0x00, 0xFE, 0xFF, 0xFF,
  0x00, 0xFF, 0x00, 0x01, 0x00, 0x01, 0x01, 0x00, 0x00, 0xFF, 0x01, 0xFF,
  0xFD, 0x00, 0x00, 0x01, 0xFF, 0x00, 0xFF, 0x01, 0xFF, 0xFF, 0x00, 0xFE,
  0x01, 0xFF, 0xFF, 0xFE, 0x00, 0x01, 0xFF, 0xFE, 0xFF, 0xFF, 0xFF, 0x00,
  0x01, 0x00, 0x00, 0x01, 0x00, 0xFF, 0x00, 0x01, 0xFF, 0x00, 0x00, 0xFE,
  0x00, 0xFF, 0x00, 0x00, 0x01, 0x00, 0x01, 0x00, 0x01, 0x01, 0x00, 0xFF,
  0xFE, 0x00, 0x00, 0x01, 0x01, 0xFF, 0x00, 0xFF, 0x00, 0x01, 0x01, 0x00,
  0xFF, 0xFF, 0xFF, 0xFE, 0xFF, 0x01, 0xFF, 0x00, 0xFF, 0x00, 0xFF, 0x01,
  0xFF, 0xFF, 0x01, 0x00, 0xFF, 0x01, 0xFE, 0x01, 0x01, 0xFF, 0xFE, 0xFF,
  0x00, 0x00, 0x01, 0x00, 0x01, 0x01, 0x00, 0x00, 0xFF, 0x00, 0x00, 0x01,
  0x00, 0x01, 0x01, 0xFF, 0xFF, 0x00, 0xFF, 0x01, 0xFF, 0x00, 0xFF, 0xFF,
  0xFF, 0x00, 0xFF, 0xFF, 0x00, 0x01, 0xFF, 0xFF, 0xFF, 0x00, 0xFF, 0xFF,
  0xFF, 0x00, 0x01, 0xFF, 0x01, 0x01, 0xFE, 0xFF, 0x01, 0x00, 0xFF, 0xFF,
  0x00, 0x01, 0xFF, 0x00, 0x01, 0x01, 0xFF, 0x01, 0x01, 0x01, 0x00, 0xFF,
  0xFF, 0xFF, 0x00, 0x00, 0xFF, 0x01, 0x00, 0x01, 0xFF, 0x00, 0x00, 0xFC,
  0x01, 0x00, 0xFF, 0xFE, 0x00, 0x01, 0xFF, 0xFF, 0x01, 0x01, 0xFF, 0x01,
  0x00, 0x00, 0xFF, 0x00, 0x01, 0xFF, 0x00, 0x00, 0x01, 0xFF, 0x00, 0xFE,
  0x01, 0xFF, 0x00, 0x01, 0x01, 0x00, 0xFF, 0x01, 0x01, 0xFF, 0x00, 0xFF,
  0xFF, 0x01, 0xFF, 0xFF, 0x01, 0x01, 0x01, 0x00, 0x00, 0xFF, 0xFF, 0xFD,
  0xFF, 0xFF, 0xFF, 0xFF, 0x00, 0x01, 0xFF, 0x00, 0x01, 0x00, 0x00, 0x01,
  0x00, 0x01, 0x01, 0x01, 0x00, 0x01, 0x00, 0xFF, 0xFF, 0xFE, 0x00, 0x00,
  0x00, 0x01, 0x00, 0xFF, 0x01, 0x00, 0x00, 0x00, 0x01, 0x00, 0x00, 0x00,
  0x01, 0x01, 0x00, 0x01, 0x00, 0x00, 0x00, 0xFE, 0x01, 0xFF, 0x00, 0x00,
  0x00, 0x00, 0xFF, 0x00, 0x01, 0x01, 0x01, 0xFE, 0x00, 0xFF, 0x00, 0x01,
  0x00, 0x01, 0xFF, 0xFF, 0x01, 0xFF, 0x00, 0x01, 0x01, 0x01, 0x01, 0xFE,
  0x01, 0x00, 0xFF, 0xFF, 0x01, 0xFF, 0x01, 0xFF, 0x01, 0x00, 0x01, 0x01,
  0x00, 0x01, 0xFF, 0x00, 0xFF, 0x01, 0xFF, 0x00, 0xFF, 0xFE, 0x00, 0xFD,
  0x01, 0x01, 0xFF, 0x00, 0x00, 0xFF, 0xFF, 0x01, 0x00, 0xFF, 0xFF, 0x00,
  0xFF, 0x01, 0x01, 0x00, 0xFE, 0xFF, 0xFF, 0x01, 0x01, 0xFF, 0x00, 0x00,
  0x01, 0x00, 0x00, 0x00, 0x01, 0xFF, 0x01, 0xFF, 0x00, 0xFF, 0xFF, 0x00,
  0xFF, 0x01, 0x01, 0x01, 0xFF, 0xFF, 0x00, 0x00, 0x01, 0xFF, 0x01, 0x00,
  0xFF, 0x00, 0x01, 0x00, 0x00, 0xFF, 0x00, 0x00, 0x01, 0x01, 0x01, 0x00,
  0x01, 0x00, 0x01, 0x00, 0x00, 0xFF, 0x01, 0x01, 0xFF, 0x01, 0xFF, 0xFE,
  0x00, 0x00, 0xFF, 0x00, 0x00, 0x01, 0x00, 0x00, 0xFF, 0x00, 0xFF, 0x01,
  0xFF, 0xFF, 0xFD, 0xFF, 0xFE, 0xFD, 0xFF, 0xFF, 0xFF, 0xFF, 0x02, 0x01,
  0x00, 0x00, 0x00, 0xFF, 0xFF, 0x00, 0x01, 0x00, 0xFF, 0x00, 0xFF, 0x00,
  0x01, 0x00, 0xFD, 0x00, 0xFF, 0xFF, 0xFF, 0x01, 0xFF, 0xFF, 0xFF, 0xFD,
  0x01, 0x00, 0x01, 0xFF, 0xFF, 0x01, 0x00, 0x00, 0xFF, 0xFF, 0x01, 0xFF,
  0xFF, 0x01, 0xFF, 0xFF, 0x01, 0xFF, 0x00, 0x01, 0x00, 0xFF, 0x00, 0x00,
  0xFF, 0x00, 0x00, 0x00, 0x01, 0xFF, 0x01, 0xFF, 0x01, 0x01, 0xFE, 0x01,
  0xFF, 0xFF, 0x00, 0xFE, 0x00, 0x01, 0x00, 0xFF, 0xFF, 0xFF, 0x01, 0xFF,
  0x01, 0x01, 0xFF, 0x00, 0xFF, 0x00, 0x01, 0x01, 0xFF, 0x01, 0xFF, 0xFF,
  0xFE, 0xFE, 0x01, 0x00, 0xFE, 0x00, 0x01, 0x00, 0x01, 0xFF, 0x01, 0x00,
  0x01, 0x00, 0xFF, 0x00, 0xFF, 0x01, 0x01, 0xFF, 0x01, 0xFF, 0xFF, 0xFF,
  0x01, 0x01, 0x01, 0x01, 0xFE, 0x00, 0xFF, 0x01, 0x00, 0xFF, 0x00, 0x00,
  0xFF, 0x00, 0xFF, 0x00, 0xFF, 0xFE, 0x00, 0x00, 0x01, 0x00, 0x00, 0x01,
  0xFE, 0x01, 0x01, 0x01, 0x00, 0x00, 0xFE, 0x01, 0x01, 0xFF, 0xFF, 0x00,
  0x01, 0x00, 0x00, 0x00, 0xFF, 0x00, 0x01, 0x00, 0xFF, 0x00, 0xFF, 0x00,
  0xFF, 0x01, 0xFF, 0x00, 0x01, 0xFE, 0x00, 0x00, 0x00, 0x01, 0x01, 0x01,
  0xFF, 0x00, 0x01, 0xFF, 0x00, 0x00, 0x00, 0x00, 0x00, 0x00, 0x01, 0xFF,
  0xFD, 0x01, 0xFF, 0xFF, 0x01, 0xFF, 0xFF, 0x01, 0x01, 0xFF, 0x00, 0xFF,
  0x00, 0xFF, 0x00, 0x00, 0x00, 0x00, 0xFF, 0x01, 0x00, 0x01, 0x00, 0xFF,
  0xFF, 0x00, 0x00, 0x00, 0x00, 0x00, 0xFF, 0x01, 0xFF, 0xFF, 0x01, 0xFD,
  0x00, 0xFF, 0x01, 0x01, 0x00, 0x01, 0xFF, 0xFF, 0xFF, 0xFF, 0xFF, 0xFF,
  0xFF, 0x00, 0xFF, 0xFF, 0x00, 0x01, 0xFF, 0xFF, 0x00, 0x00, 0xFF, 0x00,
  0x01, 0x01, 0xFF, 0xFF, 0xFF, 0xFF, 0x01, 0xFF, 0xFF, 0xFF, 0x00, 0x00,
  0xFE, 0x00, 0x00, 0x01, 0xFF, 0xFF, 0xFF, 0x01, 0x00, 0x00, 0xFF, 0xFE,
  0xFF, 0x00, 0x00, 0xFF, 0x00, 0x00, 0xFF, 0x01, 0xFF, 0x01, 0x00, 0x01,
  0xFD, 0x00, 0x01, 0x00, 0xFF, 0x01, 0xFF, 0x00, 0xFF, 0x00, 0x01, 0xFF,
  0xFF, 0x01, 0x01, 0x00, 0xFF, 0x00, 0x00, 0x01, 0x01, 0xFF, 0x00, 0x01,
  0xFD, 0x00, 0x01, 0x00, 0x01, 0x00, 0xFF, 0x00, 0x02, 0x00, 0x00, 0x00,
  0xFF, 0x00, 0x01, 0x00, 0xFF, 0x00, 0x01, 0x00, 0x01, 0x00, 0xFE, 0xFF,
  0xFF, 0x01, 0x01, 0x00, 0xFF, 0x01, 0x01, 0xFF, 0x00, 0xFF, 0xFF, 0xFF,
  0xFF, 0x00, 0xFF, 0x00, 0x01, 0x00, 0xFF, 0xFF, 0x00, 0x01, 0xFF, 0x01,
  0x01, 0x01, 0x00, 0x01, 0x00, 0x01, 0x00, 0x00, 0x00, 0xFF, 0x00, 0xFE,
  0x00, 0xFF, 0xFF, 0x00, 0x00, 0xFF, 0xFF, 0x01, 0x00, 0x00, 0xFF, 0x01,
  0xFF, 0x00, 0x01, 0x00, 0x00, 0xFF, 0x01, 0xFF, 0x00, 0xFF, 0x00, 0xFD,
  0xFF, 0x00, 0x01, 0xFF, 0x01, 0x01, 0x01, 0x01, 0x00, 0x00, 0xFF, 0x01,
  0x01, 0x00, 0xFF, 0x00, 0x01, 0x00, 0xFF, 0xFF, 0x00, 0xFF, 0x01, 0x00,
  0xFF, 0x01, 0xFF, 0xFE, 0x00, 0xFF, 0x00, 0x00, 0x00, 0x01, 0xFE, 0xFF,
  0x01, 0x01, 0x00, 0xFF, 0xFF, 0x01, 0xFF, 0xFF, 0x01, 0x00, 0x00, 0xFE,
  0x00, 0x01, 0x01, 0x00, 0x00, 0x01, 0x00, 0xFE, 0x00, 0x00, 0x00, 0x01,
  0xFF, 0x00, 0x01, 0x00, 0xFF, 0x01, 0xFF, 0xFF, 0xFF, 0x00, 0x00, 0xFF,
  0x00, 0x01, 0xFF, 0xFE, 0x01, 0xFF, 0x00, 0xFF, 0xFF, 0x01, 0x01, 0x01,
  0xFE, 0x01, 0xFF, 0x00, 0xFF, 0xFF, 0xFE, 0x00, 0xFF, 0xFF, 0x01, 0xFF,
  0x01, 0x00, 0x00, 0xFF, 0xFF, 0x00, 0x00, 0x00, 0x01, 0xFF, 0x01, 0xFF,
  0x01, 0xFF, 0xFF, 0x01, 0xFF, 0xFF, 0x00, 0x01, 0xFF, 0x00, 0x01, 0xFF,
  0x00, 0xFF, 0x00, 0xFE, 0x00, 0xFF, 0x01, 0xFF, 0xFF, 0xFF, 0xFF, 0x00,
  0xFF, 0x01, 0xFF, 0xFF, 0xFF, 0x01, 0x01, 0xFF, 0x01, 0x01, 0x00, 0xFF,
  0xFF, 0x01, 0xFF, 0xFF, 0x01, 0xFF, 0x00, 0x00, 0x01, 0xFF, 0xFF, 0xFF,
  0x00, 0xFF, 0x00, 0xFF, 0xFF, 0xFF, 0x00, 0x01, 0x00, 0xFF, 0x00, 0x00,
  0x01, 0xFF, 0x01, 0x00, 0x00, 0x00, 0x00, 0xFF, 0x01, 0x01, 0x01, 0x00,
  0xFF, 0xFF, 0x00, 0x01, 0x01, 0xFF, 0xFF, 0x01, 0xFF, 0xFF, 0xFE, 0xFF,
  0x00, 0xFF, 0x01, 0x00, 0x01, 0x00, 0xFF, 0x00, 0x00, 0xFF, 0x01, 0x00,
  0xFF, 0x01, 0x01, 0xFF, 0x00, 0xFF, 0xFE, 0xFF, 0x00, 0x01, 0x00, 0xFF,
  0x00, 0x00, 0x00, 0xFF, 0x01, 0x00, 0xFF, 0x00, 0x00, 0x00, 0xFF, 0x00,
  0x00, 0x00, 0x01, 0x01, 0xFF, 0x01, 0x00, 0xFF, 0x00, 0x00, 0x00, 0x00,
  0x00, 0xFF, 0x00, 0xFF, 0xFF, 0x00, 0xFF, 0xFF, 0xFF, 0x00, 0xFF, 0x01,
  0xFF, 0x00, 0x00, 0x00, 0x01, 0xFF, 0xFF, 0x01, 0x00, 0xFF, 0xFF, 0xFF,
  0x00, 0xFF, 0x00, 0xFF, 0xFF, 0xFF, 0xFF, 0x00, 0x00, 0x01, 0x01, 0x00,
  0x01, 0x00, 0x00, 0x00, 0xFF, 0x00, 0xFF, 0xFF, 0x00, 0xFF, 0xFF, 0x00,
  0xFF, 0x01, 0x01, 0xFF, 0x01, 0x00, 0x00, 0x00, 0xFF, 0x01, 0xFF, 0x00,
  0xFF, 0xFF, 0xFF, 0x00, 0xFF, 0x00, 0x00, 0x00, 0x00, 0xFF, 0xFF, 0xFF,
  0x01, 0x00, 0x01, 0x00, 0x00, 0xFF, 0x00, 0x01, 0x00, 0x00, 0x01, 0x01,
  0xFF, 0x01, 0x00, 0xFF, 0xFF, 0x01, 0x01, 0x01, 0x00, 0x00, 0x00, 0xFF,
  0x00, 0x01, 0xFF, 0xFE, 0xFF, 0x01, 0x01, 0xFF, 0x00, 0x01, 0xFF, 0xFF,
  0x00, 0xFF, 0xFF, 0x01, 0xFF, 0xFF, 0x01, 0xFF, 0x01, 0xFF, 0x01, 0xFE,
  0x00, 0xFF, 0xFF, 0x00, 0x01, 0x00, 0x00, 0x00, 0x00, 0x01, 0xFF, 0x01,
  0x00, 0xFF, 0xFF, 0x01, 0x00, 0x01, 0x00, 0xFF, 0x01, 0xFF, 0xFF, 0xFE,
  0x01, 0xFF, 0x01, 0xFF, 0xFF, 0xFF, 0x01, 0x00, 0x01, 0xFF, 0x01, 0x00,
  0x00, 0x00, 0x00, 0xFF, 0xFF, 0xFF, 0x00, 0x01, 0xFF, 0x01, 0x00, 0x00,
  0xFF, 0x01, 0x01, 0xFF, 0xFF, 0xFF, 0x00, 0xFF, 0xFF, 0x00, 0xFF, 0xFF,
  0x01, 0x01, 0x00, 0x00, 0xFF, 0x00, 0xFF, 0x01, 0xFF, 0xFE, 0x00, 0xFF,
  0x00, 0xFF, 0xFF, 0x00, 0xFF, 0x01, 0xFF, 0x00, 0x01, 0x00, 0xFF, 0x00,
  0xFF, 0xFF, 0xFF, 0xFF, 0x01, 0xFF, 0x00, 0xFF, 0xFF, 0x00, 0xFE, 0xFE,
  0xFF, 0xFF, 0x00, 0xFF, 0x00, 0x00, 0x00, 0x01, 0x00, 0xFF, 0xFF, 0xFF,
  0x01, 0xFF, 0xFF, 0xFF, 0x01, 0xFF, 0xFF, 0x00, 0x01, 0xFE, 0x00, 0xFD,
  0x01, 0x01, 0x01, 0x00, 0xFF, 0x00, 0xFF, 0xFF, 0x01, 0x01, 0x00, 0xFF,
  0x00, 0x00, 0x01, 0x01, 0x00, 0x00, 0xFF, 0x01, 0xFF, 0x01, 0xFF, 0xFF,
  0x00, 0x01, 0x01, 0xFF, 0xFF, 0xFF, 0x01, 0x01, 0x01, 0x01, 0x01, 0x00,
  0x00, 0x00, 0x00, 0xFF, 0xFF, 0xFF, 0xFE, 0x00, 0x00, 0xFF, 0xFF, 0x00,
  0x00, 0x01, 0x01, 0x00, 0xFF, 0x00, 0x00, 0xFF, 0x00, 0x01, 0xFE, 0xFF,
  0x00, 0xFF, 0xFF, 0x01, 0x00, 0xFF, 0x00, 0x01, 0x01, 0x00, 0xFF, 0xFE,
  0x01, 0x01, 0x01, 0xFF, 0x00, 0xFF, 0xFF, 0xFF, 0xFF, 0x00, 0xFF, 0x00,
  0xFE, 0x01, 0x00, 0x00, 0x00, 0xFE, 0xFE, 0x00, 0xFF, 0x01, 0x00, 0xFF,
  0x00, 0x00, 0xFF, 0xFF, 0x00, 0x00, 0x00, 0x00, 0x01, 0x00, 0xFF, 0xFF,
  0x00, 0x01, 0x00, 0xFF, 0xFD, 0xFF, 0x01, 0x01, 0x00, 0x01, 0x00, 0xFF,
  0xFF, 0x00, 0x00, 0x00, 0x00, 0xFE, 0xFF, 0x01, 0xFF, 0x00, 0xFF, 0x00,
  0xFD, 0x01, 0x01, 0xFF, 0x00, 0x00, 0x01, 0xFF, 0x00, 0x00, 0xFE, 0x00,
  0x00, 0xFF, 0x00, 0x00, 0x00, 0x00, 0xFF, 0xFE, 0x00, 0xFF, 0x00, 0x00,
  0xFF, 0xFF, 0x01, 0x00, 0x00, 0x00, 0xFF, 0x00, 0xFF, 0x00, 0xFF, 0x01,
  0x01, 0xFF, 0x01, 0xFE, 0x00, 0xFF, 0x01, 0x00, 0x01, 0x00, 0x00, 0x01,
  0xFF, 0xFF, 0xFF, 0xFF, 0x00, 0x01, 0x00, 0x00, 0x00, 0x00, 0x00, 0x00,
  0x00, 0xFF, 0x01, 0x00, 0x01, 0xFF, 0x00, 0xFF, 0x00, 0x00, 0x01, 0xFF,
  0x00, 0xFF, 0xFF, 0x00, 0x00, 0x00, 0x01, 0x00, 0xFF, 0xFF, 0x00, 0xFE,
  0x00, 0x00, 0xFF, 0x00, 0xFF, 0x01, 0xFF, 0x01, 0x01, 0xFF, 0x01, 0x01,
  0x00, 0x01, 0x00, 0xFF, 0x00, 0xFF, 0x00, 0x01, 0x00, 0x01, 0xFF, 0xFE,
  0x00, 0x00, 0x00, 0xFF, 0xFF, 0x01, 0xFF, 0xFF, 0x00, 0x01, 0xFF, 0x01,
  0x00, 0xFF, 0x00, 0xFF, 0x01, 0x01, 0x01, 0x00, 0x00, 0x01, 0x01, 0xFF,
  0xFF, 0x00, 0x00, 0x00, 0x01, 0xFF, 0x01, 0x00, 0x00, 0xFF, 0x01, 0x00,
  0x01, 0x00, 0xFF, 0x01, 0x00, 0x00, 0x00, 0x01, 0xFF, 0xFF, 0x00, 0xFE,
  0x01, 0x00, 0x00, 0x00, 0x00, 0xFF, 0xFF, 0xFF, 0x01, 0x01, 0x01, 0x01,
  0xFF, 0x00, 0xFF, 0xFF, 0x00, 0x00, 0xFF, 0xFF, 0xFF, 0xFE, 0xFF, 0xFF,
  0x01, 0x00, 0xFF, 0x01, 0x01, 0xFF, 0x00, 0x00, 0x01, 0x00, 0xFF, 0xFF,
  0x01, 0x00, 0x00, 0x01, 0xFF, 0xFF, 0x01, 0x01, 0x00, 0x00, 0x01, 0xFF,
  0xFF, 0x01, 0x00, 0x00, 0xFF, 0x01, 0x00, 0x00, 0x00, 0x00, 0x00, 0x01,
  0x00, 0xFF, 0x01, 0xFF, 0xFE, 0x00, 0xFF, 0x01, 0xFF, 0x01, 0xFE, 0x00,
  0x01, 0xFF, 0xFF, 0x00, 0x01, 0x01, 0x01, 0x00, 0x00, 0xFF, 0xFF, 0x00,
  0xFE, 0x01, 0xFF, 0x00, 0x00, 0x00, 0xFF, 0x00, 0x00, 0x01, 0xFF, 0x01,
  0x00, 0x00, 0xFF, 0x00, 0xFF, 0x01, 0xFF, 0x00, 0xFF, 0x01, 0x00, 0x01,
  0xFF, 0x01, 0x00, 0x00, 0x01, 0x00, 0xFF, 0x01, 0x01, 0xFF, 0x01, 0xFF,
  0x01, 0x01, 0xFF, 0xFF, 0xFF, 0xFF, 0x01, 0x00, 0x00, 0x01, 0x01, 0x01,
  0xFF, 0xFF, 0x00, 0x01, 0x00, 0x00, 0xFF, 0xFF, 0x00, 0x01, 0x00, 0xFF,
  0xFF, 0x01, 0x00, 0x00, 0xFF, 0x00, 0x00, 0xFF, 0x01, 0x01, 0xFF, 0x00,
  0xFF, 0x01, 0x01, 0x00, 0xFF, 0x00, 0x01, 0x01, 0x01, 0x00, 0xFF, 0xFF,
  0xFF, 0xFF, 0x01, 0xFF, 0x01, 0x00, 0x01, 0x01, 0x01, 0x01, 0x01, 0xFF,
  0xFF, 0xFE, 0x01, 0x00, 0xFE, 0x01, 0x01, 0x01, 0x00, 0xFF, 0x00, 0xFE,
  0x01, 0x00, 0xFF, 0x01, 0xFF, 0x01, 0x00, 0x01, 0x01, 0x00, 0x00, 0xFF,
  0xFF, 0xFF, 0x01, 0xFF, 0x01, 0xFF, 0x00, 0x01, 0xFF, 0x01, 0xFF, 0xFF,
  0x01, 0xFF, 0x01, 0xFE, 0xFF, 0xFF, 0x01, 0x00, 0xFF, 0xFF, 0x00, 0xFF,
  0xFF, 0xFF, 0x00, 0x00, 0x00, 0x00, 0x01, 0x00, 0x01, 0x00, 0xFF, 0x00,
  0x00, 0x00, 0x01, 0xFE, 0x01, 0xFE, 0x00, 0x00, 0x01, 0x01, 0xFE, 0x01,
  0x01, 0x01, 0x00, 0xFF, 0xFF, 0x01, 0x00, 0xFF, 0xFF, 0xFF, 0xFF, 0xFF,
  0xFF, 0x01, 0xFF, 0x01, 0x01, 0x00, 0x00, 0x00, 0x01, 0x00, 0xFF, 0x00,
  0xFE, 0xFF, 0x01, 0xFF, 0x00, 0xFD, 0xFE, 0x01, 0x00, 0x01, 0xFF, 0xFF,
  0x01, 0x00, 0x00, 0xFF, 0xFF, 0x01, 0xFF, 0xFF, 0x00, 0x01, 0x01, 0x00,
  0x01, 0x01, 0x00, 0xFF, 0xFF, 0xFF, 0x00, 0x01, 0xFF, 0x01, 0xFF, 0xFE,
  0x00, 0x00, 0xFF, 0xFF, 0xFF, 0x00, 0xFF, 0xFF, 0x01, 0xFF, 0x00, 0x00,
  0x01, 0xFF, 0x00, 0x01, 0x00, 0xFF, 0x01, 0x01, 0x01, 0x01, 0x00, 0xFF,
  0x01, 0x00, 0xFF, 0x01, 0x01, 0x01, 0xFF, 0x01, 0xFF, 0x01, 0xFF, 0x00,
  0x00, 0x01, 0x00, 0x00, 0x00, 0xFF, 0x01, 0x00, 0x00, 0x01, 0x00, 0x00,
  0x00, 0x00, 0x01, 0xFE, 0x01, 0x01, 0xFF, 0x00, 0x01, 0x00, 0x01, 0x01,
  0xFF, 0x01, 0xFF, 0x01, 0x00, 0x00, 0xFF, 0xFF, 0x00, 0xFF, 0x01, 0xFF,
  0x01, 0x00, 0x00, 0xFE, 0x01, 0xFF, 0x01, 0x01, 0xFF, 0x00, 0x00, 0x00,
  0x00, 0x01, 0x01, 0x01, 0xFF, 0x01, 0x01, 0x00, 0x00, 0x00, 0xFF, 0x01,
  0x01, 0x00, 0x00, 0xFE, 0x00, 0xFE, 0x00, 0xFE, 0x00, 0x01, 0x00, 0xFF,
  0xFF, 0x00, 0x00, 0x01, 0x00, 0x01, 0xFF, 0xFF, 0xFF, 0x00, 0x00, 0xFE,
  0xFF, 0x00, 0x01, 0x00, 0x00, 0xFF, 0x01, 0xFF, 0x01, 0x00, 0xFF, 0xFF,
  0x00, 0xFF, 0x01, 0xFF, 0x01, 0x00, 0xFF, 0x01, 0x00, 0x01, 0xFF, 0xFE,
  0x00, 0xFF, 0xFF, 0xFF, 0x01, 0x00, 0xFF, 0x00, 0x01, 0x01, 0x01, 0x01,
  0x01, 0xFF, 0x01, 0x00, 0x00, 0x00, 0x00, 0x00, 0x00, 0xFF, 0xFF, 0xFF,
  0x00, 0x01, 0x01, 0x00, 0xFF, 0xFF, 0x01, 0xFF, 0x00, 0x00, 0x01, 0x00,
  0xFF, 0xFF, 0xFF, 0x01, 0xFE, 0xFF, 0x01, 0xFF, 0x00, 0x00, 0xFE, 0xFD,
  0x01, 0x01, 0x01, 0x01, 0x01, 0xFF, 0x01, 0x00, 0x01, 0x01, 0xFF, 0x00,
  0x01, 0x01, 0x00, 0x00, 0xFF, 0xFF, 0x00, 0xFF, 0x01, 0xFF, 0xFF, 0xFC,
  0x01, 0x01, 0x01, 0xFF, 0xFF, 0xFF, 0x00, 0x01, 0x00, 0xFF, 0x01, 0x00,
  0xFF, 0x01, 0x01, 0x01, 0xFF, 0xFF, 0x00, 0x01, 0x01, 0x00, 0x01, 0xFE,
  0xFF, 0x00, 0xFF, 0xFF, 0x01, 0xFE, 0x00, 0x00, 0x00, 0x00, 0x00, 0xFF,
  0xFF, 0x00, 0xFF, 0x01, 0x01, 0xFF, 0x00, 0x00, 0x01, 0xFF, 0x00, 0xFE,
  0x00, 0xFF, 0x00, 0x00, 0x01, 0x01, 0xFF, 0x00, 0x00, 0x01, 0x01, 0xFF,
  0xFF, 0x00, 0x00, 0x01, 0x01, 0x01, 0xFF, 0x00, 0x00, 0xFF, 0x00, 0xFE,
  0x00, 0x01, 0x01, 0xFF, 0x00, 0xFF, 0xFF, 0x01, 0xFF, 0x01, 0x00, 0xFF,
  0x01, 0xFF, 0x00, 0x00, 0x00, 0x01, 0x00, 0x00, 0x00, 0x00, 0xFF, 0x01,
  0x00, 0xFF, 0xFF, 0x01, 0x00, 0x00, 0xFF, 0xFF, 0x01, 0xFF, 0x00, 0xFF,
  0xFF, 0x00, 0x00, 0xFF, 0x00, 0x01, 0x00, 0xFF, 0xFF, 0x01, 0xFE, 0xFE,
  0x00, 0x01, 0x01, 0x00, 0x00, 0x00, 0x01, 0x01, 0x01, 0x00, 0x01, 0xFF,
  0xFF, 0xFF, 0x01, 0x00, 0xFF, 0xFF, 0xFF, 0x00, 0x00, 0x01, 0x00, 0xFF,
  0x01, 0x00, 0x01, 0x00, 0xFF, 0x00, 0x01, 0xFF, 0xFF, 0x00, 0x01, 0x00,
  0xFF, 0x01, 0xFF, 0xFF, 0xFF, 0x00, 0x00, 0xFF, 0x01, 0x01, 0x00, 0x00,
  0x01, 0x01, 0xFF, 0xFF, 0xFF, 0xFF, 0xFF, 0x00, 0xFF, 0xFF, 0x00, 0x01,
  0x00, 0xFF, 0xFF, 0x01, 0x00, 0xFF, 0xFF, 0x01, 0x00, 0x00, 0x01, 0x00,
  0x01, 0x01, 0x00, 0x01, 0x01, 0x00, 0x00, 0x00, 0xFF, 0xFF, 0x00, 0x00,
  0x01, 0x01, 0x00, 0xFF, 0xFF, 0x00, 0x01, 0x01, 0x00, 0xFF, 0xFF, 0xFF,
  0x01, 0x00, 0x01, 0x01, 0x01, 0x00, 0x01, 0x01, 0x00, 0xFF, 0xFE, 0xFF,
  0xFF, 0x00, 0x01, 0x00, 0x00, 0xFD, 0xFF, 0xFF, 0x01, 0xFF, 0x00, 0xFE,
  0x00, 0xFF, 0x00, 0x01, 0x01, 0x01, 0x01, 0x01, 0x01, 0x00, 0xFF, 0x01,
  0x00, 0x01, 0xFF, 0x01, 0xFF, 0x01, 0xFF, 0xFF, 0xFF, 0xFF, 0x01, 0xFE,
  0x01, 0x01, 0xFF, 0x00, 0x01, 0x00, 0x01, 0x00, 0x01, 0x00, 0xFF, 0x01,
  0x00, 0xFF, 0xFF, 0x01, 0x01, 0x00, 0x00, 0xFF, 0x00, 0x01, 0xFE, 0x00,
  0x01, 0x01, 0xFF, 0x00, 0xFF, 0xFF, 0xFF, 0x00, 0x00, 0xFF, 0x01, 0xFF,
  0xFF, 0x01, 0x01, 0x01, 0xFE, 0x00, 0x01, 0xFF, 0xFF, 0xFE, 0x01, 0xFF,
  0xFF, 0xFF, 0xFF, 0xFF, 0xFF, 0x00, 0xFF, 0x01, 0x00, 0x00, 0x01, 0x00,
  0x00, 0x00, 0x01, 0xFF, 0xFF, 0x00, 0x00, 0x01, 0x01, 0x01, 0xFE, 0xFF,
  0x00, 0x00, 0x00, 0xFF, 0x00, 0x00, 0xFF, 0x01, 0x01, 0x01, 0x01, 0xFF,
  0x01, 0x00, 0x01, 0x01, 0xFF, 0x01, 0x01, 0xFF, 0xFF, 0x01, 0xFF, 0xFD,
  0x00, 0x01, 0x01, 0xFF, 0xFF, 0x01, 0xFF, 0xFE, 0xFF, 0x01, 0xFF, 0x01,
  0x02, 0x00, 0x01, 0x01, 0xFF, 0xFF, 0x02, 0x00, 0x01, 0x00, 0x00, 0xFC,
  0xFF, 0x00, 0xFF, 0xFE, 0x00, 0xFF, 0x01, 0x00, 0xFF, 0xFF, 0xFF, 0xFF,
  0x03, 0x01, 0x00, 0xFF, 0xFF, 0xFF, 0x00, 0x01, 0x01, 0x01, 0xFF, 0xFC,
  0xFF, 0x00, 0x00, 0x00, 0x01, 0x00, 0x01, 0x01, 0x01, 0x00, 0x00, 0x01,
  0x03, 0x01, 0x01, 0xFF, 0x00, 0x01, 0xFF, 0x01, 0x00, 0x00, 0xFE, 0xFD,
  0x00, 0x00, 0xFF, 0xFE, 0x01, 0x00, 0x01, 0x00, 0x01, 0x01, 0x00, 0x01,
  0x00, 0x01, 0x00, 0x01, 0xFF, 0xFF, 0x00, 0xFF, 0x00, 0x00, 0x00, 0xFD,
  0xFF, 0x01, 0xFF, 0xFE, 0x01, 0x01, 0xFF, 0x00, 0x00, 0x01, 0x00, 0xFF,
  0xFF, 0x02, 0xFF, 0x00, 0x00, 0x01, 0xFF, 0xFF, 0x01, 0xFF, 0x00, 0xFD,
  0xFF, 0xFF, 0x00, 0xFF, 0xFF, 0x00, 0x00, 0x00, 0x01, 0x01, 0x01, 0x00,
  0xFE, 0x00, 0x01, 0x01, 0xFF, 0xFF, 0xFF, 0x01, 0x00, 0x01, 0xFE, 0x01,
  0x00, 0x01, 0x00, 0xFF, 0x01, 0x01, 0xFF, 0xFF, 0xFF, 0xFF, 0xFF, 0x00,
  0xFF, 0x00, 0x00, 0xFF, 0xFE, 0xFF, 0xFE, 0x00, 0x01, 0x00, 0x01, 0xFF,
  0x01, 0x01, 0x01, 0xFF, 0xFF, 0xFF, 0x00, 0xFF, 0x01, 0xFF, 0x00, 0xFF,
  0x02, 0xFF, 0x01, 0xFF, 0x01, 0x01, 0x00, 0xFF, 0x01, 0x00, 0xFF, 0xFE,
  0x00, 0x00, 0x01, 0xFF, 0x01, 0xFF, 0x01, 0xFF, 0x01, 0x01, 0xFF, 0x00,
  0x00, 0xFF, 0x01, 0x01, 0x00, 0xFF, 0x01, 0x00, 0x01, 0xFF, 0xFE, 0xFF,
  0x00, 0x01, 0xFF, 0x00, 0x01, 0xFE, 0x00, 0xFF, 0x01, 0x00, 0xFE, 0x00,
  0x01, 0x00, 0x01, 0x01, 0x01, 0xFF, 0x00, 0x01, 0xFF, 0x01, 0xFF, 0xFD,
  0x01, 0x00, 0xFF, 0x01, 0x00, 0x00, 0xFF, 0xFF, 0x00, 0x00, 0xFF, 0x00,
  0x02, 0x01, 0x02, 0xFF, 0xFF, 0xFF, 0xFF, 0xFE, 0x00, 0x01, 0xFF, 0xFF,
  0x00, 0x00, 0xFF, 0x00, 0x00, 0xFF, 0xFF, 0x00, 0x01, 0x00, 0x00, 0x01,
  0xFF, 0xFF, 0xFE, 0xFF, 0x00, 0x00, 0x01, 0x01, 0xFE, 0xFF, 0x00, 0xFD,
  0xFF, 0xFF, 0xFF, 0xFE, 0x00, 0xFF, 0x00, 0xFF, 0xFF, 0x01, 0xFE, 0xFF,
  0x00, 0xFE, 0xFF, 0xFE, 0x00, 0xFD, 0xFF, 0xFE, 0xFF, 0xFE, 0x00, 0x01,
  0x00, 0xFF, 0xFF, 0x00, 0xFF, 0xFF, 0x00, 0x00, 0xFF, 0x00, 0x00, 0x00,
  0x00, 0x01, 0xFF, 0xFF, 0x00, 0xFF, 0xFE, 0x00, 0x00, 0xFF, 0x00, 0xFF,
  0xFF, 0x00, 0x01, 0xFF, 0x00, 0xFF, 0x00, 0xFF, 0x00, 0x00, 0xFF, 0x00,
  0xFE, 0x00, 0xFF, 0xFD, 0x01, 0xFE, 0x00, 0xFF, 0x00, 0xFF, 0x00, 0xFE,
  0x00, 0x00, 0xFF, 0x00, 0x00, 0x00, 0x00, 0xFE, 0x00, 0x01, 0x01, 0x00,
  0xFF, 0x00, 0x00, 0x02, 0x01, 0xFF, 0x01, 0xFF, 0x00, 0x00, 0x00, 0xFE,
  0xFF, 0x00, 0x00, 0x00, 0xFF, 0x00, 0x00, 0x01, 0x00, 0x01, 0x01, 0xFF,
  0x00, 0x00, 0x00, 0x01, 0x00, 0x00, 0xFF, 0x00, 0xFF, 0xFE, 0x00, 0xFE,
  0xFF, 0x00, 0x00, 0xFF, 0x01, 0x01, 0x00, 0x00, 0x01, 0xFF, 0xFF, 0x00,
  0xFF, 0x00, 0xFF, 0x00, 0x00, 0xFF, 0xFE, 0x01, 0x00, 0xFF, 0xFF, 0xFF,
  0xFF, 0x01, 0x01, 0x00, 0x00, 0xFF, 0x01, 0xFE, 0xFF, 0xFF, 0xFF, 0x00,
  0xFD, 0xFF, 0x00, 0x00, 0x00, 0xFE, 0x00, 0xFF, 0x00, 0x00, 0xFF, 0xFD,
  0x00, 0x01, 0x00, 0x01, 0x00, 0x01, 0xFF, 0x00, 0x00, 0x00, 0x00, 0x01,
  0xFD, 0xFF, 0xFF, 0xFF, 0x01, 0xFF, 0x01, 0x00, 0xFF, 0xFE, 0x01, 0x00,
  0x01, 0x00, 0xFF, 0x00, 0x01, 0xFF, 0xFF, 0xFF, 0x01, 0xFF, 0xFF, 0x01,
  0xFF, 0x01, 0xFF, 0xFF, 0xFF, 0xFF, 0x00, 0xFF, 0xFF, 0xFE, 0x00, 0xFE,
  0x01, 0x00, 0x01, 0xFE, 0x01, 0x00, 0xFF, 0x01, 0x00, 0x01, 0x00, 0x00,
  0xFF, 0xFF, 0x00, 0x00, 0x00, 0x00, 0x01, 0x01, 0x00, 0x01, 0x00, 0xFD,
  0x00, 0xFF, 0x00, 0xFE, 0x00, 0x00, 0x01, 0xFF, 0xFF, 0x00, 0x01, 0x01,
  0xFF, 0xFF, 0xFF, 0x00, 0x00, 0xFF, 0x00, 0x00, 0x00, 0x00, 0x00, 0xFD,
  0x01, 0x01, 0x00, 0x00, 0x00, 0x01, 0xFF, 0x01, 0x01, 0x00, 0x00, 0x01,
  0xFF, 0xFF, 0xFF, 0x01, 0xFF, 0x00, 0x01, 0xFF, 0x01, 0x01, 0xFF, 0x00,
  0x00, 0x00, 0x00, 0x00, 0x01, 0x00, 0x01, 0xFF, 0xFF, 0xFF, 0xFF, 0x00,
  0x01, 0x01, 0x01, 0xFF, 0x01, 0x01, 0x00, 0xFF, 0x00, 0x00, 0xFF, 0x01,
  0x00, 0x00, 0xFF, 0x00, 0x01, 0x01, 0xFF, 0x00, 0xFF, 0xFF, 0x01, 0x01,
  0xFF, 0x01, 0xFF, 0x00, 0x00, 0x01, 0xFF, 0x01, 0x01, 0x00, 0xFE, 0xFF,
  0xFF, 0xFF, 0x00, 0xFE, 0xFF, 0x00, 0x01, 0xFF, 0xFF, 0x01, 0xFE, 0xFF,
  0x00, 0x01, 0x01, 0x00, 0xFE, 0x00, 0xFE, 0x01, 0x00, 0xFF, 0xFF, 0x00,
  0xFF, 0x01, 0x00, 0xFF, 0x01, 0xFF, 0x00, 0x00, 0x01, 0xFF, 0x01, 0xFF,
  0x01, 0x01, 0x01, 0x01, 0x01, 0xFF, 0x01, 0x00, 0x00, 0xFF, 0x01, 0xFF,
  0x01, 0x00, 0x00, 0xFF, 0x00, 0xFF, 0x00, 0xFE, 0xFF, 0x01, 0x01, 0xFF,
  0x00, 0x00, 0x00, 0x00, 0xFE, 0x01, 0x00, 0x01, 0x01, 0x01, 0xFE, 0xFF,
  0xFF, 0xFF, 0xFF, 0xFE, 0x01, 0x01, 0xFF, 0xFF, 0x01, 0xFF, 0x01, 0x01,
  0xFF, 0xFF, 0x01, 0xFF, 0x01, 0x01, 0xFF, 0x00, 0x00, 0x01, 0x00, 0xFF,
  0x00, 0xFF, 0x00, 0x00, 0x00, 0x01, 0x00, 0xFF, 0x00, 0xFF, 0xFF, 0x00,
  0xFF, 0x01, 0xFF, 0x02, 0xFF, 0xFF, 0x00, 0x01, 0xFF, 0x00, 0x00, 0xFE,
  0xFF, 0xFF, 0xFF, 0xFF, 0x01, 0xFF, 0x01, 0x00, 0x01, 0x00, 0x00, 0xFF,
  0x01, 0x02, 0x01, 0x00, 0x01, 0x03, 0xFF, 0x00, 0xFF, 0xFE, 0x01, 0xFE,
  0xFF, 0x01, 0x01, 0x01, 0x00, 0x00, 0x00, 0x01, 0x01, 0x00, 0x00, 0x00,
  0x00, 0xFF, 0xFF, 0x00, 0x00, 0xFE, 0x01, 0x00, 0x00, 0xFE, 0xFF, 0x00,
  0xFF, 0x00, 0x00, 0xFF, 0x00, 0xFF, 0x00, 0xFF, 0xFF, 0x01, 0x00, 0x01,
  0xFF, 0x00, 0x00, 0x01, 0xFF, 0x01, 0x00, 0x00, 0x00, 0x00, 0x00, 0xFE,
  0xFF, 0x00, 0x00, 0x00, 0x01, 0x01, 0x01, 0x00, 0x01, 0x01, 0xFE, 0x01,
  0xFD, 0x01, 0x00, 0x00, 0xFF, 0x00, 0x00, 0x01, 0xFF, 0xFF, 0xFF, 0xFD,
  0xFE, 0x00, 0x00, 0xFF, 0xFF, 0xFF, 0xFF, 0x00, 0xFF, 0x00, 0x00, 0x00,
  0x01, 0x00, 0xFF, 0x02, 0xFE, 0x00, 0xFE, 0x00, 0x01, 0x01, 0xFF, 0xFF,
  0x00, 0x01, 0xFF, 0xFF, 0x00, 0x01, 0x00, 0xFF, 0x01, 0xFF, 0x00, 0x00,
  0x00, 0x00, 0x01, 0x01, 0x00, 0xFF, 0xFE, 0x00, 0xFF, 0x00, 0xFE, 0xFC,
  0x01, 0x00, 0xFF, 0x00, 0xFF, 0xFF, 0x00, 0x00, 0x00, 0x00, 0xFF, 0x00,
  0x01, 0xFF, 0x01, 0x01, 0x01, 0x00, 0x01, 0x01, 0x00, 0x00, 0xFF, 0xFE,
  0xFF, 0xFF, 0x01, 0x00, 0x00, 0x00, 0x01, 0xFE, 0xFF, 0x01, 0x01, 0x01,
  0xFF, 0x01, 0xFF, 0x00, 0x00, 0x00, 0xFE, 0x01, 0x00, 0xFF, 0xFF, 0xFF,
  0x00, 0xFF, 0x00, 0xFE, 0x00, 0xFF, 0x01, 0x01, 0xFF, 0x00, 0x00, 0x00,
  0xFF, 0x01, 0xFF, 0x00, 0x00, 0xFE, 0xFE, 0xFF, 0x01, 0x01, 0xFF, 0xFC,
  0x01, 0x01, 0x01, 0x00, 0x01, 0xFF, 0x00, 0x00, 0xFF, 0x00, 0x00, 0x01,
  0x02, 0xFF, 0x00, 0xFF, 0x01, 0x00, 0x00, 0xFF, 0x00, 0x00, 0xFF, 0xFC,
  0xFF, 0x00, 0x01, 0xFF, 0x00, 0x01, 0xFF, 0xFF, 0x01, 0x00, 0x00, 0xFF,
  0x01, 0x00, 0x01, 0x01, 0x00, 0xFE, 0x00, 0xFF, 0x01, 0x01, 0x01, 0xFE,
  0xFF, 0xFF, 0x01, 0xFF, 0x01, 0x00, 0xFF, 0xFE, 0x01, 0x01, 0xFF, 0x01,
  0x00, 0x00, 0x01, 0xFF, 0xFF, 0xFF, 0x00, 0x00, 0x00, 0x00, 0x00, 0x00,
  0xFF, 0x01, 0x01, 0x00, 0x00, 0x01, 0x01, 0x00, 0x00, 0x01, 0x00, 0xFF,
  0x01, 0x01, 0x01, 0xFF, 0xFF, 0x01, 0x01, 0xFF, 0x00, 0xFF, 0x01, 0x00,
  0xFF, 0x01, 0xFF, 0x00, 0x01, 0x01, 0x01, 0x00, 0x01, 0x00, 0x01, 0x01,
  0xFF, 0x00, 0x01, 0x01, 0xFF, 0x01, 0x01, 0xFF, 0x01, 0x01, 0xFF, 0xFE,
  0xFF, 0x00, 0x01, 0x00, 0x00, 0xFF, 0x00, 0x00, 0x00, 0x01, 0xFF, 0x01,
  0x00, 0x00, 0x01, 0xFF, 0x00, 0x00, 0x01, 0x01, 0xFF, 0xFF, 0x01, 0xFE,
  0xFF, 0x00, 0x01, 0xFF, 0x00, 0xFF, 0x01, 0x00, 0xFF, 0xFF, 0x00, 0xFF,
  0x01, 0xFF, 0xFF, 0x00, 0x00, 0x01, 0xFF, 0xFF, 0x00, 0x01, 0xFF, 0x00,
  0x01, 0x01, 0x00, 0xFF, 0x01, 0x01, 0x01, 0x01, 0x00, 0x00, 0x00, 0x00,
  0x01, 0x01, 0x01, 0x01, 0xFF, 0x00, 0xFF, 0xFF, 0xFF, 0xFF, 0x01, 0x00,
  0xFF, 0xFF, 0x01, 0x00, 0x00, 0x00, 0x00, 0x01, 0xFF, 0xFF, 0x01, 0xFF,
  0x00, 0x00, 0x01, 0xFE, 0x00, 0x02, 0xFF, 0x00, 0x01, 0x00, 0xFE, 0xFE,
  0xFF, 0x01, 0xFF, 0xFE, 0xFF, 0xFF, 0x01, 0x00, 0x00, 0xFF, 0x00, 0x00,
  0x01, 0xFF, 0x01, 0x01, 0x00, 0x02, 0x02, 0x00, 0x00, 0x00, 0x02, 0xFF,
  0xFF, 0x01, 0x01, 0x01, 0x01, 0x00, 0xFF, 0x00, 0xFF, 0x01, 0x01, 0x00,
  0x02, 0x00, 0xFF, 0xFF, 0x01, 0x01, 0x00, 0x02, 0x00, 0xFF, 0x01, 0xFF,
  0x00, 0xFF, 0x00, 0xFF, 0x01, 0x01, 0x00, 0xFF, 0x01, 0x01, 0x00, 0x00,
  0xFF, 0x00, 0xFD, 0xFF, 0x00, 0xFD, 0x00, 0xFF, 0xFF, 0xFE, 0xFF, 0xFF,
  0x01, 0x00, 0x01, 0xFF, 0x00, 0x00, 0xFF, 0x00, 0xFF, 0x00, 0xFF, 0xFF,
  0x00, 0xFF, 0xFF, 0xFF, 0xFF, 0xFE, 0xFF, 0xFF, 0xFF, 0xFE, 0xFF, 0x01,
  0x01, 0x00, 0xFF, 0x00, 0xFF, 0xFF, 0x00, 0x01, 0xFF, 0xFF, 0x00, 0x01,
  0xFE, 0xFF, 0x00, 0x01, 0xFF, 0x00, 0x00, 0x01, 0x01, 0x01, 0xFF, 0xFE,
  0x01, 0x00, 0xFF, 0x00, 0x00, 0x00, 0x00, 0xFF, 0x00, 0x00, 0x00, 0xFF,
  0xFE, 0x01, 0x00, 0xFE, 0x01, 0xFD, 0xFF, 0x00, 0x01, 0xFF, 0xFE, 0xFE,
  0xFF, 0x00, 0xFF, 0x00, 0x01, 0x00, 0x01, 0xFE, 0x01, 0x00, 0x00, 0xFF,
  0x01, 0x00, 0xFE, 0xFF, 0xFD, 0x00, 0xFF, 0xFF, 0x00, 0xFF, 0xFF, 0xFF,
  0x01, 0x00, 0x01, 0x00, 0x01, 0x01, 0x00, 0xFF, 0xFF, 0xFF, 0x00, 0xFF,
  0xFE, 0x01, 0x01, 0x01, 0xFF, 0xFD, 0xFF, 0x01, 0x00, 0x00, 0xFD, 0xFD,
  0x00, 0x00, 0x00, 0x00, 0xFF, 0xFF, 0x00, 0x00, 0x00, 0x00, 0x00, 0x01,
  0x00, 0x01, 0x01, 0x01, 0x00, 0xFD, 0xFF, 0x01, 0x01, 0x01, 0xFE, 0xFE,
  0x00, 0xFF, 0x00, 0x00, 0x01, 0x00, 0xFF, 0x00, 0x01, 0x01, 0x00, 0x01,
  0xFF, 0xFE, 0xFF, 0x01, 0x00, 0x00, 0x00, 0xFF, 0xFF, 0x00, 0x01, 0xFE,
  0x01, 0xFF, 0x01, 0x01, 0xFF, 0x01, 0x00, 0xFF, 0x01, 0x00, 0x00, 0x01,
  0xFF, 0x01, 0x00, 0xFF, 0x00, 0x00, 0x01, 0x00, 0xFF, 0x00, 0x00, 0xFE,
  0x00, 0xFF, 0xFF, 0xFE, 0x01, 0xFF, 0x00, 0x00, 0x00, 0x00, 0x01, 0x00,
  0x01, 0x00, 0x00, 0x00, 0x00, 0x00, 0x00, 0x01, 0xFF, 0x01, 0xFE, 0xFD,
  0xFF, 0x01, 0x01, 0x00, 0x00, 0x00, 0x00, 0xFF, 0x01, 0x00, 0xFF, 0xFF,
  0xFF, 0xFF, 0x01, 0x00, 0x00, 0x01, 0x00, 0x00, 0x00, 0x01, 0x00, 0xFD,
  0x00, 0xFF, 0xFF, 0xFE, 0x00, 0x01, 0x00, 0xFE, 0xFF, 0x00, 0x00, 0x01,
  0x01, 0x00, 0x00, 0x00, 0x00, 0x00, 0xFF, 0xFF, 0xFF, 0x00, 0x00, 0xFC,
  0xFF, 0x01, 0x01, 0xFF, 0x00, 0x00, 0x00, 0xFF, 0xFF, 0x01, 0xFE, 0x01,
  0x01, 0x01, 0x01, 0xFF, 0xFF, 0x01, 0xFF, 0xFF, 0x00, 0x00, 0xFF, 0xFC,
  0x01, 0x01, 0x00, 0x01, 0xFF, 0x01, 0x00, 0xFF, 0x00, 0x00, 0x01, 0xFF,
  0x01, 0x00, 0xFF, 0x00, 0x00, 0x01, 0x01, 0x01, 0xFF, 0xFF, 0x01, 0xFC,
  0x01, 0xFF, 0x00, 0xFF, 0xFF, 0xFF, 0xFF, 0xFF, 0x00, 0xFF, 0xFF, 0x01,
  0x00, 0xFF, 0xFF, 0xFF, 0x01, 0xFF, 0xFF, 0x01, 0x00, 0x01, 0xFF, 0xFD,
  0x00, 0x00, 0xFF, 0xFF, 0x01, 0x01, 0x00, 0x01, 0x01, 0x00, 0xFF, 0x00,
  0xFF, 0xFE, 0x00, 0x01, 0x01, 0xFF, 0x00, 0x00, 0x00, 0xFF, 0x00, 0xFC,
  0xFF, 0x01, 0x00, 0x00, 0x01, 0x00, 0x01, 0xFF, 0xFF, 0x00, 0xFF, 0x00,
  0x00, 0xFE, 0xFF, 0x01, 0x00, 0x01, 0x01, 0x00, 0xFF, 0x00, 0xFF, 0xFF,
  0x00, 0x01, 0x01, 0xFF, 0x01, 0x01, 0x01, 0x00, 0x00, 0xFF, 0xFF, 0x00,
  0xFF, 0xFF, 0xFE, 0xFE, 0xFF, 0xFF, 0x00, 0xFF, 0x00, 0xFF, 0xFD, 0x00,
  0x00, 0xFF, 0x01, 0x00, 0xFF, 0xFF, 0x00, 0x01, 0xFF, 0x01, 0xFF, 0x01,
  0xFE, 0x00, 0xFF, 0x00, 0xFD, 0x01, 0xFF, 0x01, 0x01, 0x01, 0xFF, 0xFE,
  0x01, 0x01, 0x01, 0xFF, 0x01, 0xFF, 0xFF, 0xFF, 0xFF, 0x00, 0xFF, 0xFF,
  0xFE, 0xFF, 0xFE, 0x00, 0x01, 0x00, 0xFF, 0xFF, 0xFF, 0x01, 0xFF, 0xFE,
  0xFF, 0x00, 0x00, 0xFE, 0x00, 0x01, 0x01, 0x01, 0x00, 0xFF, 0xFF, 0x00,
  0x00, 0xFF, 0x01, 0x01, 0xFF, 0x00, 0x00, 0x00, 0xFF, 0xFE, 0x00, 0xFD,
  0xFF, 0x00, 0x01, 0x00, 0x01, 0xFF, 0xFF, 0x00, 0x00, 0x00, 0xFF, 0x01,
  0xFE, 0xFF, 0xFF, 0xFE, 0xFF, 0xFE, 0x00, 0xFF, 0x00, 0xFF, 0xFF, 0xFF,
  0x00, 0x00, 0xFF, 0xFE, 0xFF, 0xFF, 0xFF, 0x01, 0x01, 0xFF, 0xFF, 0x01,
  0xFD, 0xFF, 0x00, 0x01, 0x00, 0x00, 0xFF, 0xFD, 0x01, 0xFF, 0xFF, 0xFD,
  0x00, 0xFF, 0x00, 0x00, 0x01, 0xFF, 0xFF, 0x01, 0x01, 0x00, 0x01, 0x00,
  0xFE, 0x00, 0x00, 0xFF, 0xFF, 0xFF, 0xFE, 0xFF, 0x01, 0xFF, 0xFD, 0x01,
  0xFF, 0xFF, 0x01, 0x00, 0x00, 0xFF, 0x00, 0xFF, 0x01, 0x01, 0x00, 0xFF,
  0xFE, 0x00, 0x01, 0x01, 0xFD, 0x00, 0x00, 0xFF, 0x01, 0xFF, 0x01, 0xFF,
  0xFF, 0x01, 0x00, 0xFF, 0x00, 0x00, 0x00, 0x01, 0xFF, 0xFF, 0xFF, 0x01,
  0xFF, 0xFF, 0xFF, 0x01, 0xFF, 0xFF, 0x00, 0xFE, 0x00, 0xFF, 0xFE, 0xFD,
  0x00, 0x00, 0x00, 0xFE, 0x00, 0xFE, 0x00, 0xFF, 0x00, 0xFF, 0x00, 0x00,
  0x00, 0x00, 0x00, 0x01, 0xFF, 0x01, 0x01, 0x00, 0xFF, 0x00, 0xFF, 0xFD,
  0xFF, 0xFF, 0xFF, 0xFF, 0x01, 0x00, 0x00, 0xFF, 0xFF, 0x00, 0x00, 0x00,
  0xFF, 0xFF, 0x01, 0xFF, 0x00, 0xFF, 0x00, 0xFF, 0xFF, 0xFF, 0xFF, 0xFD,
  0x00, 0xFF, 0xFF, 0x00, 0x00, 0xFF, 0x01, 0x00, 0x00, 0xFF, 0xFF, 0x01,
  0xFF, 0x01, 0xFF, 0x00, 0x00, 0xFF, 0x01, 0x01, 0xFF, 0x01, 0xFF, 0xFD,
  0x01, 0xFF, 0x00, 0x01, 0x01, 0xFF, 0x00, 0xFF, 0x00, 0x01, 0x01, 0x01,
  0x00, 0xFF, 0xFF, 0xFF, 0xFE, 0x00, 0xFF, 0x01, 0x01, 0x01, 0xFF, 0x00,
  0x01, 0xFF, 0xFF, 0xFF, 0xFF, 0x01, 0x00, 0xFE, 0x00, 0xFF, 0x01, 0xFF,
  0xFF, 0x01, 0x01, 0x00, 0x00, 0x00, 0x00, 0x00, 0xFF, 0xFF, 0x01, 0xFE,
  0x00, 0xFF, 0x00, 0xFF, 0x01, 0xFE, 0x01, 0x00, 0xFF, 0x01, 0x00, 0x00,
  0xFF, 0xFF, 0x00, 0x01, 0x00, 0xFF, 0x00, 0x00, 0x00, 0xFF, 0x00, 0xFF,
  0x00, 0xFF, 0x00, 0xFF, 0x01, 0x01, 0xFF, 0xFF, 0x00, 0x00, 0x00, 0xFF,
  0x01, 0xFF, 0x00, 0xFF, 0x01, 0xFF, 0xFF, 0xFF, 0x01, 0x01, 0xFF, 0xFE,
  0x00, 0xFF, 0x00, 0x00, 0xFF, 0xFF, 0xFF, 0x00, 0xFF, 0x01, 0x00, 0xFF,
  0x00, 0xFF, 0xFF, 0x01, 0x00, 0x00, 0x00, 0x01, 0x00, 0xFF, 0x00, 0xFD,
  0xFF, 0xFF, 0x00, 0xFF, 0x00, 0x01, 0x00, 0xFE, 0x01, 0x01, 0x01, 0x00,
  0x01, 0x00, 0xFF, 0xFE, 0xFF, 0x00, 0xFF, 0x00, 0x01, 0x00, 0xFF, 0xFF,
  0xFF, 0x01, 0x01, 0x01, 0x01, 0xFF, 0xFF, 0xFF, 0xFF, 0xFF, 0xFE, 0x00,
  0x01, 0x01, 0xFF, 0x00, 0x00, 0x00, 0x00, 0x00, 0x01, 0x01, 0xFF, 0x00,
  0x01, 0xFF, 0xFF, 0xFF, 0x00, 0x00, 0xFF, 0xFF, 0x01, 0x00, 0x01, 0xFF,
  0x01, 0xFF, 0x01, 0x01, 0x01, 0x00, 0x01, 0xFF, 0x01, 0xFF, 0xFF, 0xFF,
  0xFF, 0xFF, 0xFF, 0xFF, 0x01, 0x00, 0xFF, 0x00, 0x00, 0x00, 0x01, 0x00,
  0xFE, 0xFF, 0xFF, 0x00, 0x00, 0xFF, 0xFD, 0xFF, 0x00, 0x00, 0xFE, 0xFE,
  0x00, 0x00, 0x01, 0xFF, 0xFF, 0xFF, 0x00, 0xFF, 0x01, 0x01, 0xFF, 0x01,
  0x00, 0xFE, 0x00, 0x00, 0x01, 0xFF, 0xFF, 0xFF, 0x01, 0xFF, 0x00, 0xFF,
  0x00, 0x01, 0x00, 0xFF, 0x00, 0xFF, 0xFF, 0xFF, 0x00, 0xFF, 0x01, 0xFF,
  0xFF, 0xFF, 0x00, 0x01, 0xFF, 0x00, 0x00, 0x00, 0xFF, 0x00, 0xFF, 0x00,
  0xFF, 0xFF, 0xFF, 0xFF, 0x01, 0x00, 0x00, 0xFF, 0x00, 0x01, 0x00, 0x01,
  0xFE, 0x00, 0x00, 0x01, 0x01, 0x00, 0xFD, 0xFF, 0x00, 0x00, 0xFF, 0x01,
  0x00, 0xFF, 0x00, 0x00, 0x01, 0x00, 0xFF, 0x00, 0xFF, 0xFF, 0x00, 0x00,
  0x00, 0x01, 0x00, 0xFF, 0xFF, 0xFE, 0xFF, 0x00, 0xFF, 0xFF, 0xFF, 0x00,
  0x01, 0xFF, 0xFF, 0x00, 0xFF, 0xFE, 0xFF, 0xFF, 0x01, 0xFF, 0xFF, 0xFF,
  0xFF, 0x00, 0xFF, 0xFD, 0x01, 0xFF, 0xFD, 0xFF, 0xFF, 0xFF, 0xFF, 0x00,
  0x00, 0xFF, 0xFF, 0xFF, 0x01, 0x01, 0x00, 0x00, 0xFF, 0x00, 0x00, 0x01,
  0xFE, 0x00, 0xFF, 0xFD, 0x01, 0xFF, 0xFF, 0x00, 0xFF, 0xFF, 0xFE, 0x00,
  0xFF, 0x01, 0x01, 0xFF, 0x01, 0x00, 0x01, 0x00, 0x01, 0x00, 0x01, 0xFF,
  0x01, 0x00, 0xFF, 0xFF, 0xFD, 0x01, 0xFF, 0x01, 0x00, 0xFF, 0x01, 0xFE,
  0x00, 0x01, 0x01, 0xFE, 0x00, 0x01, 0x00, 0x01, 0xFF, 0xFF, 0xFF, 0x01,
  0xFE, 0x00, 0xFF, 0x01, 0xFF, 0x01, 0x00, 0xFF, 0xFF, 0xFF, 0xFF, 0xFE,
  0x01, 0x00, 0xFF, 0xFF, 0xFF, 0xFF, 0xFF, 0x01, 0xFF, 0x01, 0x00, 0x01,
  0x01, 0x00, 0x01, 0x00, 0x00, 0xFF, 0x01, 0x01, 0x01, 0x01, 0x01, 0xFE,
  0x01, 0xFF, 0x00, 0xFF, 0x00, 0xFF, 0x01, 0x01, 0xFF, 0x00, 0x01, 0x00,
  0xFF, 0x00, 0xFF, 0x01, 0x00, 0x00, 0x01, 0x01, 0x01, 0x01, 0xFF, 0xFC,
  0xFF, 0x01, 0x00, 0xFF, 0x01, 0xFF, 0x00, 0x00, 0x01, 0xFF, 0x01, 0xFF,
  0xFF, 0x02, 0x01, 0xFF, 0x00, 0xFF, 0xFF, 0x02, 0x01, 0x00, 0xFF, 0xFD,
  0x00, 0x00, 0x00, 0xFE, 0xFF, 0x00, 0xFF, 0x00, 0x00, 0x01, 0x00, 0xFF,
  0x01, 0x00, 0x00, 0xFF, 0xFF, 0x00, 0xFE, 0x00, 0x01, 0x01, 0xFF, 0x00,
  0x01, 0x01, 0x01, 0x00, 0xFF, 0x00, 0x00, 0x00, 0xFF, 0x00, 0x00, 0x01,
  0xFF, 0xFF, 0xFF, 0x00, 0xFF, 0x00, 0xFF, 0x00, 0x00, 0xFF, 0xFF, 0xFF,
  0xFF, 0x01, 0x01, 0xFF, 0x00, 0xFF, 0x01, 0x01, 0x01, 0x00, 0xFF, 0x00,
  0x00, 0x01, 0x00, 0x01, 0x01, 0x01, 0x00, 0xFF, 0xFF, 0xFF, 0x00, 0xFF,
  0xFF, 0x01, 0x00, 0x00, 0x00, 0x00, 0x00, 0x00, 0x01, 0x00, 0xFF, 0x00,
  0xFD, 0x00, 0x00, 0xFF, 0x00, 0x00, 0x01, 0x00, 0x00, 0xFE, 0xFF, 0xFE,
  0x01, 0xFF, 0x01, 0xFE, 0xFF, 0x00, 0x01, 0xFF, 0xFF, 0xFF, 0xFF, 0x01,
  0xFD, 0xFF, 0x00, 0x01, 0xFF, 0x00, 0xFD, 0x00, 0xFF, 0x00, 0x00, 0x00,
  0xFF, 0x00, 0xFF, 0x00, 0x00, 0x01, 0x00, 0xFF, 0x01, 0xFF, 0x00, 0xFF,
  0xFD, 0xFE, 0xFF, 0xFF, 0x00, 0x01, 0x00, 0x01, 0xFF, 0x01, 0x00, 0xFD,
  0x01, 0xFF, 0xFF, 0xFF, 0x00, 0x00, 0x00, 0xFE, 0x00, 0xFF, 0xFE, 0xFF,
  0xFF, 0x00, 0x01, 0xFF, 0xFF, 0x00, 0x00, 0x01, 0x00, 0xFF, 0x01, 0x00,
  0x00, 0x00, 0xFF, 0xFF, 0x01, 0x00, 0xFF, 0x00, 0x00, 0x01, 0xFF, 0xFF,
  0xFD, 0x02, 0x00, 0x00, 0xFF, 0x01, 0x01, 0xFF, 0x00, 0xFF, 0xFF, 0xFE,
  0x01, 0x01, 0x01, 0x00, 0x00, 0x01, 0x00, 0xFF, 0xFF, 0x00, 0x00, 0xFF,
  0xFD, 0xFF, 0x01, 0xFF, 0xFF, 0xFE, 0xFE, 0x01, 0x00, 0xFE, 0x00, 0xFE,
  0x01, 0x00, 0xFF, 0xFF, 0x01, 0xFE, 0x01, 0x01, 0xFF, 0xFF, 0xFF, 0x01,
  0xFD, 0xFF, 0xFF, 0x01, 0x01, 0xFF, 0xFE, 0xFF, 0x00, 0x00, 0xFE, 0x01,
  0xFF, 0xFF, 0x01, 0x00, 0xFF, 0xFF, 0xFF, 0x00, 0x01, 0x01, 0xFF, 0x00,
  0xFE, 0x01, 0x00, 0x01, 0xFF, 0xFF, 0x01, 0xFF, 0xFF, 0xFD, 0x00, 0xFE,
  0xFF, 0x00, 0xFF, 0xFF, 0x00, 0x01, 0x00, 0x00, 0x00, 0x01, 0xFF, 0xFF,
  0xFD, 0x01, 0x01, 0xFF, 0xFE, 0x01, 0x01, 0xFF, 0x00, 0x00, 0x00, 0x01,
  0x00, 0x00, 0x01, 0x00, 0xFF, 0x01, 0xFF, 0xFF, 0xFF, 0xFF, 0x00, 0x00,
  0xFF, 0x01, 0xFF, 0xFE, 0x00, 0x00, 0xFD, 0xFF, 0x01, 0xFE, 0x01, 0xFF,
  0x01, 0xFF, 0x00, 0xFF, 0x01, 0x01, 0x00, 0xFF, 0x01, 0x01, 0xFF, 0x01,
  0xFD, 0x01, 0x00, 0xFF, 0xFF, 0xFE, 0xFD, 0x00, 0x01, 0x00, 0x01, 0x00,
  0x01, 0x01, 0x01, 0x00, 0x01, 0x00, 0x00, 0xFE, 0x00, 0x01, 0xFF, 0x00,
  0xFD, 0xFF, 0x00, 0xFE, 0xFD, 0xFE, 0xFD, 0xFF, 0xFE, 0x00, 0xFE, 0x01,
  0x01, 0x01, 0x00, 0xFF, 0xFF, 0x00, 0x00, 0x00, 0x01, 0xFF, 0xFF, 0x01,
  0xFF, 0xFF, 0x00, 0x00, 0xFE, 0xFE, 0xFF, 0xFD, 0x01, 0x00, 0x01, 0x00,
  0x00, 0xFF, 0xFF, 0x00, 0xFF, 0x00, 0x01, 0xFF, 0xFF, 0xFF, 0x01, 0x00,
  0xFE, 0xFF, 0xFF, 0x00, 0xFE, 0x00, 0xFF, 0xFF, 0xFF, 0xFD, 0x00, 0xFD,
  0x00, 0xFF, 0xFF, 0x00, 0x00, 0x01, 0x00, 0x01, 0x01, 0x01, 0x00, 0x00,
  0x00, 0xFF, 0xFF, 0x00, 0xFF, 0x01, 0x00, 0xFF, 0xFF, 0x00, 0x00, 0xFF,
  0x01, 0x01, 0xFF, 0x00, 0x01, 0x00, 0xFF, 0xFF, 0xFF, 0x01, 0xFE, 0xFF,
  0x00, 0x00, 0xFF, 0x00, 0xFF, 0x00, 0x01, 0xFF, 0x01, 0x01, 0xFF, 0xFF,
  0xFF, 0xFF, 0xFF, 0xFF, 0x01, 0xFF, 0x00, 0x01, 0x00, 0xFF, 0x01, 0x00,
  0x00, 0x02, 0x00, 0x00, 0x01, 0x00, 0x01, 0xFF, 0xFF, 0x00, 0x01, 0xFD,
  0x01, 0x00, 0xFF, 0x00, 0x01, 0x00, 0x00, 0xFF, 0xFF, 0x01, 0xFF, 0xFF,
  0xFF, 0xFF, 0xFF, 0xFF, 0x01, 0xFF, 0x00, 0x01, 0x00, 0xFF, 0xFF, 0x00,
  0x00, 0x01, 0x00, 0xFF, 0xFF, 0x00, 0x00, 0xFF, 0x01, 0xFF, 0x01, 0x00,
  0xFF, 0xFF, 0x00, 0xFF, 0xFE, 0x01, 0xFF, 0xFF, 0x00, 0x00, 0xFF, 0x00,
  0xFF, 0x00, 0x00, 0xFF, 0x00, 0x00, 0x01, 0xFF, 0x00, 0x00, 0x01, 0xFF,
  0xFE, 0xFF, 0xFF, 0xFF, 0xFE, 0x00, 0xFF, 0x00, 0x00, 0x00, 0xFF, 0xFF,
  0xFF, 0x01, 0xFF, 0x00, 0xFF, 0x00, 0x01, 0x00, 0xFF, 0x00, 0x00, 0x00,
  0xFF, 0xFF, 0x01, 0xFF, 0x01, 0x00, 0xFF, 0x00, 0x00, 0x01, 0x00, 0xFD,
  0xFF, 0x00, 0x01, 0x00, 0x01, 0x00, 0x01, 0xFF, 0x00, 0x00, 0x00, 0x00,
  0x00, 0xFF, 0x00, 0xFF, 0xFE, 0x01, 0xFF, 0x01, 0x01, 0x01, 0x00, 0xFE,
  0x00, 0x00, 0x00, 0x00, 0x00, 0x01, 0x01, 0x00, 0xFF, 0x00, 0xFE, 0x00,
  0x00, 0xFF, 0x00, 0x01, 0x00, 0x01, 0xFF, 0xFF, 0x01, 0x01, 0x00, 0x00,
  0x01, 0xFF, 0x00, 0xFE, 0xFF, 0xFF, 0x00, 0x00, 0xFF, 0x01, 0x00, 0x01,
  0x00, 0xFF, 0x00, 0xFF, 0xFF, 0x01, 0x00, 0x00, 0xFF, 0x01, 0x01, 0x00,
  0x00, 0xFF, 0xFF, 0x00, 0xFF, 0x00, 0x01, 0x01, 0x00, 0xFF, 0xFF, 0xFF,
  0x01, 0x00, 0x00, 0x01, 0x00, 0x00, 0x01, 0xFF, 0xFF, 0x00, 0x00, 0xFF,
  0xFF, 0x00, 0xFF, 0x00, 0x01, 0xFF, 0x01, 0x00, 0x00, 0x01, 0x00, 0x01,
  0xFF, 0xFF, 0xFE, 0x00, 0x01, 0xFF, 0x00, 0x00, 0xFE, 0x00, 0xFD, 0x00,
  0x01, 0xFF, 0x00, 0xFF, 0xFF, 0x01, 0xFF, 0xFE, 0x00, 0xFF, 0x01, 0x00,
  0xFE, 0x00, 0xFF, 0x01, 0x01, 0x00, 0x01, 0xFF, 0x00, 0xFF, 0x00, 0xFF,
  0xFF, 0xFF, 0x01, 0xFE, 0x00, 0x01, 0x00, 0xFF, 0x01, 0x00, 0x00, 0x01,
  0xFE, 0x01, 0x02, 0x01, 0x00, 0x00, 0xFF, 0x00, 0x01, 0x00, 0x00, 0xFD,
  0xFF, 0xFF, 0xFF, 0xFF, 0xFF, 0xFF, 0x01, 0xFF, 0xFF, 0xFF, 0x00, 0xFF,
  0xFF, 0x00, 0x01, 0x01, 0x00, 0xFF, 0x00, 0xFF, 0x00, 0x00, 0x01, 0xFF,
  0x00, 0x00, 0x01, 0xFF, 0x00, 0x00, 0xFF, 0xFF, 0x01, 0xFF, 0x01, 0x01,
  0xFE, 0x00, 0x01, 0xFF, 0xFF, 0x01, 0x01, 0xFF, 0x00, 0x01, 0xFF, 0xFE,
  0x01, 0x01, 0x00, 0xFF, 0x01, 0xFF, 0x00, 0x01, 0x01, 0x01, 0x01, 0x00,
  0xFF, 0x00, 0x00, 0xFE, 0xFF, 0xFF, 0x00, 0x00, 0xFF, 0xFF, 0xFD, 0xFF,
  0xFF, 0x00, 0x01, 0xFE, 0xFF, 0xFF, 0x01, 0xFF, 0x00, 0xFF, 0xFF, 0x00,
  0xFF, 0xFE, 0x00, 0xFF, 0xFF, 0xFE, 0xFE, 0xFE, 0xFD, 0xFD, 0xFE, 0x01,
  0x00, 0x01, 0x01, 0x00, 0x01, 0x01, 0xFF, 0xFF, 0x00, 0x01, 0xFF, 0x00,
  0x00, 0xFF, 0xFD, 0x02, 0xFC, 0xFF, 0x01, 0x00, 0xFF, 0xFF, 0xFF, 0xFF,
  0x01, 0x00, 0x01, 0xFE, 0x01, 0xFF, 0xFF, 0x00, 0xFF, 0x01, 0xFF, 0x00,
  0x00, 0xFF, 0xFE, 0xFE, 0x00, 0x00, 0xFF, 0x00, 0xFF, 0x00, 0xFE, 0xFE,
  0x00, 0x00, 0xFF, 0x01, 0x01, 0x01, 0xFF, 0x00, 0xFF, 0x01, 0x00, 0xFF,
  0x01, 0xFF, 0x01, 0xFF, 0x00, 0x01, 0x01, 0x00, 0x01, 0x01, 0x00, 0x00,
  0x01, 0x01, 0x00, 0xFE, 0xFF, 0xFF, 0x00, 0x00, 0x00, 0x00, 0x00, 0x01,
  0x00, 0x01, 0xFF, 0xFF, 0x01, 0xFF, 0x00, 0xFF, 0x00, 0xFF, 0xFF, 0xFD,
  0x01, 0x01, 0x00, 0xFF, 0x01, 0xFF, 0x00, 0xFF, 0xFF, 0x00, 0x00, 0x00,
  0x00, 0xFF, 0x01, 0xFF, 0x01, 0x00, 0xFF, 0x01, 0x00, 0x00, 0x00, 0xFD,
  0xFF, 0x00, 0x01, 0x00, 0xFF, 0x01, 0xFF, 0xFF, 0x00, 0x00, 0xFF, 0x00,
  0x00, 0xFF, 0x00, 0xFF, 0xFF, 0xFF, 0xFF, 0x00, 0x01, 0x00, 0xFE, 0xFE,
  0x00, 0x00, 0xFF, 0xFF, 0x01, 0xFF, 0x01, 0x00, 0x00, 0xFF, 0x01, 0xFF,
  0xFF, 0x01, 0x00, 0x00, 0xFF, 0xFF, 0xFE, 0xFF, 0xFF, 0xFE, 0xFF, 0x00,
  0x00, 0x01, 0xFF, 0xFF, 0xFF, 0xFF, 0x00, 0x00, 0xFF, 0xFF, 0xFF, 0x01,
  0x00, 0x00, 0xFF, 0xFF, 0xFF, 0xFF, 0xFE, 0x00, 0x01, 0x00, 0xFF, 0xFF,
  0x00, 0x00, 0xFF, 0x01, 0x01, 0x00, 0x00, 0x00, 0x01, 0xFF, 0x01, 0x01,
  0xFE, 0xFF, 0xFF, 0x01, 0xFF, 0x00, 0x00, 0x01, 0x01, 0x01, 0x00, 0xFF,
  0x01, 0xFF, 0x00, 0xFF, 0x00, 0x01, 0x00, 0x00, 0x00, 0x00, 0xFF, 0x00,
  0xFD, 0x00, 0x00, 0xFF, 0x01, 0xFF, 0x01, 0x01, 0xFF, 0xFF, 0xFF, 0xFF,
  0x00, 0x01, 0xFF, 0x00, 0x00, 0x01, 0xFF, 0xFE, 0xFF, 0x00, 0x01, 0x00,
  0xFF, 0x00, 0x01, 0xFF, 0x00, 0x01, 0xFE, 0x00, 0x01, 0xFF, 0xFF, 0xFF,
  0x01, 0xFF, 0xFF, 0x00, 0xFF, 0xFF, 0x01, 0xFF, 0x00, 0x00, 0x00, 0x00,
  0x00, 0x00, 0x01, 0xFF, 0x00, 0x00, 0xFF, 0x01, 0x01, 0x00, 0xFF, 0xFE,
  0x01, 0x01, 0xFF, 0x00, 0x01, 0xFF, 0x01, 0x00, 0xFF, 0xFF, 0xFF, 0xFF,
  0x01, 0x00, 0x00, 0x01, 0x00, 0xFF, 0x00, 0xFF, 0xFF, 0x00, 0x01, 0xFE,
  0x00, 0x00, 0x00, 0x00, 0x01, 0xFF, 0x01, 0xFF, 0x00, 0x01, 0xFF, 0x01,
  0xFE, 0xFF, 0x01, 0x00, 0x00, 0x00, 0x00, 0x00, 0x00, 0xFE, 0xFF, 0x00,
  0xFF, 0x01, 0xFF, 0xFE, 0x00, 0xFF, 0x01, 0xFE, 0x01, 0x00, 0x01, 0x01,
  0xFF, 0x02, 0xFF, 0x00, 0x01, 0xFF, 0xFF, 0x00, 0x00, 0xFF, 0xFE, 0xFF,
  0x00, 0x00, 0x01, 0xFF, 0x01, 0x01, 0xFF, 0xFF, 0x01, 0x00, 0xFF, 0x00,
  0x00, 0xFF, 0x00, 0x00, 0xFF, 0x00, 0x01, 0x01, 0xFF, 0x00, 0xFF, 0xFE,
  0x00, 0x01, 0x00, 0xFF, 0x01, 0xFF, 0xFF, 0xFF, 0xFF, 0xFF, 0x01, 0x00,
  0xFF, 0x00, 0x00, 0x01, 0x01, 0xFD, 0x00, 0xFF, 0xFF, 0x00, 0x00, 0x01,
  0xFF, 0xFF, 0x00, 0xFF, 0x01, 0x01, 0x00, 0x01, 0x01, 0x00, 0xFF, 0xFF,
  0x00, 0x00, 0x01, 0x00, 0xFF, 0xFF, 0xFE, 0xFF, 0xFF, 0xFE, 0x01, 0x01,
  0x00, 0x01, 0x00, 0x00, 0x01, 0x00, 0x01, 0x01, 0x00, 0xFF, 0xFF, 0x00,
  0x00, 0x00, 0x00, 0x00, 0x00, 0xFD, 0x01, 0xFF, 0xFF, 0xFE, 0xFE, 0xFF,
  0x01, 0xFF, 0x01, 0xFF, 0x00, 0x00, 0x01, 0xFF, 0x00, 0xFF, 0x01, 0xFF,
  0xFE, 0xFF, 0xFF, 0xFE, 0xFF, 0xFF, 0xFF, 0xFF, 0xFE, 0x01, 0xFF, 0xFF,
  0xFF, 0x00, 0x01, 0x01, 0xFF, 0xFF, 0x01, 0x00, 0xFF, 0xFF, 0xFF, 0xFE,
  0x01, 0xFF, 0x01, 0x01, 0xFF, 0x00, 0x01, 0x00, 0x00, 0xFF, 0x01, 0x01,
  0x01, 0x01, 0xFF, 0xFF, 0x00, 0xFF, 0x01, 0x01, 0x01, 0x01, 0x01, 0x00,
  0xFF, 0x00, 0x00, 0x00, 0xFF, 0x00, 0xFF, 0xFF, 0xFF, 0xFF, 0xFF, 0x00,
  0x00, 0xFF, 0x01, 0xFF, 0x01, 0x00, 0xFF, 0x00, 0x01, 0x01, 0x01, 0x00,
  0x00, 0x00, 0xFF, 0xFF, 0xFF, 0x01, 0x01, 0x00, 0xFF, 0x00, 0x00, 0xFF,
  0x00, 0x01, 0x01, 0x00, 0x00, 0xFF, 0xFF, 0x01, 0x00, 0xFF, 0xFF, 0x00,
  0x00, 0x00, 0xFE, 0x00, 0xFF, 0x00, 0xFF, 0x01, 0x00, 0xFF, 0xFF, 0x01,
  0xFF, 0xFF, 0xFF, 0xFF, 0x01, 0x01, 0xFF, 0xFF, 0x01, 0x01, 0x00, 0xFF,
  0x00, 0xFF, 0x01, 0xFF, 0x01, 0x01, 0x00, 0xFF, 0x00, 0x00, 0x01, 0x01,
  0x01, 0xFF, 0xFF, 0x00, 0x01, 0x00, 0x00, 0x00, 0x00, 0x00, 0xFF, 0x01,
  0xFF, 0x00, 0x00, 0xFF, 0x01, 0x00, 0xFF, 0x01, 0xFF, 0xFF, 0x00, 0x01,
  0x00, 0xFF, 0x01, 0x01, 0x01, 0xFE, 0xFE, 0x01, 0x00, 0x00, 0x01, 0xFF,
  0xFF, 0x01, 0x01, 0x00, 0x00, 0x01, 0x01, 0x01, 0xFF, 0x00, 0x00, 0x00,
  0xFF, 0xFF, 0xFF, 0x00, 0x01, 0x00, 0xFF, 0x00, 0x01, 0x00, 0xFF, 0xFF,
  0xFF, 0x00, 0xFF, 0x00, 0x01, 0xFE, 0x00, 0x01, 0xFF, 0x01, 0x00, 0x01,
  0x00, 0x01, 0xFF, 0xFF, 0xFF, 0x00, 0x00, 0xFF, 0x01, 0xFF, 0x00, 0x00,
  0x00, 0x00, 0x00, 0x00, 0x00, 0xFF, 0x01, 0xFF, 0x00, 0x01, 0x01, 0x01,
  0x01, 0x00, 0x01, 0xFF, 0x01, 0x00, 0x01, 0x00, 0x00, 0x01, 0xFF, 0x01,
  0x00, 0x00, 0xFF, 0x00, 0xFF, 0x01, 0xFF, 0x01, 0x00, 0x01, 0xFF, 0x00,
  0x00, 0x01, 0xFF, 0x00, 0x00, 0xFF, 0x00, 0xFF, 0xFF, 0x01, 0xFF, 0x01,
  0xFF, 0x01, 0x00, 0x00, 0xFF, 0xFF, 0x00, 0x00, 0x01, 0x00, 0xFF, 0xFE,
  0x00, 0xFF, 0x01, 0x01, 0x00, 0xFF, 0xFF, 0xFF, 0x01, 0x01, 0x00, 0x00,
  0x00, 0xFE, 0x00, 0x00, 0x00, 0x00, 0x01, 0x00, 0x00, 0x01, 0x00, 0xFF,
  0x01, 0x01, 0x00, 0x01, 0x01, 0x01, 0x01, 0x01, 0x00, 0xFF, 0xFF, 0x00,
  0x00, 0xFF, 0x01, 0x00, 0x01, 0x00, 0x00, 0xFF, 0x00, 0xFF, 0xFF, 0xFF,
  0xFF, 0xFF, 0xFF, 0x01, 0xFF, 0x01, 0xFF, 0x01, 0xFF, 0xFF, 0x00, 0xFF,
  0xFF, 0x00, 0x01, 0x00, 0xFF, 0x01, 0xFF, 0x00, 0xFE, 0x00, 0x00, 0x00,
  0x01, 0xFF, 0x01, 0x00, 0x01, 0xFF, 0xFF, 0xFF, 0x00, 0x00, 0x01, 0x00,
  0x01, 0xFE, 0xFF, 0x00, 0x01, 0x00, 0xFE, 0xFF, 0x00, 0xFF, 0xFF, 0xFE,
  0x00, 0x01, 0x01, 0x00, 0xFF, 0x01, 0xFF, 0x01, 0xFF, 0xFF, 0x00, 0xFF,
  0x01, 0xFF, 0x00, 0x00, 0xFF, 0xFF, 0x00, 0x00, 0xFF, 0x01, 0x00, 0xFF,
  0x00, 0x00, 0x00, 0x00, 0x00, 0x00, 0x00, 0x00, 0x00, 0x00, 0x00, 0xFF,
  0x00, 0x00, 0x01, 0x01, 0xFE, 0xFF, 0xFF, 0x01, 0x01, 0xFF, 0x00, 0xFF,
  0x01, 0xFF, 0xFF, 0xFF, 0x00, 0x00, 0x00, 0x01, 0x00, 0x01, 0xFF, 0x01,
  0xFF, 0xFF, 0x01, 0x01, 0x01, 0xFF, 0xFF, 0xFF, 0xFF, 0x00, 0xFF, 0xFE,
  0x01, 0x01, 0x01, 0x01, 0x00, 0xFE, 0xFF, 0x01, 0xFF, 0x01, 0x00, 0xFF,
  0xFF, 0x00, 0x01, 0x00, 0x00, 0xFF, 0x00, 0x00, 0xFE, 0x01, 0x01, 0x00,
  0xFF, 0x00, 0xFF, 0x00, 0xFF, 0xFF, 0x01, 0x00, 0xFF, 0x01, 0x00, 0x00,
  0x00, 0x01, 0xFE, 0xFF, 0x01, 0x00, 0x00, 0xFF, 0xFF, 0xFF, 0x00, 0x00,
  0x01, 0xFF, 0xFF, 0xFF, 0x01, 0x00, 0x00, 0xFE, 0x00, 0x01, 0x00, 0x00,
  0x00, 0x00, 0x00, 0xFF, 0xFF, 0xFF, 0xFF, 0x00, 0xFF, 0xFF, 0xFF, 0x00,
  0x00, 0x01, 0x00, 0xFF, 0xFF, 0xFE, 0x01, 0x01, 0x00, 0x01, 0x00, 0x01,
  0x00, 0x00, 0x00, 0x00, 0x00, 0xFF, 0x01, 0x00, 0xFF, 0x00, 0x00, 0xFF,
  0x00, 0x01, 0x01, 0xFF, 0x01, 0xFF, 0xFF, 0x01, 0xFF, 0x00, 0x00, 0x00,
  0xFF, 0x01, 0xFF, 0x01, 0x00, 0xFF, 0x00, 0xFF, 0x00, 0x00, 0xFF, 0xFE,
  0x01, 0x01, 0xFF, 0xFF, 0xFF, 0x00, 0x00, 0x00, 0x01, 0x01, 0xFF, 0xFF,
  0x01, 0xFF, 0xFF, 0x01, 0x00, 0xFF, 0x01, 0xFF, 0x01, 0xFF, 0x01, 0x01,
  0xFF, 0x01, 0xFF, 0x01, 0x00, 0xFF, 0x00, 0xFF, 0x00, 0x00, 0x00, 0x00,
  0x01, 0xFF, 0x00, 0x01, 0x00, 0x00, 0xFF, 0xFF, 0x01, 0x00, 0x01, 0xFE,
  0x00, 0xFF, 0x01, 0x01, 0x00, 0xFF, 0x01, 0x01, 0xFF, 0x00, 0x00, 0x01,
  0xFF, 0x00, 0xFF, 0x00, 0x01, 0x00, 0xFF, 0x00, 0x00, 0xFF, 0x01, 0xFF,
  0x00, 0x01, 0x00, 0x00, 0xFF, 0x00, 0xFF, 0x01, 0x00, 0xFF, 0xFF, 0xFF,
  0x00, 0x01, 0x00, 0x01, 0xFF, 0xFF, 0x01, 0x01, 0xFE, 0xFE, 0x00, 0xFF,
  0x00, 0x00, 0xFF, 0x00, 0xFF, 0xFF, 0x01, 0x01, 0x01, 0x01, 0xFF, 0x00,
  0xFF, 0x01, 0x00, 0x01, 0x01, 0xFE, 0x00, 0x00, 0x00, 0x00, 0xFE, 0x01,
  0x01, 0x00, 0xFF, 0x01, 0xFF, 0x00, 0x01, 0x01, 0xFF, 0x01, 0xFF, 0x00,
  0xFF, 0xFF, 0xFF, 0x00, 0xFF, 0x00, 0x00, 0xFF, 0xFF, 0xFF, 0x00, 0x00,
  0x00, 0x00, 0xFF, 0xFF, 0x01, 0xFF, 0x00, 0xFF, 0x00, 0x00, 0x01, 0xFF,
  0xFE, 0x00, 0xFF, 0x01, 0x00, 0xFF, 0x00, 0x01, 0xFF, 0x00, 0xFE, 0xFF,
  0x00, 0xFF, 0xFF, 0x01, 0xFF, 0x00, 0xFF, 0xFF, 0x00, 0xFF, 0xFF, 0x00,
  0xFF, 0xFF, 0x00, 0x00, 0x00, 0x00, 0x00, 0x00, 0x00, 0x00, 0x01, 0xFE,
  0x01, 0x01, 0x00, 0x01, 0x01, 0xFE, 0x00, 0x01, 0x01, 0x00, 0x01, 0x00,
  0xFF, 0x01, 0xFF, 0x00, 0x01, 0x01, 0x01, 0xFF, 0xFF, 0x00, 0x00, 0xFF,
  0x00, 0x00, 0x01, 0x01, 0x01, 0x00, 0xFF, 0x00, 0xFF, 0x01, 0xFF, 0xFF,
  0xFF, 0xFF, 0xFF, 0x01, 0xFF, 0x00, 0x00, 0x01, 0x01, 0xFF, 0xFF, 0xFE,
  0xFF, 0x00, 0x01, 0x00, 0x01, 0x00, 0xFF, 0x01, 0x01, 0xFF, 0x00, 0x00,
  0xFF, 0xFF, 0x01, 0x01, 0xFF, 0x00, 0xFF, 0x00, 0xFF, 0xFF, 0x01, 0xFF,
  0x01, 0x00, 0xFF, 0x00, 0xFF, 0xFF, 0x01, 0xFF, 0xFF, 0x00, 0xFF, 0x01,
  0x01, 0xFF, 0x00, 0x01, 0x01, 0x00, 0x00, 0x01, 0x01, 0xFF, 0xFF, 0xFE,
  0x00, 0x00, 0xFF, 0xFF, 0x01, 0x00, 0x00, 0xFF, 0xFF, 0xFF, 0xFF, 0xFF,
  0xFF, 0x01, 0x01, 0xFF, 0x00, 0xFF, 0xFF, 0xFF, 0x01, 0x00, 0x00, 0xFE,
  0x01, 0xFF, 0xFF, 0xFF, 0x00, 0x01, 0x00, 0x00, 0x00, 0xFF, 0x01, 0xFF,
  0xFF, 0x00, 0x01, 0xFF, 0x01, 0xFF, 0x00, 0xFF, 0xFE, 0x00, 0x00, 0x00,
  0x00, 0x00, 0x01, 0x00, 0xFF, 0x01, 0x01, 0xFF, 0x01, 0x00, 0xFF, 0x00,
  0x01, 0xFF, 0x00, 0xFF, 0x00, 0xFF, 0xFF, 0xFE, 0xFE, 0xFE, 0x00, 0x00,
  0xFF, 0xFF, 0x01, 0x00, 0x00, 0xFE, 0x00, 0x01, 0xFF, 0x00, 0xFF, 0xFF,
  0x00, 0xFF, 0xFF, 0xFF, 0x00, 0xFF, 0x00, 0x00, 0x00, 0xFF, 0x00, 0xFF,
  0x01, 0x00, 0x00, 0x00, 0x00, 0xFF, 0xFF, 0xFF, 0xFF, 0x01, 0x00, 0x00,
  0xFF, 0xFF, 0x00, 0xFF, 0xFF, 0x00, 0x00, 0xFF, 0xFF, 0xFF, 0x00, 0xFF,
  0x01, 0x01, 0x00, 0x01, 0x01, 0xFE, 0x00, 0x00, 0x01, 0xFF, 0x01, 0x01,
  0x01, 0x00, 0xFE, 0x01, 0xFE, 0xFF, 0x00, 0x01, 0x00, 0x00, 0xFF, 0xFE,
  0xFF, 0x01, 0xFF, 0x00, 0xFF, 0x01, 0x00, 0x01, 0x01, 0x00, 0xFF, 0x01,
  0xFF, 0xFF, 0xFF, 0xFF, 0x01, 0xFF, 0xFF, 0x01, 0x01, 0x01, 0x01, 0x01,
  0xFF, 0x00, 0x00, 0x00, 0x00, 0x00, 0x01, 0x00, 0x00, 0x00, 0x00, 0x00,
  0x01, 0x01, 0x00, 0xFF, 0x01, 0x01, 0x00, 0xFF, 0x01, 0x00, 0xFF, 0x00,
  0x01, 0x01, 0x01, 0xFF, 0x00, 0xFE, 0xFF, 0xFF, 0x00, 0x01, 0xFF, 0x00,
  0x00, 0x00, 0x01, 0x01, 0x01, 0x01, 0x01, 0xFF, 0xFF, 0x01, 0x01, 0xFF,
  0x01, 0xFF, 0x01, 0xFF, 0xFF, 0x00, 0x01, 0x00, 0x01, 0x00, 0x00, 0x00,
  0xFF, 0xFF, 0x01, 0xFF, 0x00, 0xFF, 0x01, 0xFF, 0x01, 0xFF, 0x00, 0xFE,
  0xFF, 0x00, 0x00, 0x00, 0xFF, 0xFE, 0x00, 0xFF, 0x00, 0xFF, 0xFF, 0x00,
  0xFF, 0x01, 0xFF, 0xFF, 0x01, 0xFF, 0x00, 0x00, 0xFF, 0x00, 0x00, 0xFF,
  0x01, 0x00, 0x00, 0x01, 0x01, 0xFE, 0xFF, 0xFF, 0xFF, 0x01, 0xFF, 0x00,
  0xFF, 0xFF, 0xFF, 0x01, 0x01, 0xFF, 0x00, 0x01, 0x00, 0x00, 0xFE, 0x00,
  0x01, 0xFF, 0x01, 0x01, 0x00, 0x00, 0x00, 0x01, 0x00, 0xFF, 0xFF, 0xFF,
  0xFF, 0x00, 0x00, 0x00, 0xFF, 0x01, 0x01, 0x01, 0x01, 0x01, 0x01, 0xFF,
  0xFF, 0x00, 0x00, 0xFF, 0x00, 0xFF, 0x00, 0xFF, 0x01, 0xFF, 0x01, 0xFF,
  0xFF, 0xFF, 0x00, 0x01, 0xFF, 0x00, 0x00, 0xFF, 0x01, 0xFF, 0x01, 0x01,
  0x00, 0x00, 0x00, 0x01, 0xFF, 0x00, 0x00, 0x01, 0xFF, 0x01, 0x01, 0xFF,
  0xFF, 0x01, 0x00, 0x00, 0x00, 0x01, 0xFF, 0xFF, 0x00, 0x01, 0x01, 0xFF,
  0x00, 0x00, 0x00, 0xFF, 0xFF, 0xFF, 0x01, 0x00, 0x01, 0x00, 0xFF, 0x01,
  0x01, 0x00, 0xFF, 0x01, 0x00, 0xFF, 0x01, 0x00, 0x00, 0x00, 0xFF, 0x01,
  0x01, 0xFF, 0x00, 0xFF, 0xFF, 0x00, 0x00, 0x01, 0x00, 0xFF, 0x01, 0xFF,
  0x01, 0x01, 0xFF, 0xFF, 0x00, 0x01, 0x01, 0x00, 0xFF, 0xFF, 0x01, 0xFF,
  0xFF, 0x01, 0xFF, 0x00, 0xFF, 0x01, 0xFF, 0xFF, 0xFF, 0x01, 0xFF, 0xFF,
  0x01, 0x00, 0x01, 0x00, 0x01, 0x01, 0x00, 0xFF, 0x01, 0x00, 0x01, 0xFE,
  0xFF, 0x01, 0xFF, 0x01, 0x00, 0x01, 0x00, 0xFF, 0xFF, 0x01, 0x01, 0x00,
  0x01, 0xFF, 0x01, 0x00, 0x01, 0x01, 0x01, 0xFF, 0x00, 0xFF, 0xFF, 0x00,
  0x00, 0x00, 0x00, 0x00, 0x01, 0xFF, 0xFF, 0xFF, 0x00, 0x00, 0x01, 0x00,
  0xFF, 0x00, 0x01, 0x00, 0x01, 0x01, 0x01, 0x01, 0x00, 0xFF, 0xFF, 0x00,
  0xFF, 0x01, 0x00, 0x01, 0x01, 0xFF, 0xFF, 0x01, 0xFF, 0x00, 0xFF, 0x00,
  0x01, 0x01, 0x00, 0x01, 0x01, 0x01, 0xFF, 0xFF, 0xFF, 0x01, 0xFF, 0x01,
  0x01, 0x01, 0x00, 0x00, 0x01, 0xFE, 0x01, 0x01, 0xFF, 0x01, 0xFF, 0x00,
  0xFF, 0x01, 0x00, 0x00, 0xFF, 0xFF, 0xFF, 0xFF, 0xFE, 0x00, 0xFF, 0xFF,
  0x00, 0x00, 0x01, 0xFF, 0xFF, 0x00, 0x01, 0x01, 0x00, 0xFF, 0xFF, 0x01,
  0xFF, 0xFF, 0xFE, 0x01, 0xFF, 0xFE, 0xFE, 0xFF, 0xFF, 0x01, 0xFF, 0x01,
  0x01, 0x01, 0x01, 0x01, 0x01, 0x00, 0x01, 0x01, 0x01, 0xFF, 0x01, 0x01,
  0xFF, 0xFF, 0xFF, 0x01, 0x01, 0xFF, 0x01, 0x00, 0x01, 0x00, 0x00, 0xFF,
  0xFF, 0x00, 0x01, 0xFF, 0xFF, 0x01, 0x01, 0x00, 0xFF, 0x01, 0xFF, 0xFF,
  0x00, 0x00, 0xFF, 0xFF, 0x01, 0xFF, 0xFF, 0x01, 0x01, 0x00, 0xFF, 0xFF,
  0xFF, 0xFF, 0x01, 0xFF, 0x00, 0x00, 0xFF, 0x01, 0xFF, 0xFF, 0x00, 0x00,
  0x01, 0x01, 0x00, 0xFF, 0xFF, 0xFE, 0x00, 0x01, 0xFF, 0x00, 0xFF, 0x01,
  0x00, 0x01, 0x01, 0x01, 0x00, 0xFF, 0x00, 0x01, 0xFF, 0xFF, 0x01, 0x01,
  0xFF, 0xFF, 0xFF, 0xFF, 0xFF, 0xFF, 0xFF, 0x01, 0xFF, 0xFF, 0x01, 0xFF,
  0x00, 0x01, 0x01, 0x00, 0x01, 0x01, 0xFF, 0x00, 0x01, 0x01, 0x01, 0x01,
  0x01, 0x00, 0x01, 0x00, 0x00, 0xFF, 0x01, 0x00, 0x01, 0x00, 0x01, 0xFF,
  0xFF, 0xFF, 0x00, 0xFF, 0x01, 0xFF, 0xFF, 0xFF, 0x01, 0x01, 0x00, 0x00,
  0x01, 0x00, 0x00, 0xFF, 0x00, 0xFF, 0x00, 0x01, 0x00, 0xFF, 0xFF, 0xFF,
  0x01, 0xFF, 0xFF, 0xFF, 0x00, 0x00, 0xFF, 0x00, 0xFF, 0xFF, 0x01, 0x00,
  0x01, 0xFF, 0x00, 0x01, 0xFF, 0xFF, 0x01, 0x00, 0x00, 0x00, 0x00, 0xFF,
  0xFF, 0x01, 0xFF, 0xFF, 0x00, 0x00, 0x01, 0xFF, 0x00, 0x01, 0x01, 0x01,
  0x00, 0xFF, 0x00, 0xFF, 0x01, 0x00, 0xFF, 0x01, 0x00, 0x01, 0xFF, 0x00,
  0x00, 0xFF, 0x01, 0x01, 0xFF, 0x00, 0x00, 0xFF, 0x00, 0x01, 0x00, 0x00,
  0x01, 0x01, 0xFF, 0xFF, 0x00, 0x01, 0xFF, 0x01, 0xFF, 0xFF, 0xFF, 0xFE,
  0x00, 0xFF, 0x00, 0x00, 0x00, 0x01, 0xFF, 0x00, 0x01, 0x00, 0x00, 0xFF,
  0x00, 0x00, 0xFF, 0x01, 0x00, 0xFF, 0xFF, 0x01, 0x01, 0xFF, 0x00, 0x00,
  0x01, 0xFF, 0x00, 0x01, 0xFF, 0xFE, 0x00, 0x00, 0x01, 0x01, 0xFF, 0xFF,
  0x01, 0x00, 0xFF, 0x01, 0x01, 0x01, 0xFF, 0x00, 0xFF, 0xFF, 0x00, 0xFF,
  0xFF, 0x00, 0x00, 0x01, 0xFF, 0x00, 0x01, 0xFF, 0xFF, 0x00, 0x00, 0x00,
  0x01, 0x01, 0xFF, 0xFF, 0x01, 0xFF, 0xFF, 0x01, 0x00, 0x01, 0xFF, 0x01,
  0x00, 0x00, 0x01, 0x00, 0xFF, 0x00, 0x00, 0x01, 0xFF, 0xFF, 0x01, 0x01,
  0x00, 0x00, 0x01, 0x00, 0xFF, 0x01, 0xFF, 0xFF, 0x01, 0xFF, 0x00, 0x01,
  0x01, 0xFF, 0x00, 0x00, 0xFF, 0xFF, 0x01, 0x00, 0x00, 0x00, 0x00, 0xFF,
  0x00, 0x01, 0x01, 0x01, 0x01, 0xFF, 0x00, 0x00, 0x01, 0x01, 0xFF, 0xFF,
  0x00, 0x00, 0x01, 0x01, 0xFF, 0x00, 0xFF, 0x01, 0xFF, 0xFF, 0x00, 0x01,
  0x01, 0x01, 0x00, 0x01, 0xFF, 0xFF, 0xFF, 0x00, 0x01, 0x00, 0xFF, 0xFF,
  0x01, 0x01, 0x01, 0x01, 0xFF, 0x01, 0xFF, 0x01, 0x00, 0x00, 0x01, 0x00,
  0x00, 0x00, 0x00, 0x00, 0x01, 0x00, 0x00, 0x00, 0x01, 0x00, 0xFF, 0x01,
  0x01, 0x00, 0xFF, 0x00, 0x00, 0x00, 0x01, 0xFF, 0x01, 0x01, 0x01, 0xFF,
  0x01, 0xFF, 0x00, 0x01, 0x00, 0x01, 0x00, 0x01, 0x00, 0x01, 0x00, 0x01,
  0x01, 0x00, 0xFF, 0x00, 0x01, 0x00, 0x00, 0x01, 0xFF, 0x00, 0xFF, 0xFF,
  0xFF, 0x00, 0x01, 0x00, 0x00, 0x01, 0xFF, 0x00, 0xFF, 0x00, 0xFF, 0x00,
  0xFF, 0x01, 0x01, 0x00, 0xFF, 0x01, 0x00, 0x01, 0xFF, 0x00, 0xFF, 0xFF,
  0xFF, 0xFF, 0x00, 0x00, 0xFE, 0xFE, 0xFF, 0xFF, 0xFF, 0xFE, 0xFF, 0x00,
  0xFF, 0xFF, 0x00, 0xFF, 0x00, 0x01, 0x01, 0xFF, 0x01, 0x00, 0xFF, 0x01,
  0x00, 0x00, 0xFE, 0xFF, 0xFE, 0x00, 0x00, 0x01, 0x01, 0xFF, 0x01, 0xFF,
  0xFF, 0x00, 0x01, 0xFF, 0x01, 0xFF, 0x01, 0x01, 0x01, 0xFF, 0x01, 0xFF,
  0xFF, 0xFF, 0x01, 0x00, 0xFF, 0x00, 0xFF, 0x01, 0x00, 0x01, 0x01, 0x00,
  0x00, 0x00, 0xFF, 0x00, 0xFF, 0xFE, 0x00, 0x00, 0x01, 0xFF, 0xFF, 0x01,
  0x00, 0x00, 0x01, 0x00, 0x01, 0xFF, 0x00, 0x00, 0x00, 0xFF, 0x00, 0xFE,
  0xFF, 0x00, 0x01, 0x01, 0x00, 0xFF, 0xFF, 0x00, 0x01, 0xFF, 0x01, 0xFF,
  0xFF, 0x01, 0x01, 0x00, 0xFF, 0x01, 0xFE, 0x01, 0x01, 0x00, 0x01, 0xFF,
  0x01, 0xFF, 0x00, 0xFF, 0x00, 0xFF, 0x01, 0x01, 0x01, 0xFF, 0xFF, 0x01,
  0x01, 0xFF, 0x00, 0x00, 0xFF, 0x01, 0x01, 0x01, 0x01, 0x00, 0x01, 0xFF,
  0xFF, 0x00, 0xFF, 0x01, 0x01, 0xFF, 0x01, 0x00, 0xFF, 0xFF, 0x01, 0xFF,
  0x00, 0x01, 0xFF, 0x00, 0xFF, 0x00, 0x01, 0x00, 0x01, 0xFF, 0x00, 0xFF,
  0x00, 0x01, 0xFF, 0xFF, 0x00, 0xFE, 0x01, 0x01, 0x00, 0xFF, 0xFF, 0x00,
  0xFF, 0x01, 0x01, 0xFF, 0x01, 0x01, 0x00, 0xFF, 0x00, 0x00, 0x00, 0xFF,
  0xFF, 0xFF, 0xFF, 0x00, 0xFF, 0xFE, 0xFF, 0x00, 0x00, 0x00, 0x00, 0xFF,
  0x00, 0x01, 0xFF, 0xFF, 0x00, 0x00, 0xFF, 0xFF, 0x01, 0xFF, 0x00, 0xFE,
  0x01, 0x00, 0xFF, 0x01, 0x00, 0xFF, 0x01, 0x00, 0x01, 0x01, 0x00, 0xFF,
  0xFF, 0xFF, 0xFF, 0x00, 0xFF, 0x01, 0xFF, 0xFF, 0x01, 0x00, 0x00, 0xFF,
  0x00, 0xFF, 0x00, 0xFF, 0x00, 0xFF, 0x00, 0xFF, 0x00, 0x00, 0x01, 0x00,
  0xFF, 0xFF, 0xFF, 0x01, 0x00, 0xFF, 0xFF, 0xFF, 0x00, 0xFF, 0x01, 0xFE,
  0x00, 0x00, 0x00, 0x01, 0xFF, 0x01, 0x01, 0xFF, 0xFF, 0x00, 0xFF, 0x00,
  0xFF, 0xFF, 0xFF, 0xFF, 0x01, 0x00, 0xFF, 0xFF, 0xFF, 0xFF, 0xFF, 0x00,
  0xFF, 0x01, 0x01, 0xFF, 0xFF, 0x00, 0x01, 0x01, 0x00, 0xFF, 0x00, 0x00,
  0x01, 0x00, 0x00, 0xFF, 0x00, 0x00, 0xFF, 0xFF, 0x01, 0xFF, 0xFF, 0x00,
  0xFF, 0x01, 0x01, 0x01, 0xFF, 0x00, 0xFF, 0x00, 0x00, 0x00, 0x00, 0xFF,
  0xFF, 0xFF, 0x01, 0xFF, 0x00, 0xFF, 0x00, 0xFF, 0xFF, 0xFF, 0x00, 0xFF,
  0xFF, 0xFF, 0x01, 0x00, 0x01, 0xFF, 0xFF, 0xFF, 0x01, 0x01, 0xFF, 0x00,
  0x00, 0x00, 0x01, 0x01, 0xFF, 0x01, 0xFF, 0x01, 0x00, 0xFF, 0x01, 0x00,
  0x00, 0x00, 0x01, 0x01, 0x01, 0x00, 0x01, 0x01, 0x01, 0x00, 0xFF, 0x01,
  0x00, 0x01, 0xFF, 0x00, 0xFF, 0x01, 0x01, 0x01, 0x00, 0xFF, 0x01, 0xFE,
  0xFF, 0x00, 0x00, 0xFF, 0x00, 0xFF, 0x00, 0x00, 0x01, 0x01, 0xFF, 0xFF,
  0x00, 0x01, 0x00, 0x00, 0x01, 0xFF, 0x01, 0xFF, 0x01, 0xFF, 0x01, 0x00,
  0x01, 0xFF, 0x01, 0xFF, 0x01, 0xFF, 0x01, 0x00, 0xFF, 0xFF, 0x01, 0x00,
  0x00, 0x00, 0x00, 0x01, 0x00, 0xFF, 0x01, 0x00, 0x00, 0x01, 0x01, 0x00,
  0x00, 0x01, 0x00, 0xFF, 0x01, 0x00, 0xFF, 0x01, 0xFF, 0xFF, 0x01, 0x01,
  0x00, 0x01, 0x00, 0x01, 0xFF, 0xFF, 0xFF, 0x00, 0xFF, 0x00, 0x01, 0xFF,
  0x01, 0x00, 0x01, 0xFF, 0x01, 0xFF, 0x00, 0xFF, 0x00, 0x01, 0x00, 0xFF,
  0x01, 0x01, 0x00, 0x00, 0xFF, 0x01, 0x01, 0x01, 0x01, 0xFF, 0xFF, 0xFF,
  0x01, 0x00, 0xFF, 0x00, 0xFF, 0xFE, 0x00, 0xFF, 0x01, 0xFF, 0x01, 0xFF,
  0x00, 0x01, 0x00, 0x00, 0xFE, 0xFF, 0x00, 0x00, 0x00, 0xFF, 0xFE, 0x00,
  0xFF, 0x00, 0xFF, 0x01, 0xFF, 0xFF, 0x00, 0x00, 0xFF, 0x00, 0xFF, 0x00,
  0x00, 0x00, 0x00, 0xFF, 0x00, 0xFF, 0x00, 0xFF, 0xFE, 0x01, 0x01, 0xFE,
  0x01, 0x01, 0xFF, 0x00, 0x01, 0x00, 0x01, 0x00, 0x00, 0xFF, 0x00, 0x01,
  0x01, 0x00, 0x00, 0xFF, 0x00, 0xFF, 0xFF, 0xFF, 0xFF, 0x01, 0x01, 0xFF,
  0xFF, 0xFF, 0x00, 0x01, 0x01, 0x00, 0x00, 0xFF, 0xFF, 0x00, 0x01, 0x00,
  0x00, 0x00, 0xFF, 0xFF, 0x00, 0x00, 0x00, 0xFE, 0x00, 0x00, 0xFF, 0x00,
  0x01, 0xFF, 0x00, 0xFF, 0x00, 0xFF, 0x00, 0x01, 0x01, 0x00, 0x01, 0x00,
  0xFE, 0x00, 0xFF, 0x01, 0x00, 0xFF, 0xFF, 0x00, 0xFF, 0x00, 0x01, 0xFE,
  0xFF, 0x00, 0x00, 0xFF, 0x00, 0xFE, 0x00, 0x00, 0xFF, 0x01, 0x00, 0x01,
  0x00, 0x00, 0xFF, 0x01, 0x00, 0x01, 0xFF, 0x00, 0x01, 0xFF, 0xFF, 0xFE,
  0xFF, 0xFF, 0x01, 0x00, 0x01, 0xFF, 0x01, 0x01, 0xFF, 0xFF, 0xFF, 0x01,
  0x01, 0x00, 0xFF, 0x00, 0x01, 0xFF, 0x01, 0x01, 0x01, 0xFF, 0xFF, 0xFF,
  0x00, 0xFF, 0x00, 0x00, 0xFF, 0x00, 0x01, 0x01, 0x01, 0x01, 0xFF, 0xFF,
  0xFF, 0xFF, 0x00, 0xFF, 0x01, 0x00, 0x01, 0xFF, 0xFF, 0x01, 0xFF, 0xFE,
  0xFF, 0xFF, 0xFF, 0x00, 0x00, 0xFE, 0xFF, 0x00, 0xFF, 0x01, 0xFF, 0x00,
  0x01, 0x01, 0xFF, 0xFF, 0x01, 0xFF, 0x00, 0x00, 0xFF, 0x00, 0xFF, 0xFE,
  0x00, 0x01, 0x01, 0x01, 0x00, 0xFF, 0xFF, 0x00, 0xFF, 0xFF, 0x01, 0x01,
  0x00, 0x01, 0xFF, 0xFF, 0x00, 0x00, 0x00, 0x00, 0x01, 0x00, 0x00, 0x00,
  0x00, 0xFF, 0x01, 0x01, 0x01, 0x00, 0x00, 0xFF, 0x01, 0x00, 0x00, 0xFF,
  0x00, 0xFF, 0x01, 0x01, 0x01, 0x00, 0x01, 0x00, 0x00, 0xFF, 0x00, 0xFF,
  0x01, 0x01, 0x00, 0x01, 0x00, 0xFF, 0x00, 0x00, 0xFF, 0x01, 0xFF, 0x01,
  0x00, 0xFF, 0x01, 0x00, 0x00, 0x00, 0x00, 0x00, 0x00, 0xFF, 0x00, 0x00,
  0xFF, 0x01, 0xFF, 0x01, 0x01, 0x00, 0x00, 0x01, 0x00, 0x01, 0x01, 0x00,
  0x00, 0xFF, 0x01, 0x01, 0xFF, 0x01, 0xFF, 0x01, 0x00, 0x00, 0xFF, 0xFE,
  0x00, 0x01, 0x01, 0x01, 0x01, 0x01, 0xFF, 0x01, 0x00, 0xFF, 0x00, 0xFF,
  0x01, 0xFF, 0x01, 0xFF, 0x01, 0x01, 0xFF, 0x00, 0x01, 0xFF, 0xFF, 0x00,
  0x01, 0x01, 0x00, 0x00, 0xFF, 0x00, 0xFF, 0x00, 0x00, 0x01, 0x01, 0x00,
  0x01, 0x01, 0x01, 0x00, 0x01, 0x00, 0xFF, 0x01, 0xFF, 0x00, 0x01, 0xFF,
  0xFF, 0x01, 0x01, 0x00, 0x00, 0x01, 0x00, 0x00, 0xFF, 0xFF, 0xFF, 0xFF,
  0x01, 0x01, 0x00, 0x00, 0x01, 0x01, 0x00, 0xFF, 0x01, 0xFF, 0x01, 0xFF,
  0xFF, 0xFF, 0x01, 0x01, 0x01, 0x01, 0x00, 0xFF, 0xFF, 0xFF, 0x00, 0x00,
  0x01, 0x01, 0x01, 0x01, 0x00, 0x01, 0x01, 0xFF, 0x00, 0xFF, 0x01, 0x00,
  0x00, 0x01, 0xFF, 0x00, 0x01, 0x00, 0x00, 0x01, 0x00, 0xFF, 0x00, 0x00,
  0x01, 0x01, 0x00, 0xFF, 0x00, 0xFF, 0x00, 0x01, 0x00, 0x00, 0x00, 0xFF,
  0x00, 0x00, 0xFF, 0xFF, 0x01, 0x00, 0x01, 0x00, 0x00, 0x01, 0x00, 0xFF,
  0xFF, 0x01, 0x00, 0x01, 0x00, 0xFF, 0x01, 0x00, 0xFF, 0x00, 0x01, 0xFF,
  0xFF, 0x00, 0x00, 0x01, 0x01, 0xFF, 0x00, 0x00, 0x01, 0xFF, 0x00, 0x00,
  0x00, 0x01, 0xFF, 0x00, 0x01, 0x01, 0x01, 0xFF, 0x00, 0x01, 0xFF, 0x00,
  0xFF, 0x01, 0x00, 0xFF, 0x01, 0xFF, 0x01, 0x00, 0xFF, 0xFF, 0x00, 0xFF,
  0xFF, 0xFF, 0xFF, 0x01, 0x00, 0x00, 0xFE, 0x00, 0x01, 0x00, 0x00, 0x00,
  0x01, 0x01, 0x00, 0x01, 0x01, 0xFF, 0x00, 0xFF, 0x00, 0xFF, 0xFF, 0x01,
  0xFF, 0xFF, 0x00, 0x01, 0x00, 0x01, 0x00, 0x00, 0xFF, 0xFF, 0x00, 0xFE,
  0x00, 0x00, 0x01, 0x00, 0xFF, 0x00, 0x00, 0xFF, 0x00, 0xFF, 0x00, 0x00,
  0x01, 0x01, 0x01, 0x01, 0x00, 0x01, 0x00, 0x01, 0x01, 0xFF, 0x01, 0x00,
  0xFF, 0x00, 0x00, 0x01, 0x01, 0x00, 0xFF, 0x01, 0x01, 0xFF, 0x01, 0xFF,
  0xFF, 0x00, 0x01, 0xFE, 0xFF, 0x00, 0xFF, 0xFF, 0x00, 0x00, 0x01, 0x00,
  0x01, 0xFF, 0xFF, 0xFF, 0x00, 0xFF, 0x01, 0x01, 0xFF, 0xFF, 0x00, 0x00,
  0x00, 0xFF, 0x00, 0x00, 0x00, 0x00, 0x00, 0xFF, 0xFF, 0x01, 0x00, 0x00,
  0x01, 0x01, 0xFF, 0x01, 0x00, 0xFF, 0x00, 0xFF, 0x00, 0x00, 0x01, 0xFF,
  0xFF, 0x01, 0x00, 0xFF, 0x00, 0xFF, 0x01, 0x01, 0x00, 0x00, 0xFF, 0xFF,
  0x00, 0x00, 0x01, 0x01, 0x01, 0xFF, 0x00, 0x01, 0x01, 0xFF, 0x00, 0x00,
  0x00, 0x00, 0xFF, 0xFF, 0x01, 0xFF, 0x01, 0x00, 0xFF, 0xFF, 0xFF, 0x00,
  0x00, 0xFF, 0x01, 0x00, 0x00, 0xFF, 0xFF, 0xFF, 0xFF, 0x00, 0xFF, 0x01,
  0xFF, 0xFF, 0x00, 0x00, 0x01, 0x01, 0x00, 0x00, 0x00, 0x01, 0xFF, 0xFE,
  0xFF, 0xFF, 0xFF, 0x01, 0xFF, 0x00, 0x01, 0x00, 0x00, 0xFF, 0xFF, 0xFF,
  0xFF, 0x01, 0x00, 0xFF, 0x01, 0xFF, 0xFF, 0x01, 0xFF, 0xFF, 0x01, 0x00,
  0x00, 0x00, 0xFF, 0x01, 0xFF, 0xFF, 0x00, 0x00, 0x00, 0xFF, 0xFF, 0xFF,
  0x01, 0x01, 0x01, 0xFF, 0x00, 0xFF, 0xFF, 0x01, 0x00, 0xFF, 0x00, 0x00,
  0x01, 0x01, 0x00, 0x00, 0xFF, 0x00, 0x00, 0xFF, 0xFF, 0x00, 0xFF, 0x00,
  0x00, 0xFF, 0x01, 0x01, 0x00, 0x01, 0x01, 0xFF, 0x01, 0xFF, 0xFF, 0x00,
  0x01, 0x00, 0x01, 0x00, 0x00, 0xFF, 0x00, 0x01, 0xFF, 0xFF, 0xFF, 0xFF,
  0xFF, 0x00, 0x00, 0xFF, 0xFF, 0x00, 0x00, 0x00, 0x00, 0x01, 0xFF, 0x00,
  0x00, 0xFF, 0x00, 0x00, 0xFF, 0xFE, 0x00, 0xFF, 0x01, 0x01, 0xFF, 0x01,
  0x00, 0x01, 0x00, 0x00, 0xFF, 0xFF, 0x01, 0x00, 0xFF, 0x00, 0x00, 0xFF,
  0x01, 0x01, 0x01, 0x00, 0x00, 0x00, 0x00, 0xFF, 0xFF, 0x01, 0x01, 0x01,
  0xFF, 0xFF, 0xFF, 0x01, 0x00, 0x00, 0xFF, 0x00, 0x01, 0x00, 0x00, 0xFF,
  0x00, 0x00, 0xFF, 0xFF, 0xFF, 0xFF, 0xFF, 0x00, 0xFF, 0xFF, 0x00, 0xFF,
  0x01, 0x01, 0xFF, 0x00, 0x01, 0x00, 0x00, 0x00, 0xFF, 0xFF, 0xFF, 0xFF,
  0x00, 0x00, 0xFF, 0x00, 0xFF, 0xFF, 0x00, 0x01, 0xFF, 0x01, 0x01, 0x00,
  0xFF, 0x00, 0x01, 0x01, 0x00, 0xFF, 0x00, 0xFF, 0x01, 0x00, 0x01, 0x00,
  0xFF, 0x01, 0x01, 0x01, 0x01, 0xFF, 0x00, 0x01, 0x01, 0x00, 0x00, 0xFF,
  0x00, 0x00, 0x00, 0xFF, 0x00, 0x01, 0x01, 0x01, 0x01, 0x00, 0x00, 0xFE,
  0x01, 0xFF, 0x01, 0x01, 0xFF, 0xFF, 0xFF, 0x00, 0xFF, 0x00, 0xFF, 0xFF,
  0xFF, 0x01, 0xFF, 0x00, 0x01, 0x00, 0xFF, 0xFF, 0x01, 0x00, 0xFF, 0xFF,
  0x00, 0xFF, 0xFF, 0xFF, 0x00, 0xFF, 0xFF, 0x00, 0xFF, 0x01, 0xFF, 0x00,
  0xFF, 0x00, 0x01, 0x00, 0x00, 0x00, 0x00, 0x00, 0x01, 0x01, 0x00, 0x00,
  0xFF, 0xFF, 0x00, 0x01, 0x01, 0xFF, 0xFF, 0x01, 0x00, 0x01, 0x01, 0xFF,
  0x01, 0x00, 0x01, 0x00, 0x01, 0x00, 0x00, 0x00, 0x01, 0x00, 0xFF, 0xFF,
  0xFF, 0x01, 0xFF, 0x00, 0x00, 0xFF, 0x00, 0x01, 0x01, 0x00, 0x01, 0x00,
  0xFF, 0xFF, 0x00, 0xFF, 0xFF, 0x00, 0xFF, 0xFF, 0xFF, 0xFF, 0x00, 0x00,
