// Auto-generated on 2026-05-12
// Model: drone_model_qat_int8.tflite  |  Quantization: INT8 QAT  |  Size: 75904 bytes
#ifndef TF_DRONE_MODEL_QAT_H
#define TF_DRONE_MODEL_QAT_H
#include <stdint.h>
#include <stdalign.h>

alignas(16) const uint8_t tf_drone_model_qat[] = {
  0x20, 0x00, 0x00, 0x00, 0x54, 0x46, 0x4C, 0x33, 0x00, 0x00, 0x00, 0x00,
  0x14, 0x00, 0x20, 0x00, 0x1C, 0x00, 0x18, 0x00, 0x14, 0x00, 0x10, 0x00,
  0x0C, 0x00, 0x00, 0x00, 0x08, 0x00, 0x04, 0x00, 0x14, 0x00, 0x00, 0x00,
  0x1C, 0x00, 0x00, 0x00, 0xD8, 0x00, 0x00, 0x00, 0x58, 0x01, 0x00, 0x00,
  0x40, 0x0A, 0x01, 0x00, 0x50, 0x0A, 0x01, 0x00, 0xCC, 0x27, 0x01, 0x00,
  0x03, 0x00, 0x00, 0x00, 0x01, 0x00, 0x00, 0x00, 0x04, 0x00, 0x00, 0x00,
  0xFA, 0xF2, 0xFE, 0xFF, 0x0C, 0x00, 0x00, 0x00, 0x1C, 0x00, 0x00, 0x00,
  0x64, 0x00, 0x00, 0x00, 0x0F, 0x00, 0x00, 0x00, 0x73, 0x65, 0x72, 0x76,
  0x69, 0x6E, 0x67, 0x5F, 0x64, 0x65, 0x66, 0x61, 0x75, 0x6C, 0x74, 0x00,
  0x02, 0x00, 0x00, 0x00, 0x28, 0x00, 0x00, 0x00, 0x04, 0x00, 0x00, 0x00,
  0x20, 0xFF, 0xFF, 0xFF, 0x25, 0x00, 0x00, 0x00, 0x04, 0x00, 0x00, 0x00,
  0x0F, 0x00, 0x00, 0x00, 0x71, 0x75, 0x61, 0x6E, 0x74, 0x5F, 0x63, 0x6C,
  0x61, 0x73, 0x73, 0x5F, 0x6F, 0x75, 0x74, 0x00, 0x40, 0xFF, 0xFF, 0xFF,
  0x17, 0x00, 0x00, 0x00, 0x04, 0x00, 0x00, 0x00, 0x0E, 0x00, 0x00, 0x00,
  0x71, 0x75, 0x61, 0x6E, 0x74, 0x5F, 0x62, 0x62, 0x6F, 0x78, 0x5F, 0x6F,
  0x75, 0x74, 0x00, 0x00, 0x02, 0x00, 0x00, 0x00, 0x28, 0x00, 0x00, 0x00,
  0x04, 0x00, 0x00, 0x00, 0x6C, 0xFF, 0xFF, 0xFF, 0x01, 0x00, 0x00, 0x00,
  0x04, 0x00, 0x00, 0x00, 0x0C, 0x00, 0x00, 0x00, 0x69, 0x6D, 0x61, 0x67,
  0x65, 0x32, 0x5F, 0x69, 0x6E, 0x70, 0x75, 0x74, 0x00, 0x00, 0x00, 0x00,
  0x9A, 0xF6, 0xFE, 0xFF, 0x04, 0x00, 0x00, 0x00, 0x0C, 0x00, 0x00, 0x00,
  0x69, 0x6D, 0x61, 0x67, 0x65, 0x31, 0x5F, 0x69, 0x6E, 0x70, 0x75, 0x74,
  0x00, 0x00, 0x00, 0x00, 0x03, 0x00, 0x00, 0x00, 0x5C, 0x00, 0x00, 0x00,
  0x2C, 0x00, 0x00, 0x00, 0x04, 0x00, 0x00, 0x00, 0xB8, 0xFF, 0xFF, 0xFF,
  0x29, 0x00, 0x00, 0x00, 0x04, 0x00, 0x00, 0x00, 0x13, 0x00, 0x00, 0x00,
  0x43, 0x4F, 0x4E, 0x56, 0x45, 0x52, 0x53, 0x49, 0x4F, 0x4E, 0x5F, 0x4D,
  0x45, 0x54, 0x41, 0x44, 0x41, 0x54, 0x41, 0x00, 0xDC, 0xFF, 0xFF, 0xFF,
  0x28, 0x00, 0x00, 0x00, 0x04, 0x00, 0x00, 0x00, 0x13, 0x00, 0x00, 0x00,
  0x6D, 0x69, 0x6E, 0x5F, 0x72, 0x75, 0x6E, 0x74, 0x69, 0x6D, 0x65, 0x5F,
  0x76, 0x65, 0x72, 0x73, 0x69, 0x6F, 0x6E, 0x00, 0x08, 0x00, 0x0C, 0x00,
  0x08, 0x00, 0x04, 0x00, 0x08, 0x00, 0x00, 0x00, 0x27, 0x00, 0x00, 0x00,
  0x04, 0x00, 0x00, 0x00, 0x13, 0x00, 0x00, 0x00, 0x6D, 0x69, 0x6E, 0x5F,
  0x72, 0x75, 0x6E, 0x74, 0x69, 0x6D, 0x65, 0x5F, 0x76, 0x65, 0x72, 0x73,
  0x69, 0x6F, 0x6E, 0x00, 0x2A, 0x00, 0x00, 0x00, 0xE4, 0x08, 0x01, 0x00,
  0xDC, 0x08, 0x01, 0x00, 0xD4, 0x08, 0x01, 0x00, 0xBC, 0x08, 0x01, 0x00,
  0x9C, 0x08, 0x01, 0x00, 0x10, 0x07, 0x01, 0x00, 0x58, 0x06, 0x01, 0x00,
  0x50, 0x06, 0x01, 0x00, 0x88, 0xF4, 0x00, 0x00, 0x48, 0xF4, 0x00, 0x00,
  0x40, 0xF4, 0x00, 0x00, 0x38, 0xF4, 0x00, 0x00, 0x28, 0x13, 0x00, 0x00,
  0xD8, 0x12, 0x00, 0x00, 0xD0, 0x12, 0x00, 0x00, 0xC0, 0x11, 0x00, 0x00,
  0x70, 0x11, 0x00, 0x00, 0x68, 0x11, 0x00, 0x00, 0xD8, 0x10, 0x00, 0x00,
  0xA8, 0x10, 0x00, 0x00, 0xA0, 0x10, 0x00, 0x00, 0x70, 0x10, 0x00, 0x00,
  0x50, 0x10, 0x00, 0x00, 0x48, 0x10, 0x00, 0x00, 0x40, 0x10, 0x00, 0x00,
  0x38, 0x10, 0x00, 0x00, 0x28, 0x0D, 0x00, 0x00, 0x18, 0x0C, 0x00, 0x00,
  0x10, 0x0C, 0x00, 0x00, 0x00, 0x04, 0x00, 0x00, 0x70, 0x03, 0x00, 0x00,
  0x68, 0x03, 0x00, 0x00, 0x58, 0x01, 0x00, 0x00, 0x08, 0x01, 0x00, 0x00,
  0x00, 0x01, 0x00, 0x00, 0xE0, 0x00, 0x00, 0x00, 0xCC, 0x00, 0x00, 0x00,
  0xC4, 0x00, 0x00, 0x00, 0xBC, 0x00, 0x00, 0x00, 0x9C, 0x00, 0x00, 0x00,
  0x7C, 0x00, 0x00, 0x00, 0x04, 0x00, 0x00, 0x00, 0xE6, 0xF7, 0xFE, 0xFF,
  0x04, 0x00, 0x00, 0x00, 0x68, 0x00, 0x00, 0x00, 0x10, 0x00, 0x00, 0x00,
  0x00, 0x00, 0x00, 0x00, 0x08, 0x00, 0x0E, 0x00, 0x08, 0x00, 0x04, 0x00,
  0x08, 0x00, 0x00, 0x00, 0x10, 0x00, 0x00, 0x00, 0x2C, 0x00, 0x00, 0x00,
  0x00, 0x00, 0x06, 0x00, 0x08, 0x00, 0x04, 0x00, 0x06, 0x00, 0x00, 0x00,
  0x04, 0x00, 0x00, 0x00, 0x02, 0x00, 0x00, 0x00, 0xEB, 0x03, 0x00, 0x00,
  0xD0, 0x07, 0x00, 0x00, 0x0C, 0x00, 0x18, 0x00, 0x14, 0x00, 0x10, 0x00,
  0x0C, 0x00, 0x04, 0x00, 0x0C, 0x00, 0x00, 0x00, 0x0C, 0xCD, 0xC6, 0x4D,
  0x37, 0x98, 0x30, 0x6E, 0x02, 0x00, 0x00, 0x00, 0x02, 0x00, 0x00, 0x00,
  0x04, 0x00, 0x00, 0x00, 0x06, 0x00, 0x00, 0x00, 0x32, 0x2E, 0x31, 0x39,
  0x2E, 0x30, 0x00, 0x00, 0x5A, 0xF8, 0xFE, 0xFF, 0x04, 0x00, 0x00, 0x00,
  0x10, 0x00, 0x00, 0x00, 0x00, 0x00, 0x00, 0x00, 0x00, 0x00, 0x00, 0x00,
  0x00, 0x00, 0x00, 0x00, 0x00, 0x00, 0x00, 0x00, 0x76, 0xF8, 0xFE, 0xFF,
  0x04, 0x00, 0x00, 0x00, 0x10, 0x00, 0x00, 0x00, 0x31, 0x2E, 0x31, 0x34,
  0x2E, 0x30, 0x00, 0x00, 0x00, 0x00, 0x00, 0x00, 0x00, 0x00, 0x00, 0x00,
  0x18, 0xDB, 0xFE, 0xFF, 0x1C, 0xDB, 0xFE, 0xFF, 0x9A, 0xF8, 0xFE, 0xFF,
  0x04, 0x00, 0x00, 0x00, 0x04, 0x00, 0x00, 0x00, 0x4A, 0x00, 0x00, 0x00,
  0xAA, 0xF8, 0xFE, 0xFF, 0x04, 0x00, 0x00, 0x00, 0x10, 0x00, 0x00, 0x00,
  0xFD, 0xE5, 0xAE, 0x01, 0xC6, 0xA3, 0xA1, 0xAA, 0x55, 0x18, 0xD4, 0x1A,
  0x8D, 0xB6, 0x20, 0x81, 0x4C, 0xDB, 0xFE, 0xFF, 0xCA, 0xF8, 0xFE, 0xFF,
  0x04, 0x00, 0x00, 0x00, 0x40, 0x00, 0x00, 0x00, 0xAF, 0xFF, 0xFF, 0xFF,
  0x7B, 0xFF, 0xFF, 0xFF, 0xCB, 0x01, 0x00, 0x00, 0x51, 0xFF, 0xFF, 0xFF,
  0xC0, 0x01, 0x00, 0x00, 0x3D, 0x01, 0x00, 0x00, 0x42, 0x01, 0x00, 0x00,
  0x04, 0x01, 0x00, 0x00, 0x60, 0x01, 0x00, 0x00, 0x9A, 0xFF, 0xFF, 0xFF,
  0x9C, 0x00, 0x00, 0x00, 0xBB, 0xFF, 0xFF, 0xFF, 0x33, 0x01, 0x00, 0x00,
  0x5D, 0x00, 0x00, 0x00, 0xE0, 0xFF, 0xFF, 0xFF, 0x2B, 0x00, 0x00, 0x00,
  0x16, 0xF9, 0xFE, 0xFF, 0x04, 0x00, 0x00, 0x00, 0x00, 0x02, 0x00, 0x00,
  0x0C, 0x08, 0xF3, 0xE6, 0xFE, 0x07, 0x04, 0xE9, 0x1D, 0x0D, 0x18, 0xFD,
  0xE9, 0xEF, 0x02, 0xFD, 0x04, 0xF2, 0x19, 0xF7, 0x09, 0x09, 0x09, 0xFC,
  0x10, 0xDE, 0xF6, 0xE5, 0xED, 0xFA, 0x15, 0xE8, 0x5B, 0x17, 0xF2, 0x3F,
  0xFB, 0xF7, 0x13, 0xED, 0x15, 0x22, 0xE4, 0x3E, 0xE2, 0xDC, 0x00, 0x46,
  0xDB, 0x16, 0x1C, 0x0A, 0x13, 0x1B, 0xB3, 0xE3, 0xE8, 0x0C, 0xF9, 0x1A,
  0xF2, 0xFA, 0x1C, 0x32, 0x1B, 0x01, 0xE9, 0x03, 0x08, 0xFD, 0xDE, 0x12,
  0xF8, 0x2C, 0xF7, 0x0C, 0x0A, 0x25, 0xD6, 0x31, 0xD7, 0xF5, 0x31, 0x18,
  0x1D, 0xEF, 0xAE, 0xE1, 0xF7, 0x06, 0x15, 0x03, 0x05, 0xFD, 0xF5, 0x21,
  0x0F, 0x19, 0x13, 0x04, 0xE3, 0x14, 0xEB, 0xE6, 0xF5, 0xF1, 0xE3, 0xFC,
  0x0C, 0xE4, 0xFD, 0xF7, 0xE2, 0xFA, 0xF7, 0x0C, 0x11, 0xF4, 0x08, 0xF3,
  0x11, 0xE3, 0x1A, 0x03, 0xE2, 0xF7, 0x19, 0x17, 0x26, 0xE6, 0xFF, 0x15,
  0xF8, 0x2F, 0xE5, 0x0A, 0xFF, 0x35, 0xEE, 0x1F, 0x15, 0x16, 0xD7, 0x39,
  0xF6, 0x16, 0xF7, 0x0B, 0x1E, 0xED, 0xBE, 0x06, 0x1C, 0x00, 0x04, 0xEA,
  0x13, 0xF1, 0xEF, 0x11, 0x6D, 0x0B, 0x13, 0x0B, 0x0C, 0xFB, 0x1E, 0x11,
  0x0F, 0x07, 0x92, 0x05, 0x01, 0x22, 0xF7, 0x12, 0x0C, 0xF3, 0xF5, 0xE6,
  0xED, 0xAE, 0x17, 0x1F, 0x0A, 0xF5, 0xE4, 0xA5, 0xE4, 0x18, 0xB3, 0x5D,
  0x66, 0xEE, 0x12, 0x2A, 0xFA, 0xFC, 0x1F, 0x0B, 0x1C, 0x0E, 0x89, 0x0A,
  0x15, 0xFB, 0xFD, 0xFC, 0xF9, 0x20, 0x08, 0xEB, 0x1C, 0xA4, 0x03, 0x03,
  0xF2, 0x02, 0x00, 0xB9, 0x03, 0x1A, 0xB6, 0x70, 0x3D, 0x16, 0xEE, 0x0A,
  0x14, 0x3E, 0x17, 0xF9, 0x12, 0x31, 0xDA, 0x31, 0x0A, 0x12, 0xCB, 0x18,
  0xFB, 0x1E, 0x35, 0xEC, 0x18, 0xC6, 0xD8, 0x0F, 0x1B, 0x0F, 0xEF, 0xDB,
  0xED, 0x18, 0xBC, 0x36, 0x8B, 0xF9, 0x18, 0xBE, 0xFB, 0xE5, 0x1D, 0xEE,
  0x11, 0xED, 0x1C, 0xC6, 0x1A, 0x3C, 0x42, 0xE3, 0x40, 0x3D, 0xF7, 0xE8,
  0xE2, 0xF6, 0x05, 0xF9, 0x07, 0xEB, 0x12, 0x15, 0x09, 0x02, 0x1D, 0x8F,
  0x10, 0x1F, 0xFB, 0x14, 0xF2, 0x18, 0xEF, 0xF8, 0xF6, 0xE4, 0xFD, 0xF0,
  0x1F, 0x09, 0x13, 0xE7, 0xE5, 0x04, 0x03, 0xE5, 0xEF, 0xE2, 0x16, 0x14,
  0xFD, 0xE0, 0x1B, 0x08, 0xED, 0xE5, 0x08, 0xE5, 0x14, 0x0D, 0xEA, 0x13,
  0x11, 0x36, 0xFE, 0xF4, 0x1B, 0xF9, 0xEA, 0xFD, 0xF6, 0x18, 0xF6, 0x23,
  0x13, 0xF1, 0x17, 0x19, 0xF3, 0xDA, 0xE1, 0xF1, 0xFF, 0x0F, 0x09, 0xCF,
  0xF9, 0xF9, 0xCC, 0x25, 0xE4, 0x03, 0xE3, 0x09, 0x07, 0xF5, 0x10, 0xF9,
  0xF4, 0xDE, 0x1C, 0x09, 0x0A, 0xE7, 0xE0, 0xFC, 0xE6, 0x0D, 0xEA, 0xFF,
  0x03, 0xFB, 0x03, 0xFC, 0x0F, 0x1D, 0xF6, 0xFA, 0x0F, 0xE5, 0xDF, 0xE9,
  0x6F, 0xEB, 0x06, 0x00, 0xE3, 0x02, 0x17, 0xF4, 0xF3, 0x14, 0xB0, 0x0E,
  0x0E, 0x1F, 0xD7, 0x03, 0x19, 0xFE, 0xDD, 0x19, 0xF4, 0xBB, 0xF2, 0x10,
  0x0B, 0xFE, 0x16, 0x91, 0xF0, 0x16, 0xA9, 0x7F, 0x68, 0x09, 0xF5, 0xEA,
  0xFE, 0x0A, 0xF6, 0xE1, 0xF1, 0x15, 0xDB, 0x0B, 0x07, 0xFA, 0xE0, 0xE5,
  0x0A, 0x26, 0xE1, 0xDE, 0xFC, 0x9C, 0xF1, 0x0F, 0xE7, 0xF7, 0xED, 0xBD,
  0x1B, 0xF7, 0xCF, 0x54, 0xE5, 0x06, 0xE7, 0xEF, 0xEF, 0x07, 0x1A, 0x14,
  0xF4, 0xE3, 0x0D, 0x05, 0xF0, 0x1E, 0x17, 0x06, 0xE7, 0xE7, 0x13, 0x02,
  0x06, 0xE4, 0x05, 0x0D, 0x17, 0xE2, 0xE3, 0xEB, 0x1C, 0xE5, 0xEE, 0x0B,
  0x5C, 0x19, 0x0A, 0xF1, 0x08, 0xE4, 0x15, 0x02, 0xE2, 0x11, 0xA2, 0x02,
  0xFE, 0x25, 0xF3, 0xF6, 0x1E, 0x04, 0xF1, 0xEB, 0x0E, 0x8A, 0xDB, 0x0C,
  0x01, 0xE3, 0xE9, 0x99, 0xFD, 0xF1, 0xBC, 0x49, 0xA8, 0xDD, 0xFE, 0xFF,
  0x26, 0xFB, 0xFE, 0xFF, 0x04, 0x00, 0x00, 0x00, 0x80, 0x00, 0x00, 0x00,
  0x44, 0x02, 0x00, 0x00, 0x68, 0xFF, 0xFF, 0xFF, 0xE6, 0xFF, 0xFF, 0xFF,
  0x6D, 0xFF, 0xFF, 0xFF, 0x30, 0xFF, 0xFF, 0xFF, 0xE4, 0x00, 0x00, 0x00,
  0x1C, 0xFF, 0xFF, 0xFF, 0x52, 0xFF, 0xFF, 0xFF, 0x31, 0xFF, 0xFF, 0xFF,
  0xF2, 0x01, 0x00, 0x00, 0xC6, 0xFE, 0xFF, 0xFF, 0xB7, 0xFF, 0xFF, 0xFF,
  0xBF, 0xFF, 0xFF, 0xFF, 0x67, 0x07, 0x00, 0x00, 0x6D, 0x00, 0x00, 0x00,
  0x9C, 0x01, 0x00, 0x00, 0x8A, 0x05, 0x00, 0x00, 0xC4, 0x08, 0x00, 0x00,
  0xC0, 0x04, 0x00, 0x00, 0x42, 0xFF, 0xFF, 0xFF, 0xE5, 0x00, 0x00, 0x00,
  0x3E, 0xFE, 0xFF, 0xFF, 0x08, 0xFC, 0xFF, 0xFF, 0xE2, 0xFE, 0xFF, 0xFF,
  0x69, 0xFF, 0xFF, 0xFF, 0x1F, 0xFF, 0xFF, 0xFF, 0x1F, 0xFF, 0xFF, 0xFF,
  0x07, 0xFF, 0xFF, 0xFF, 0x03, 0xFF, 0xFF, 0xFF, 0xE3, 0xFE, 0xFF, 0xFF,
  0x58, 0xFF, 0xFF, 0xFF, 0x0F, 0x03, 0x00, 0x00, 0xB2, 0xFB, 0xFE, 0xFF,
  0x04, 0x00, 0x00, 0x00, 0x00, 0x08, 0x00, 0x00, 0x17, 0x08, 0xFB, 0x09,
  0x05, 0xF2, 0xEE, 0x12, 0x03, 0x87, 0xF0, 0x82, 0x21, 0x05, 0x15, 0xFE,
  0xFA, 0xF9, 0x13, 0xDF, 0xF8, 0xFE, 0xFB, 0x02, 0x0E, 0x02, 0xF3, 0xF7,
  0xFC, 0x85, 0x0E, 0x08, 0xF2, 0x0B, 0x01, 0xB5, 0xF6, 0xFD, 0x09, 0x09,
  0xF1, 0xF9, 0x04, 0x05, 0x0E, 0x03, 0x0E, 0x00, 0xF6, 0xF2, 0xF1, 0x8B,
  0x0D, 0xFF, 0x08, 0x06, 0x0A, 0x9A, 0x12, 0x01, 0xF0, 0x86, 0x14, 0xF0,
  0x0E, 0xF4, 0x0E, 0xEF, 0xFD, 0xF6, 0xF7, 0x0E, 0xEE, 0x01, 0xF3, 0xF9,
  0x00, 0xF1, 0x0A, 0xED, 0xEF, 0x00, 0xF0, 0x12, 0x04, 0xF7, 0x00, 0xED,
  0x00, 0x0D, 0x0E, 0x02, 0x01, 0x03, 0xFB, 0x00, 0xF7, 0xF8, 0xF9, 0xFB,
  0xF8, 0xFA, 0x09, 0xF1, 0x13, 0xFE, 0x02, 0x02, 0x07, 0x09, 0x06, 0x0A,
  0x10, 0xF1, 0xF0, 0x0E, 0x0D, 0xF4, 0xEE, 0xFA, 0xF0, 0xED, 0x03, 0xF7,
  0xF2, 0xFF, 0xED, 0x11, 0xFD, 0x09, 0xF1, 0xEE, 0xFF, 0xF9, 0xEC, 0x02,
  0xFD, 0x0C, 0xF8, 0x00, 0x04, 0xF6, 0xF1, 0xFD, 0x0C, 0xFA, 0xEE, 0xFB,
  0xF5, 0xF4, 0x02, 0xFB, 0xF4, 0x09, 0xF3, 0x0D, 0x07, 0x00, 0x00, 0xF6,
  0x02, 0xF2, 0xFB, 0xEF, 0x05, 0xEB, 0x0D, 0x06, 0xED, 0xEE, 0xFF, 0x0F,
  0xF3, 0xF5, 0xF9, 0xF4, 0x09, 0x10, 0xEE, 0x01, 0xF3, 0x02, 0xFF, 0x0E,
  0x10, 0x06, 0x10, 0xF3, 0xF2, 0xEE, 0xED, 0xF2, 0x13, 0x00, 0x0A, 0xE5,
  0x48, 0x30, 0xEC, 0xFC, 0x0F, 0x17, 0xF0, 0x25, 0x38, 0xEE, 0xFF, 0x0C,
  0x0D, 0x16, 0xF9, 0x1D, 0x0B, 0xF7, 0xFF, 0x00, 0xF0, 0x13, 0xEC, 0x04,
  0xEC, 0x1A, 0x07, 0x13, 0x01, 0x06, 0xEE, 0x03, 0xF7, 0xFA, 0xFD, 0xF0,
  0xEC, 0xF6, 0xDF, 0xFA, 0xF5, 0xF5, 0x0E, 0x39, 0x04, 0xFC, 0x2D, 0x08,
  0x0D, 0xFE, 0xFB, 0xF5, 0xF7, 0x0D, 0x01, 0x01, 0x0F, 0x05, 0xF8, 0xF2,
  0xF2, 0x15, 0xF3, 0x02, 0xF4, 0x03, 0xED, 0xF1, 0xF1, 0x0A, 0xF5, 0x09,
  0x01, 0x0B, 0x0B, 0xEC, 0x08, 0x03, 0x06, 0xEF, 0x12, 0xF7, 0x07, 0xF4,
  0xF1, 0xEC, 0xF4, 0x06, 0xF8, 0xED, 0x08, 0x09, 0x02, 0xF8, 0xEB, 0xFA,
  0x00, 0xF9, 0xFB, 0x10, 0x13, 0xFA, 0x01, 0xFC, 0xF3, 0xEC, 0xF6, 0xEF,
  0x12, 0xF5, 0xF2, 0x01, 0x04, 0x0D, 0xF3, 0xEB, 0xED, 0x0B, 0x00, 0xFD,
  0xF3, 0x0E, 0x05, 0xF2, 0x02, 0x03, 0x03, 0xF8, 0x02, 0x07, 0x02, 0x10,
  0xF4, 0x07, 0xEC, 0xFB, 0x17, 0xF9, 0xFA, 0xF8, 0xEE, 0x0A, 0xFA, 0xF6,
  0x1A, 0xED, 0x05, 0xFB, 0x00, 0xF7, 0xF0, 0xF3, 0x06, 0xF6, 0xFC, 0x07,
  0x0F, 0x11, 0x0E, 0x05, 0xFF, 0xFC, 0xEF, 0x08, 0x05, 0x05, 0xFB, 0x05,
  0x06, 0x0A, 0x02, 0x17, 0x00, 0x0C, 0x16, 0xF6, 0xFD, 0xED, 0x0C, 0xFB,
  0xEC, 0x0D, 0x0F, 0x01, 0x34, 0x0A, 0x0A, 0xFC, 0x08, 0x03, 0x07, 0xF7,
  0xEB, 0x12, 0x14, 0xF8, 0x07, 0x07, 0xF1, 0x09, 0x01, 0x08, 0xF4, 0x0E,
  0x0D, 0xFB, 0xFE, 0xFA, 0x08, 0x06, 0x10, 0x0B, 0x01, 0x07, 0x03, 0xED,
  0xEE, 0x09, 0x08, 0x08, 0x05, 0xF5, 0xF7, 0xE1, 0xF6, 0x09, 0x02, 0x06,
  0x0D, 0xF7, 0xFC, 0xFF, 0x0D, 0x0A, 0x0F, 0x02, 0xF3, 0x0C, 0xFC, 0x0B,
  0xF9, 0x06, 0x11, 0x09, 0xF5, 0x02, 0x04, 0x01, 0x09, 0xF8, 0xF5, 0xEE,
  0x13, 0x07, 0xF8, 0x0F, 0xFD, 0xF3, 0x11, 0xEE, 0x00, 0x0A, 0x11, 0xED,
  0xEE, 0x04, 0xF3, 0xEF, 0x0D, 0x06, 0x0D, 0xF5, 0x07, 0xFF, 0xFF, 0x04,
  0x0D, 0x09, 0xF1, 0x02, 0x0A, 0xED, 0xFA, 0x04, 0x0D, 0x13, 0x07, 0x10,
  0xFE, 0xFC, 0xF7, 0x14, 0xFE, 0x06, 0xFA, 0x09, 0x0A, 0xF8, 0xF7, 0xEC,
  0xF6, 0x0B, 0x00, 0xEE, 0x0A, 0xFB, 0xF6, 0x09, 0x0E, 0xF4, 0x0D, 0x10,
  0xF6, 0xF6, 0xF1, 0x12, 0x12, 0xF4, 0xF8, 0xF6, 0x09, 0xED, 0x06, 0xFC,
  0x0B, 0xEA, 0x09, 0xF4, 0xF1, 0xF6, 0x06, 0x0D, 0x0B, 0x05, 0xFC, 0xED,
  0xF3, 0xF0, 0xFF, 0xF3, 0xFE, 0x06, 0x0D, 0x08, 0x12, 0xEC, 0x0A, 0x00,
  0xEF, 0xEC, 0xFA, 0xF3, 0x06, 0xFB, 0x0F, 0x04, 0x04, 0xEF, 0x10, 0x0A,
  0xFC, 0xF4, 0xED, 0xFC, 0x0A, 0x0C, 0xF1, 0xF3, 0xEB, 0x0E, 0x0D, 0xFC,
  0x0A, 0x0E, 0x0F, 0xEF, 0x08, 0xFC, 0xFE, 0x04, 0x02, 0x11, 0xF9, 0xFE,
  0x12, 0x10, 0x07, 0x0A, 0x02, 0xF5, 0xEC, 0xF4, 0x0F, 0xEE, 0xFF, 0xED,
  0x09, 0xF0, 0xF0, 0x0F, 0x16, 0xF8, 0x00, 0x10, 0x0A, 0xEF, 0x00, 0x06,
  0x0E, 0x00, 0x13, 0x0F, 0xF6, 0x11, 0xEC, 0xE4, 0x06, 0x0A, 0xED, 0x07,
  0xF7, 0xEE, 0xF1, 0xEE, 0x03, 0xF1, 0x06, 0x17, 0xED, 0xEF, 0xFE, 0xE2,
  0xF9, 0x03, 0x0A, 0x0F, 0x0B, 0x05, 0x16, 0x0D, 0x15, 0xF7, 0xFD, 0xFD,
  0xFF, 0x11, 0xFD, 0xFA, 0xD4, 0xF4, 0xF8, 0x12, 0x04, 0x4B, 0x01, 0x3E,
  0xCA, 0xF3, 0xEC, 0x05, 0xFA, 0xFD, 0x02, 0xFC, 0x10, 0x02, 0x0D, 0x11,
  0xFA, 0x0E, 0x09, 0xEE, 0x08, 0x4E, 0xFE, 0x1A, 0xF4, 0xF7, 0x29, 0x51,
  0x01, 0xED, 0xFB, 0xF8, 0x14, 0xFD, 0x0D, 0x0F, 0xED, 0x0E, 0x03, 0xE5,
  0x00, 0x01, 0xED, 0x59, 0x00, 0xF6, 0x13, 0x0F, 0xF6, 0x3F, 0xE1, 0xEE,
  0x01, 0x4B, 0x01, 0xF7, 0x0A, 0x03, 0x12, 0xE7, 0x41, 0x34, 0x06, 0x02,
  0x01, 0x0E, 0x0A, 0x18, 0x30, 0xF8, 0x06, 0x12, 0xFB, 0x0D, 0x0B, 0x0E,
  0xF7, 0x10, 0x02, 0xF4, 0xFB, 0x0F, 0xEF, 0x09, 0x06, 0x08, 0x16, 0x06,
  0x0D, 0x07, 0xEB, 0x1E, 0xFA, 0xF7, 0xED, 0xFC, 0x00, 0x02, 0xEF, 0x0B,
  0x0D, 0x13, 0xFB, 0x46, 0xF8, 0x0F, 0x0A, 0x07, 0xFB, 0xEF, 0xFD, 0x11,
  0x08, 0x21, 0x05, 0xF4, 0x26, 0x22, 0x07, 0x00, 0xEC, 0x06, 0xF0, 0xEB,
  0xEE, 0xF0, 0x02, 0xF2, 0xEF, 0xF3, 0xF8, 0xED, 0x0F, 0x03, 0xFF, 0x13,
  0xFD, 0xF7, 0x0A, 0x0F, 0xEC, 0x06, 0xFC, 0xEC, 0x00, 0xFA, 0xFB, 0x12,
  0x09, 0x0C, 0xF8, 0x04, 0xEE, 0xF4, 0xFD, 0xED, 0x11, 0xEF, 0xEE, 0x12,
  0x05, 0x01, 0x0E, 0x04, 0x03, 0x10, 0xED, 0x06, 0x04, 0xF6, 0x07, 0xFD,
  0x0B, 0xF9, 0xEE, 0x04, 0x0B, 0x05, 0x06, 0x13, 0x05, 0x12, 0x0B, 0xF4,
  0x14, 0x00, 0x12, 0x31, 0xC4, 0xE7, 0xFB, 0xF1, 0x0F, 0xF4, 0x07, 0xF6,
  0xCF, 0x0F, 0x1C, 0xF9, 0xF3, 0x15, 0xEF, 0xE6, 0xF1, 0x09, 0x03, 0x0F,
  0xEE, 0xF0, 0x00, 0xEE, 0x0D, 0xFC, 0x20, 0x2E, 0xF5, 0xEF, 0x0F, 0x02,
  0x13, 0x02, 0xFF, 0xF8, 0xFD, 0xF5, 0x20, 0x0D, 0x00, 0x03, 0xEC, 0xC8,
  0xF8, 0x0E, 0xC1, 0xFF, 0xF0, 0x09, 0xFC, 0x00, 0xFB, 0x05, 0x04, 0x10,
  0xFE, 0x05, 0xED, 0xF4, 0x01, 0x0A, 0xEF, 0x1E, 0xDC, 0xD8, 0x00, 0xFA,
  0x10, 0x19, 0xFA, 0x18, 0xCE, 0xFE, 0x07, 0xF3, 0x06, 0xD5, 0xF9, 0xF6,
  0x07, 0x0E, 0xFA, 0x05, 0x09, 0x08, 0x08, 0x0C, 0xEF, 0x20, 0x20, 0x1B,
  0xFB, 0x00, 0x23, 0x26, 0xEB, 0x0C, 0x06, 0x04, 0x06, 0xF5, 0x10, 0xEE,
  0x09, 0x00, 0x0B, 0xC3, 0x11, 0xFF, 0xE2, 0x34, 0x10, 0xF0, 0xF3, 0xF8,
  0x0B, 0x0F, 0xE8, 0x04, 0xD6, 0x38, 0x06, 0x03, 0x03, 0xF7, 0xF9, 0x0C,
  0x32, 0x21, 0xF7, 0xF9, 0x13, 0xDA, 0x02, 0x00, 0x13, 0x0D, 0x19, 0xEE,
  0x0A, 0xF8, 0xF4, 0x14, 0x0A, 0xF0, 0xFA, 0xF6, 0xFA, 0x09, 0x0E, 0xEE,
  0x09, 0xDE, 0x0E, 0x0C, 0xF3, 0x0B, 0x00, 0xF6, 0xEA, 0xF4, 0x0C, 0xF7,
  0x0E, 0x09, 0xF0, 0x0D, 0xFD, 0x06, 0x08, 0x2F, 0x0D, 0xF3, 0x27, 0xF6,
  0x11, 0xED, 0xF6, 0x11, 0x0A, 0xDF, 0x04, 0xFC, 0x09, 0xE2, 0xFF, 0xFF,
  0xF8, 0xFC, 0xF2, 0x34, 0xBA, 0xCE, 0x06, 0x0D, 0x0A, 0x0E, 0xF5, 0xFD,
  0xB2, 0xF1, 0x1C, 0x06, 0x07, 0xCC, 0xF9, 0xEB, 0x0D, 0xF5, 0xED, 0xED,
  0xEC, 0xF0, 0xF5, 0x03, 0xF1, 0x06, 0x26, 0x12, 0xF4, 0xF3, 0x27, 0x0C,
  0x02, 0x08, 0xEB, 0x0F, 0xFC, 0x05, 0x32, 0xF7, 0xFC, 0x09, 0x07, 0xDC,
  0xFB, 0xFF, 0xE1, 0xF4, 0xFB, 0x03, 0x0E, 0x0B, 0x0A, 0x00, 0xD9, 0x15,
  0xC0, 0x0F, 0x01, 0x15, 0x11, 0xFE, 0x13, 0x37, 0xD2, 0xF4, 0xFB, 0xF3,
  0xFE, 0x01, 0xFE, 0x06, 0xD4, 0x06, 0x3D, 0x0C, 0xF3, 0xCF, 0xFF, 0xF6,
  0xFC, 0xED, 0xF8, 0xFF, 0xFD, 0xFF, 0x07, 0xF8, 0x12, 0xF7, 0x20, 0x29,
  0x0C, 0xEC, 0x30, 0x01, 0x0B, 0xFD, 0xF3, 0x12, 0x07, 0xF0, 0x15, 0xF4,
  0xFD, 0xF9, 0x0A, 0xDC, 0x0C, 0xFD, 0xD0, 0xF0, 0x0D, 0xED, 0x00, 0xEB,
  0xF6, 0x01, 0xE6, 0xFB, 0xDC, 0x05, 0x11, 0x02, 0xED, 0x0C, 0xF8, 0xF4,
  0x1E, 0x12, 0x0D, 0x14, 0xFC, 0xF7, 0x02, 0xF4, 0x07, 0x04, 0x00, 0xF3,
  0x0C, 0x11, 0xF7, 0x10, 0x0D, 0xF0, 0xF2, 0xEB, 0x03, 0xF1, 0xF1, 0x01,
  0x05, 0xFD, 0x1A, 0x16, 0x05, 0x09, 0xF0, 0x0B, 0xFB, 0xFD, 0xF7, 0x0B,
  0x14, 0x00, 0xEE, 0xF3, 0xEC, 0x13, 0x04, 0x0D, 0x11, 0x08, 0x1B, 0x0D,
  0x08, 0xFD, 0xEA, 0xF0, 0xED, 0xF0, 0x1F, 0xF4, 0x22, 0xED, 0x10, 0x14,
  0xF9, 0x11, 0xEB, 0xF5, 0xEE, 0xFC, 0xF4, 0xFD, 0xFA, 0x00, 0xFE, 0x0F,
  0xEE, 0x11, 0xFB, 0xF4, 0xF1, 0xEC, 0xFE, 0xF5, 0x08, 0xED, 0x08, 0x09,
  0x00, 0x06, 0x12, 0xEE, 0x03, 0xE9, 0x0A, 0xEF, 0xF5, 0xF4, 0x0D, 0xEE,
  0xF2, 0xEB, 0x06, 0xF3, 0x04, 0x0B, 0x11, 0xEE, 0x06, 0x0C, 0xFD, 0xED,
  0x00, 0xFD, 0x12, 0x0C, 0xF2, 0xEF, 0xEF, 0xEB, 0xFF, 0xE7, 0x00, 0xEF,
  0xFB, 0xF5, 0x09, 0xF1, 0x12, 0x0C, 0xFB, 0xF7, 0x13, 0x1C, 0x03, 0x03,
  0xED, 0x05, 0x01, 0x0F, 0x19, 0x0E, 0x0E, 0xEC, 0x03, 0x1C, 0x10, 0xF0,
  0x01, 0x03, 0x07, 0x01, 0xFA, 0xFF, 0x03, 0x09, 0xF6, 0xFE, 0x09, 0x00,
  0x09, 0x07, 0xEA, 0xF7, 0xF1, 0x0C, 0xF2, 0xF1, 0xF2, 0x05, 0xE3, 0xFC,
  0x0C, 0x03, 0x0A, 0x12, 0x12, 0xF2, 0x0F, 0xFD, 0x02, 0x13, 0x0E, 0xEC,
  0xF0, 0xF4, 0x0F, 0x0C, 0x28, 0x08, 0xFD, 0xEF, 0xFF, 0xF4, 0xFF, 0x0E,
  0x10, 0xFB, 0xF3, 0x0B, 0xFA, 0x43, 0xFF, 0x53, 0x05, 0xFE, 0xF8, 0xFF,
  0x0E, 0x18, 0x05, 0x34, 0xE3, 0xF4, 0xF6, 0xF9, 0x03, 0xFB, 0x03, 0x02,
  0x03, 0x33, 0x02, 0x0D, 0xF1, 0xEF, 0x0C, 0x46, 0x0C, 0x14, 0x0F, 0x0F,
  0xEF, 0xF0, 0x13, 0xF3, 0xEE, 0x02, 0x0A, 0x0D, 0xFE, 0xFB, 0x0C, 0x5C,
  0xF0, 0x12, 0xFC, 0xF8, 0x02, 0x54, 0xF3, 0x1A, 0x0F, 0x39, 0xEE, 0xF6,
  0xEF, 0xF9, 0xEC, 0x01, 0x1A, 0x11, 0xF1, 0x03, 0x03, 0x03, 0xF8, 0x16,
  0x28, 0xFA, 0x01, 0xED, 0xF2, 0xF7, 0xED, 0x0E, 0xEB, 0x12, 0xEE, 0x0C,
  0x0C, 0xFF, 0xF6, 0x0B, 0xEC, 0x0A, 0xC8, 0xC1, 0xFF, 0x0E, 0xFA, 0x00,
  0x0D, 0xF4, 0xEC, 0x04, 0x10, 0x0A, 0xF3, 0x0B, 0xF4, 0x04, 0x08, 0x17,
  0xFD, 0xF9, 0xFE, 0xFA, 0x04, 0x09, 0xF6, 0xFA, 0x13, 0xFF, 0x27, 0xFF,
  0x1E, 0xF7, 0x00, 0xFF, 0x11, 0x0E, 0x0E, 0xEC, 0x07, 0x02, 0xF7, 0x10,
  0x01, 0xEC, 0xFB, 0x01, 0x0D, 0xFF, 0xF7, 0x10, 0x0A, 0xF7, 0x05, 0x11,
  0xF0, 0xF8, 0xF7, 0xEE, 0xF9, 0x01, 0xF6, 0x0B, 0xF5, 0x0E, 0xEB, 0xFD,
  0x10, 0xF3, 0x08, 0xEA, 0xEE, 0xFE, 0x12, 0x07, 0xF1, 0xEE, 0xE8, 0xF7,
  0x0D, 0xFA, 0x02, 0xF3, 0x13, 0xFB, 0xEC, 0xF1, 0xFA, 0xFE, 0x01, 0xEE,
  0x0B, 0x0F, 0x04, 0xFD, 0x0C, 0x05, 0xFC, 0xF3, 0xF3, 0x10, 0xFE, 0xEF,
  0x0A, 0x0F, 0x07, 0x0C, 0xF9, 0xF2, 0xF5, 0xF0, 0xF0, 0x0E, 0x13, 0x0B,
  0x10, 0x0B, 0xF9, 0xEB, 0x0C, 0x08, 0x06, 0xF0, 0x12, 0x02, 0x0F, 0x0B,
  0x05, 0xFB, 0x0C, 0xF7, 0x0E, 0x0C, 0x16, 0xED, 0x05, 0x08, 0x06, 0xF0,
  0xFF, 0x00, 0xFF, 0x08, 0x14, 0x0A, 0xF2, 0xF5, 0xF7, 0xF0, 0x05, 0x05,
  0xF7, 0xF2, 0xF4, 0xF8, 0xF2, 0xF3, 0xF2, 0xEC, 0x02, 0x11, 0xED, 0x0E,
  0x12, 0x0D, 0x0F, 0xFC, 0xFF, 0xF2, 0xED, 0xF6, 0xFB, 0x01, 0xF6, 0x04,
  0xFA, 0xED, 0x0E, 0xFC, 0xEE, 0x11, 0x13, 0xFC, 0x12, 0x0D, 0x14, 0xFF,
  0x12, 0x0D, 0x0D, 0xF7, 0xF5, 0xF9, 0xF1, 0xF7, 0x0F, 0x10, 0xEF, 0x0B,
  0xFF, 0x0D, 0x06, 0x01, 0xF1, 0xF9, 0xE9, 0x01, 0x0B, 0x02, 0x09, 0x08,
  0x10, 0x06, 0xED, 0xFC, 0x08, 0xFB, 0x00, 0x11, 0xFB, 0xFC, 0x0D, 0x0E,
  0xF7, 0xFB, 0x07, 0x0B, 0x0A, 0xF8, 0x03, 0x01, 0xF5, 0xED, 0x13, 0x0A,
  0xF7, 0xF7, 0xED, 0x03, 0x01, 0x07, 0xFF, 0x01, 0x13, 0xEC, 0x0B, 0xFF,
  0xEC, 0x05, 0xF6, 0x0A, 0xEF, 0xEC, 0xED, 0xFA, 0xF6, 0xF6, 0x0F, 0x0A,
  0xF6, 0x0C, 0xF6, 0x0F, 0x08, 0x06, 0x0A, 0xF2, 0xEB, 0xF4, 0xF8, 0xF7,
  0x11, 0x00, 0xF4, 0xFE, 0x09, 0xF9, 0x00, 0x05, 0x01, 0xF5, 0xEF, 0x04,
  0xFB, 0xFE, 0xF1, 0x0F, 0x11, 0xF8, 0x02, 0x02, 0xF0, 0xFB, 0x01, 0xF6,
  0xE4, 0x01, 0x00, 0x0D, 0xF1, 0x6A, 0xF1, 0x6E, 0xCA, 0xFD, 0xDC, 0x08,
  0x00, 0xFD, 0x03, 0x25, 0x0B, 0xF9, 0x0C, 0x0C, 0x05, 0x03, 0xED, 0xEF,
  0x0D, 0x6C, 0x18, 0x10, 0xFC, 0xFC, 0x27, 0x55, 0x01, 0x09, 0xFE, 0xF0,
  0x06, 0xFB, 0x19, 0xED, 0x00, 0xED, 0x09, 0xF9, 0xFD, 0x01, 0x0C, 0x6A,
  0x0F, 0x07, 0xF3, 0xFD, 0x0E, 0x59, 0xEC, 0xEF, 0x0D, 0x6A, 0xF5, 0xFC,
  0x0B, 0x0D, 0x02, 0x06, 0x0D, 0x0A, 0x03, 0x0F, 0xEE, 0xF4, 0xF7, 0xEB,
  0xF3, 0x13, 0x08, 0xF0, 0x0A, 0xEC, 0x00, 0xEE, 0x0E, 0xFD, 0xF4, 0xFD,
  0x02, 0x10, 0xF5, 0x07, 0xF6, 0x03, 0xFF, 0xFB, 0xEF, 0xF6, 0x08, 0xEB,
  0xFD, 0xFF, 0xED, 0xF7, 0x12, 0xFB, 0x05, 0x0F, 0xFB, 0xFB, 0x04, 0xF4,
  0xF2, 0x0A, 0x12, 0xF9, 0xFA, 0xFB, 0x12, 0x12, 0xFF, 0x14, 0x05, 0x09,
  0x0F, 0x00, 0x12, 0xF0, 0xF1, 0xF5, 0xF4, 0xEB, 0x0B, 0xEA, 0x0B, 0x00,
  0x0D, 0xFE, 0x06, 0xF7, 0xF0, 0x00, 0xF4, 0xF1, 0xF9, 0xF3, 0xF7, 0x0D,
  0xFF, 0xFE, 0x00, 0x07, 0xFF, 0xFC, 0x0C, 0xF7, 0xEF, 0x00, 0xFF, 0xEC,
  0x08, 0x03, 0xFE, 0x00, 0x13, 0x0E, 0xFB, 0xF8, 0x04, 0xF2, 0x08, 0x0F,
  0xED, 0xED, 0xF5, 0x0C, 0x0E, 0xF3, 0x01, 0xEA, 0x08, 0x01, 0x0D, 0x0F,
  0x08, 0x03, 0x01, 0x01, 0xFD, 0x0B, 0xEE, 0x00, 0x01, 0xFA, 0xF0, 0xEA,
  0xD5, 0xFF, 0x0E, 0xF8, 0xF9, 0x53, 0xF2, 0x3F, 0xDA, 0xF7, 0xF5, 0xFE,
  0xFB, 0xE8, 0xF8, 0x0B, 0xFB, 0xFB, 0x0E, 0xFF, 0xF4, 0x07, 0x08, 0xEE,
  0xEF, 0x51, 0x04, 0x0F, 0xFD, 0x0C, 0x20, 0x4A, 0xFE, 0xF9, 0x05, 0x0C,
  0xF6, 0x0E, 0x23, 0xF0, 0x07, 0xEC, 0xFB, 0xC6, 0xED, 0xF0, 0xE4, 0x5A,
  0xEE, 0xF9, 0x11, 0xF3, 0xF8, 0x3F, 0xF2, 0xF2, 0xE3, 0x4E, 0x05, 0xF2,
  0x05, 0xFC, 0xEC, 0x0F, 0xF6, 0x00, 0x08, 0xF7, 0x07, 0x9D, 0xF4, 0x97,
  0x0E, 0xED, 0x0A, 0x0F, 0xF9, 0xDB, 0x11, 0xD5, 0x06, 0x02, 0x05, 0xFC,
  0xFB, 0x08, 0x0D, 0xF6, 0xF7, 0x91, 0xEE, 0xF0, 0xEC, 0xFE, 0xFB, 0x93,
  0xF0, 0x04, 0xFF, 0xFF, 0xEE, 0x0C, 0xFA, 0xF9, 0xF2, 0xEF, 0x0C, 0xF9,
  0x08, 0x06, 0xF0, 0x97, 0xFE, 0x07, 0x06, 0x10, 0xF7, 0xA6, 0xFA, 0x09,
  0xF5, 0x81, 0x14, 0x0C, 0x44, 0xE6, 0xFE, 0xFF, 0xC2, 0x03, 0xFF, 0xFF,
  0x04, 0x00, 0x00, 0x00, 0x00, 0x01, 0x00, 0x00, 0x98, 0xFF, 0xFF, 0xFF,
  0x61, 0xFF, 0xFF, 0xFF, 0x11, 0xFF, 0xFF, 0xFF, 0xC7, 0x01, 0x00, 0x00,
  0xBF, 0xFF, 0xFF, 0xFF, 0xF4, 0xFF, 0xFF, 0xFF, 0x00, 0x00, 0x00, 0x00,
  0x50, 0xFF, 0xFF, 0xFF, 0x6E, 0xFF, 0xFF, 0xFF, 0x39, 0xFF, 0xFF, 0xFF,
  0x51, 0xFF, 0xFF, 0xFF, 0x4B, 0xFF, 0xFF, 0xFF, 0xCC, 0xFF, 0xFF, 0xFF,
  0xB2, 0xFF, 0xFF, 0xFF, 0x67, 0x00, 0x00, 0x00, 0x06, 0x00, 0x00, 0x00,
  0x46, 0xFF, 0xFF, 0xFF, 0xBC, 0xFF, 0xFF, 0xFF, 0x40, 0xFF, 0xFF, 0xFF,
  0xB7, 0xFF, 0xFF, 0xFF, 0x8C, 0xFF, 0xFF, 0xFF, 0x00, 0xFF, 0xFF, 0xFF,
  0x9F, 0xFF, 0xFF, 0xFF, 0xCA, 0xFF, 0xFF, 0xFF, 0xEE, 0xFF, 0xFF, 0xFF,
  0xD2, 0xFF, 0xFF, 0xFF, 0x00, 0x00, 0x00, 0x00, 0x00, 0x00, 0x00, 0x00,
  0xAB, 0xFF, 0xFF, 0xFF, 0x55, 0xFF, 0xFF, 0xFF, 0x61, 0x01, 0x00, 0x00,
  0x0F, 0x01, 0x00, 0x00, 0x5D, 0xFF, 0xFF, 0xFF, 0x3F, 0xFF, 0xFF, 0xFF,
  0x24, 0x00, 0x00, 0x00, 0x55, 0xFF, 0xFF, 0xFF, 0x90, 0xFF, 0xFF, 0xFF,
  0x55, 0xFF, 0xFF, 0xFF, 0xC3, 0xFF, 0xFF, 0xFF, 0x7C, 0xFF, 0xFF, 0xFF,
  0x97, 0xFF, 0xFF, 0xFF, 0xBB, 0xFF, 0xFF, 0xFF, 0x62, 0x00, 0x00, 0x00,
  0x80, 0xFF, 0xFF, 0xFF, 0xE9, 0xFF, 0xFF, 0xFF, 0xE0, 0xFF, 0xFF, 0xFF,
  0x51, 0xFF, 0xFF, 0xFF, 0xDE, 0xFF, 0xFF, 0xFF, 0x99, 0xFF, 0xFF, 0xFF,
  0x9A, 0xFF, 0xFF, 0xFF, 0x1A, 0x00, 0x00, 0x00, 0x51, 0xFF, 0xFF, 0xFF,
  0xC1, 0xFF, 0xFF, 0xFF, 0x9C, 0xFF, 0xFF, 0xFF, 0xD0, 0xFE, 0xFF, 0xFF,
  0x73, 0xFF, 0xFF, 0xFF, 0x32, 0xFF, 0xFF, 0xFF, 0x68, 0xFF, 0xFF, 0xFF,
  0x70, 0x00, 0x00, 0x00, 0x47, 0xFF, 0xFF, 0xFF, 0xC2, 0xFF, 0xFF, 0xFF,
  0x40, 0xFF, 0xFF, 0xFF, 0x45, 0xFF, 0xFF, 0xFF, 0xA5, 0xFF, 0xFF, 0xFF,
  0xCE, 0x04, 0xFF, 0xFF, 0x04, 0x00, 0x00, 0x00, 0x00, 0x03, 0x00, 0x00,
  0xFD, 0x00, 0xFC, 0xFE, 0xF5, 0x09, 0xF7, 0xFF, 0xF5, 0xF5, 0xF8, 0xFD,
  0x03, 0x01, 0xF9, 0xF9, 0xFD, 0x05, 0x08, 0x03, 0x02, 0xF4, 0xFB, 0x0A,
  0x02, 0xFB, 0xF8, 0x04, 0x05, 0xF4, 0xFC, 0x08, 0xF0, 0x04, 0xF9, 0xFA,
  0xD7, 0x0B, 0xC6, 0xFA, 0xE1, 0xD3, 0xD7, 0x02, 0xF8, 0xFC, 0xDA, 0x0F,
  0x15, 0xF5, 0x15, 0xFF, 0x2B, 0x49, 0x1A, 0x0C, 0x13, 0x06, 0x22, 0x09,
  0x20, 0x02, 0x12, 0x05, 0x31, 0x30, 0x1F, 0x07, 0x06, 0x03, 0x20, 0x02,
  0xFD, 0xF6, 0x02, 0xF8, 0xFA, 0xFD, 0xF8, 0xFB, 0xFA, 0x07, 0xFD, 0xFB,
  0x0A, 0xFB, 0x0B, 0x0B, 0x09, 0x0B, 0xFE, 0xFF, 0x00, 0xF3, 0xF7, 0xFC,
  0xF7, 0xFA, 0xFE, 0x05, 0x0B, 0xF8, 0xFD, 0x06, 0x03, 0x04, 0x08, 0xF4,
  0x64, 0x01, 0x74, 0x00, 0xF2, 0xE2, 0xFE, 0x12, 0x44, 0x13, 0x04, 0x16,
  0x08, 0xF4, 0xF7, 0xFC, 0xF7, 0x07, 0x06, 0xF7, 0x05, 0xF6, 0x03, 0x06,
  0x6F, 0x07, 0x7F, 0x00, 0xFB, 0xFA, 0xFD, 0x11, 0x51, 0x16, 0x01, 0x16,
  0x20, 0xF6, 0x15, 0x03, 0x2B, 0x37, 0x11, 0x14, 0x13, 0xFF, 0x22, 0x01,
  0xFA, 0x01, 0x00, 0xFC, 0xF7, 0xF4, 0x00, 0x0B, 0x09, 0xF4, 0x00, 0xFC,
  0x92, 0xFB, 0x83, 0x0A, 0xFA, 0x03, 0xF4, 0xFF, 0xB7, 0xF9, 0xFC, 0xFC,
  0x01, 0x01, 0x02, 0xF7, 0xF9, 0xF5, 0x0C, 0xF4, 0x09, 0xF1, 0x0C, 0xF6,
  0x03, 0x06, 0xFC, 0x06, 0xF8, 0xFB, 0x01, 0xF4, 0x06, 0x05, 0x03, 0x04,
  0x1D, 0xFB, 0x1F, 0x0A, 0x25, 0x17, 0x25, 0x03, 0x1E, 0x0A, 0x1E, 0x0B,
  0x04, 0x01, 0xFD, 0xFA, 0x05, 0x06, 0xF3, 0x00, 0x02, 0x05, 0xFB, 0xFD,
  0x45, 0x03, 0x39, 0x02, 0x02, 0x20, 0x0E, 0x0D, 0x21, 0x0A, 0x20, 0x08,
  0xFB, 0xFB, 0xF7, 0xFA, 0x0F, 0x05, 0xFA, 0xF9, 0xF8, 0x05, 0x08, 0xF6,
  0xF6, 0x00, 0xFE, 0xFA, 0xF5, 0xF6, 0xF9, 0x08, 0x07, 0x02, 0x01, 0x00,
  0xF8, 0xFA, 0xF5, 0xFD, 0xFC, 0x0B, 0x09, 0xF5, 0xF6, 0xF6, 0xF6, 0xF3,
  0x06, 0xFE, 0xFD, 0x06, 0x04, 0xF9, 0x06, 0x06, 0xFA, 0xF4, 0xFA, 0x02,
  0x03, 0x06, 0xF4, 0x0B, 0x00, 0xF4, 0xFC, 0x07, 0x00, 0xF8, 0xFA, 0xF4,
  0xF6, 0x02, 0x01, 0xF6, 0x02, 0xF4, 0xF4, 0xFD, 0xF9, 0xF8, 0x03, 0x08,
  0xF6, 0x00, 0x05, 0x01, 0xF5, 0x01, 0xFE, 0xFD, 0x03, 0xFB, 0xF4, 0xF6,
  0xF9, 0xF6, 0xFE, 0x03, 0xFD, 0xF7, 0xF8, 0xFA, 0x03, 0xF5, 0xFE, 0xFA,
  0xF5, 0xF7, 0x02, 0xFE, 0x02, 0x00, 0x00, 0x05, 0xF8, 0xFE, 0x08, 0xF2,
  0x66, 0xFF, 0x6F, 0x06, 0xE1, 0xE0, 0x06, 0x07, 0x57, 0x1A, 0xF2, 0x13,
  0x16, 0x03, 0x1F, 0xF7, 0xEC, 0xF5, 0xF6, 0xFA, 0x03, 0x07, 0xF8, 0x0A,
  0x2A, 0xFB, 0x2B, 0xFB, 0xE6, 0xEC, 0xEC, 0x03, 0x19, 0x01, 0xEC, 0x12,
  0x02, 0xF4, 0x08, 0x09, 0xFE, 0xF6, 0xFD, 0xF4, 0x05, 0xFC, 0xFB, 0x00,
  0x01, 0xFD, 0x0A, 0xFB, 0x0B, 0x09, 0xFD, 0xF3, 0x04, 0xF5, 0xFF, 0xF5,
  0x2B, 0x08, 0x27, 0xFC, 0xC4, 0xBE, 0xE1, 0x0E, 0x2E, 0x0F, 0xDC, 0x16,
  0x59, 0xF5, 0x6D, 0xFC, 0xE8, 0xDB, 0xF8, 0x1A, 0x47, 0x12, 0xF9, 0x0E,
  0x07, 0x07, 0xFE, 0x00, 0x02, 0xFB, 0x04, 0xFB, 0xFC, 0x06, 0x07, 0xFE,
  0x0D, 0x0C, 0xF9, 0xFB, 0xF5, 0x08, 0x05, 0x0A, 0xF4, 0xF6, 0x02, 0x07,
  0x05, 0x06, 0xFC, 0xFC, 0xF9, 0x03, 0x07, 0x06, 0xF8, 0xFB, 0xFE, 0xFB,
  0x01, 0xF9, 0xFF, 0x00, 0x0C, 0xF8, 0xF8, 0x05, 0xFB, 0x03, 0x0B, 0xFE,
  0xFC, 0xF7, 0xFF, 0xFE, 0xF5, 0xFD, 0xF9, 0xFF, 0xF9, 0x09, 0x05, 0xFE,
  0xF6, 0x00, 0x08, 0x07, 0x02, 0xFB, 0x07, 0xFD, 0xFE, 0xF9, 0xF6, 0x0A,
  0x23, 0x0B, 0x34, 0x07, 0xC3, 0xA3, 0xDE, 0x0F, 0x0E, 0x05, 0xD7, 0x13,
  0xFF, 0x02, 0x02, 0x00, 0xF4, 0xF3, 0x03, 0x01, 0xFF, 0x03, 0x02, 0xFB,
  0x04, 0xF9, 0xFD, 0xF9, 0x03, 0xFA, 0xF9, 0xF5, 0x0C, 0xF5, 0x00, 0x00,
  0xFA, 0xF4, 0xFD, 0xFF, 0x01, 0x07, 0xF7, 0x02, 0x07, 0xF7, 0x05, 0xF4,
  0xFA, 0xF4, 0xFF, 0xFE, 0x0C, 0xFE, 0x03, 0x00, 0xF7, 0xFC, 0xF9, 0x03,
  0x1E, 0xFD, 0x1A, 0x03, 0x30, 0x48, 0x22, 0x13, 0x0D, 0x0B, 0x17, 0xFD,
  0xFA, 0xF9, 0x08, 0x05, 0x0A, 0xF4, 0x0A, 0x00, 0x04, 0xF4, 0xFA, 0x04,
  0x00, 0xF8, 0xF5, 0xF7, 0x01, 0xFB, 0xF8, 0xFB, 0x02, 0xFC, 0xFB, 0x0A,
  0x1B, 0xF4, 0x17, 0xFC, 0x23, 0x34, 0x1A, 0x10, 0x06, 0x11, 0x2D, 0xF5,
  0x5A, 0x05, 0x79, 0x05, 0xDC, 0xE8, 0xFB, 0x17, 0x4E, 0x15, 0xFA, 0x0D,
  0x07, 0xFC, 0x02, 0x05, 0xFA, 0x05, 0x04, 0xFD, 0xF6, 0xF8, 0xFE, 0xF2,
  0xFF, 0xF9, 0x09, 0xFF, 0x01, 0x02, 0xFB, 0xF3, 0xFA, 0xFE, 0xF9, 0x02,
  0x05, 0xFF, 0xFC, 0xFF, 0xFB, 0x02, 0x06, 0xFD, 0xFE, 0xF8, 0x0A, 0x03,
  0x01, 0xFF, 0xFA, 0x02, 0x07, 0xFB, 0x05, 0xFF, 0xF9, 0x03, 0xFE, 0x03,
  0xFF, 0xF7, 0x0B, 0x00, 0xF6, 0x05, 0xFF, 0x03, 0xF9, 0xFF, 0xF6, 0xFF,
  0x65, 0xF8, 0x7D, 0xFF, 0xEF, 0xEC, 0x08, 0x16, 0x4B, 0x0C, 0x0E, 0x11,
  0xCA, 0xFB, 0xBE, 0xFB, 0x15, 0x11, 0xFF, 0xFE, 0xC5, 0xF6, 0x0F, 0x0C,
  0xF3, 0xFE, 0xFB, 0x0C, 0xFF, 0xFC, 0xF4, 0x05, 0x0A, 0x07, 0xF5, 0xFD,
  0x1D, 0x0A, 0x19, 0xF6, 0x26, 0x2B, 0x1D, 0x12, 0x06, 0x0D, 0x27, 0x07,
  0x55, 0x04, 0x7B, 0x0B, 0xE4, 0xDD, 0xE6, 0x15, 0x58, 0x1C, 0xFD, 0x0F,
  0xFA, 0x0A, 0xFD, 0xFE, 0xFA, 0xF7, 0x08, 0xFC, 0xFC, 0x07, 0x06, 0xF3,
  0xF7, 0x01, 0x0A, 0xF5, 0x07, 0xF6, 0xFC, 0x03, 0xFD, 0xF8, 0x0A, 0x06,
  0x60, 0xEA, 0xFE, 0xFF, 0x64, 0xEA, 0xFE, 0xFF, 0x68, 0xEA, 0xFE, 0xFF,
  0xE6, 0x07, 0xFF, 0xFF, 0x04, 0x00, 0x00, 0x00, 0x10, 0x00, 0x00, 0x00,
  0x2C, 0xF9, 0xFF, 0xFF, 0x70, 0xFF, 0xFF, 0xFF, 0x67, 0xFC, 0xFF, 0xFF,
  0x63, 0xF5, 0xFF, 0xFF, 0x02, 0x08, 0xFF, 0xFF, 0x04, 0x00, 0x00, 0x00,
  0x20, 0x00, 0x00, 0x00, 0x21, 0x4B, 0x2A, 0xB6, 0x37, 0xEC, 0xF3, 0x22,
  0x2E, 0xFB, 0xEC, 0x09, 0xD8, 0xDC, 0xE9, 0x25, 0xEE, 0xBE, 0x0F, 0xCD,
  0xF8, 0xC7, 0x62, 0x24, 0xD6, 0x1C, 0x23, 0xB3, 0xFD, 0x3A, 0x7F, 0x44,
  0xB4, 0xEA, 0xFE, 0xFF, 0x32, 0x08, 0xFF, 0xFF, 0x04, 0x00, 0x00, 0x00,
  0x20, 0x00, 0x00, 0x00, 0x3E, 0x02, 0x00, 0x00, 0x6D, 0xFF, 0xFF, 0xFF,
  0xA3, 0xFF, 0xFF, 0xFF, 0x37, 0x05, 0x00, 0x00, 0x35, 0x00, 0x00, 0x00,
  0x48, 0xFF, 0xFF, 0xFF, 0x90, 0xFF, 0xFF, 0xFF, 0xC4, 0x01, 0x00, 0x00,
  0x5E, 0x08, 0xFF, 0xFF, 0x04, 0x00, 0x00, 0x00, 0x80, 0x00, 0x00, 0x00,
  0x1D, 0x08, 0x0D, 0x29, 0x05, 0x42, 0xCF, 0xBA, 0x0B, 0x0F, 0x15, 0x0D,
  0xC8, 0xEC, 0xE0, 0x03, 0x08, 0x07, 0xF9, 0xE9, 0xE6, 0xE3, 0xF0, 0x21,
  0x24, 0xE5, 0xD9, 0x0B, 0xF7, 0xFA, 0x20, 0xFA, 0xEC, 0x0C, 0x11, 0x10,
  0xC9, 0x21, 0xF3, 0x02, 0x1E, 0x06, 0x0A, 0x14, 0x12, 0xF5, 0xD9, 0xF5,
  0x0B, 0xEA, 0x24, 0x16, 0xEA, 0x0C, 0x18, 0xFF, 0x25, 0x0B, 0x27, 0x3F,
  0x0B, 0x2C, 0x18, 0xF3, 0xF6, 0xFC, 0x24, 0x32, 0x2E, 0x0F, 0x17, 0x1E,
  0xF7, 0x0C, 0xFD, 0xCF, 0x14, 0x0A, 0x04, 0xE0, 0xE2, 0xE5, 0x03, 0x04,
  0xEA, 0xF9, 0xE7, 0x15, 0x07, 0xDC, 0x25, 0x23, 0xD8, 0xE8, 0xFB, 0xD5,
  0xD7, 0xDC, 0xE0, 0xF7, 0x1F, 0x81, 0x00, 0x24, 0xDE, 0xEE, 0xE7, 0x0A,
  0x1F, 0xC0, 0x3B, 0x62, 0x0D, 0xFF, 0xE3, 0x24, 0x1F, 0x1F, 0xCB, 0xEE,
  0xC8, 0xB9, 0xE0, 0xF7, 0x99, 0xF6, 0x1C, 0x27, 0x70, 0xEB, 0xFE, 0xFF,
  0xEE, 0x08, 0xFF, 0xFF, 0x04, 0x00, 0x00, 0x00, 0x40, 0x00, 0x00, 0x00,
  0xAE, 0x02, 0x00, 0x00, 0xEF, 0xFD, 0xFF, 0xFF, 0x51, 0x04, 0x00, 0x00,
  0xC8, 0x02, 0x00, 0x00, 0xBB, 0xFE, 0xFF, 0xFF, 0xFB, 0x04, 0x00, 0x00,
  0xDD, 0x02, 0x00, 0x00, 0xEE, 0x03, 0x00, 0x00, 0xF2, 0xFF, 0xFF, 0xFF,
  0xD8, 0x00, 0x00, 0x00, 0xED, 0xFF, 0xFF, 0xFF, 0x9B, 0x06, 0x00, 0x00,
  0xBF, 0xFE, 0xFF, 0xFF, 0x7A, 0x04, 0x00, 0x00, 0x8F, 0xFE, 0xFF, 0xFF,
  0x06, 0x02, 0x00, 0x00, 0x3A, 0x09, 0xFF, 0xFF, 0x04, 0x00, 0x00, 0x00,
  0x00, 0x01, 0x00, 0x00, 0xBD, 0x11, 0xCF, 0xFB, 0xFE, 0x33, 0x21, 0x3E,
  0x21, 0xD1, 0xF6, 0xDC, 0xEA, 0xE9, 0xC0, 0xE9, 0x4D, 0x10, 0x3A, 0x40,
  0x3F, 0xCC, 0x2F, 0x34, 0x32, 0x42, 0xD0, 0xE3, 0x0E, 0xDF, 0x1F, 0x0D,
  0xB5, 0x07, 0x2B, 0x44, 0x21, 0xDF, 0xB6, 0x15, 0x4A, 0x55, 0xEE, 0x16,
  0xFC, 0xCB, 0xF9, 0x19, 0xE0, 0x9B, 0x1E, 0x16, 0xEB, 0x00, 0xFA, 0x3D,
  0xB5, 0xD9, 0xF8, 0x49, 0x11, 0x20, 0xC8, 0xFF, 0xC6, 0xA3, 0xF0, 0xFB,
  0x14, 0xC0, 0x1E, 0x23, 0xD4, 0x34, 0xE2, 0x5E, 0x33, 0x05, 0x46, 0x43,
  0x09, 0x15, 0xF0, 0xF6, 0xEE, 0xF9, 0x49, 0x40, 0xE7, 0xE6, 0x37, 0x44,
  0x91, 0x03, 0xF5, 0x0A, 0xF3, 0xDB, 0x22, 0x47, 0x03, 0xD4, 0xF2, 0xBE,
  0xF2, 0xEB, 0x4B, 0xD2, 0x3B, 0x08, 0xD4, 0x14, 0xE0, 0xE9, 0xBB, 0x50,
  0xC6, 0x47, 0xC7, 0x2F, 0xEB, 0x04, 0xD0, 0x05, 0xC6, 0xC7, 0xA3, 0x4B,
  0xB5, 0xDE, 0x2C, 0xD0, 0xDC, 0x26, 0x19, 0x3A, 0x1B, 0xE1, 0xCA, 0xF0,
  0x00, 0xF6, 0x2C, 0xD4, 0xDC, 0xF2, 0x0D, 0x36, 0x20, 0x07, 0x1C, 0xB3,
  0x41, 0x3D, 0xD4, 0xDE, 0x41, 0xE3, 0x41, 0x40, 0x08, 0xD8, 0x20, 0x3B,
  0xF4, 0xFB, 0xE5, 0xD9, 0x47, 0xD5, 0xCA, 0xCA, 0xB3, 0x0B, 0xED, 0xCC,
  0x46, 0xFB, 0xEF, 0x09, 0xD1, 0x44, 0x06, 0xC6, 0xBF, 0xDB, 0xCB, 0x0F,
  0x02, 0x51, 0x31, 0x25, 0xF1, 0xE6, 0xCA, 0xFE, 0xF5, 0x3D, 0xDD, 0xFA,
  0x46, 0x16, 0xD4, 0x26, 0xE2, 0x09, 0xCD, 0xBA, 0x40, 0xE5, 0x12, 0x36,
  0xBE, 0xB2, 0xCE, 0xEE, 0xCB, 0xCC, 0xB9, 0x09, 0x2C, 0xD5, 0xC3, 0x38,
  0x25, 0x15, 0x35, 0xD9, 0xC3, 0x32, 0xB1, 0xFB, 0x15, 0xFD, 0x43, 0x01,
  0x78, 0x27, 0xD6, 0xC1, 0x34, 0xE4, 0x14, 0xED, 0x81, 0xD0, 0xE4, 0xC5,
  0xCA, 0xBC, 0xE9, 0x5F, 0x13, 0xC0, 0x01, 0xC4, 0xCC, 0xEC, 0xFE, 0xFF,
  0x4A, 0x0A, 0xFF, 0xFF, 0x04, 0x00, 0x00, 0x00, 0x40, 0x00, 0x00, 0x00,
  0xC9, 0xFF, 0xFF, 0xFF, 0xF8, 0x00, 0x00, 0x00, 0xEA, 0xFF, 0xFF, 0xFF,
  0x02, 0xFF, 0xFF, 0xFF, 0x16, 0x01, 0x00, 0x00, 0x7B, 0xFF, 0xFF, 0xFF,
  0xDD, 0xFF, 0xFF, 0xFF, 0x07, 0xFF, 0xFF, 0xFF, 0x36, 0xFF, 0xFF, 0xFF,
  0x50, 0xFF, 0xFF, 0xFF, 0x6A, 0xFF, 0xFF, 0xFF, 0x93, 0x03, 0x00, 0x00,
  0xFD, 0x00, 0x00, 0x00, 0xB8, 0xFF, 0xFF, 0xFF, 0x99, 0xFF, 0xFF, 0xFF,
  0xFC, 0xFF, 0xFF, 0xFF, 0x96, 0x0A, 0xFF, 0xFF, 0x04, 0x00, 0x00, 0x00,
  0x00, 0xE1, 0x00, 0x00, 0xFE, 0xFB, 0xFC, 0xFD, 0xFB, 0xFB, 0xFC, 0x04,
  0x01, 0xFE, 0x03, 0x04, 0x04, 0x04, 0xFC, 0xFF, 0xFC, 0xFD, 0x05, 0x00,
  0x00, 0x01, 0xFB, 0x05, 0x01, 0x01, 0xFD, 0xFD, 0xFE, 0xFE, 0xFE, 0x00,
  0xFD, 0xFB, 0xFF, 0xFB, 0x02, 0xFC, 0xFB, 0xFA, 0xFE, 0x03, 0xFC, 0xFD,
  0x04, 0x02, 0x05, 0x02, 0x05, 0xFE, 0x02, 0x02, 0xFB, 0xFE, 0x04, 0xFB,
  0xFE, 0xFD, 0xFB, 0x01, 0x04, 0x02, 0xFA, 0x01, 0x02, 0x02, 0xFB, 0x00,
  0xFC, 0xFD, 0x03, 0xFF, 0x00, 0xFB, 0x04, 0xFC, 0x04, 0x00, 0xFF, 0x03,
  0xFB, 0x03, 0xFA, 0xFE, 0x00, 0xFD, 0xFA, 0xFF, 0xFC, 0xFC, 0xFD, 0x02,
  0x01, 0xFD, 0x05, 0x00, 0x04, 0x05, 0x02, 0x05, 0xFD, 0x00, 0xFB, 0x05,
  0xFC, 0xFD, 0x00, 0x01, 0xFB, 0x05, 0x01, 0x03, 0xFB, 0xFF, 0xFD, 0x00,
  0x02, 0xFC, 0x02, 0xFB, 0x00, 0x02, 0xFC, 0x01, 0x03, 0xFB, 0x03, 0xFA,
  0xFD, 0x01, 0x00, 0xFD, 0xFE, 0x01, 0xFC, 0x00, 0xFB, 0x04, 0xFF, 0xFE,
  0xFD, 0xFE, 0x03, 0x01, 0xFF, 0x00, 0xFC, 0x03, 0xFC, 0xFE, 0xFB, 0x04,
  0x04, 0xFC, 0xFD, 0x05, 0xFD, 0xFF, 0x01, 0x04, 0xFC, 0x03, 0xFF, 0x02,
  0xFC, 0xFF, 0x03, 0xFD, 0xFC, 0x02, 0xFA, 0x01, 0x03, 0x02, 0x05, 0xFA,
  0x03, 0xFE, 0x01, 0x00, 0x02, 0xFB, 0x03, 0x04, 0x02, 0x05, 0x03, 0x01,
  0xFB, 0xFC, 0x02, 0x02, 0xFD, 0x04, 0x03, 0xFD, 0x01, 0x02, 0x03, 0xFF,
  0x02, 0x04, 0x00, 0x03, 0xFF, 0xFD, 0xFE, 0x02, 0x03, 0xFE, 0x02, 0x02,
  0x04, 0x03, 0x03, 0x01, 0xFC, 0x02, 0x01, 0xFE, 0x02, 0x03, 0xFD, 0xFD,
  0xFD, 0xFD, 0xFF, 0x01, 0xFC, 0x02, 0xFB, 0x05, 0x04, 0xFD, 0xFE, 0x02,
  0xFD, 0x03, 0x01, 0x04, 0xFB, 0x00, 0xFF, 0x02, 0x01, 0x01, 0x03, 0xFF,
  0x05, 0xFD, 0xFE, 0x05, 0xFC, 0x00, 0x04, 0xFC, 0xFF, 0x05, 0xFE, 0x01,
  0xFE, 0x04, 0xFC, 0xFD, 0x04, 0x01, 0xFB, 0xFC, 0xFB, 0xFC, 0xFE, 0xFF,
  0xFE, 0xFC, 0x02, 0x05, 0x05, 0x04, 0x03, 0x02, 0x03, 0x03, 0xFF, 0xFE,
  0x01, 0x00, 0x03, 0x00, 0x02, 0x05, 0xFB, 0xFC, 0x03, 0x06, 0xFE, 0x01,
  0x03, 0x03, 0x02, 0x00, 0x03, 0x01, 0xFF, 0xFF, 0xFD, 0x00, 0xFF, 0xFE,
  0x03, 0xFC, 0x04, 0xFD, 0x05, 0xFF, 0xFA, 0xFD, 0xFD, 0xFB, 0x00, 0x04,
  0xFB, 0x03, 0xFE, 0xFB, 0xFC, 0xFF, 0x00, 0x01, 0x02, 0xFC, 0xFB, 0xFB,
  0xFB, 0x00, 0xFF, 0xFA, 0xFE, 0xFF, 0x00, 0xFB, 0xFF, 0x00, 0x04, 0xFF,
  0x03, 0x03, 0x01, 0x05, 0xFD, 0xFC, 0x02, 0x04, 0x01, 0x04, 0x00, 0x01,
  0x02, 0x04, 0xFB, 0xFD, 0xFD, 0x01, 0x03, 0xFD, 0xFD, 0x03, 0xFC, 0x05,
  0x01, 0x01, 0x02, 0x00, 0xFB, 0xFF, 0xFF, 0xFD, 0x01, 0x01, 0x05, 0x05,
  0xFF, 0x00, 0xFC, 0xFE, 0xFC, 0xFB, 0xFC, 0x04, 0xFB, 0xFB, 0xFC, 0xFF,
  0x00, 0xFE, 0xFD, 0x03, 0x00, 0xFD, 0xFC, 0x03, 0xFD, 0x05, 0xFE, 0x02,
  0x01, 0xFF, 0xFE, 0xFA, 0x00, 0xFD, 0xFB, 0xFD, 0x03, 0xFF, 0xFB, 0xFC,
  0xFB, 0xFD, 0xFF, 0xFA, 0xFE, 0xFC, 0xFE, 0xFB, 0x05, 0x02, 0xFE, 0xFD,
  0x00, 0xFA, 0xFD, 0xFC, 0x00, 0xFD, 0x04, 0xFD, 0xFD, 0xFB, 0x02, 0xFD,
  0xFB, 0xFA, 0x02, 0x04, 0x04, 0xFE, 0xFE, 0xFD, 0xFF, 0x00, 0xFF, 0xFE,
  0x05, 0x02, 0x01, 0x03, 0xFF, 0xFC, 0x00, 0x00, 0x05, 0x05, 0xFE, 0xFB,
  0xFF, 0xFC, 0x04, 0x02, 0xFD, 0x03, 0xFA, 0xFD, 0x04, 0x03, 0x01, 0xFA,
  0xFB, 0xFF, 0x04, 0xFC, 0xFB, 0xFB, 0x02, 0xFC, 0x00, 0x03, 0x04, 0x02,
  0x02, 0x01, 0x03, 0xFF, 0x01, 0xFB, 0x00, 0xFB, 0xFC, 0xFF, 0xFD, 0x00,
  0xFD, 0xFC, 0xFF, 0xFB, 0xFD, 0x00, 0x03, 0xFD, 0x02, 0x05, 0xFF, 0x05,
  0x02, 0x04, 0xFF, 0x03, 0xFB, 0x03, 0xFB, 0x01, 0xFF, 0x00, 0xFC, 0x02,
  0xFE, 0x03, 0x04, 0xFD, 0xFD, 0xFF, 0x05, 0xFF, 0x01, 0x05, 0xFC, 0x04,
  0xFF, 0xFA, 0xFE, 0xFD, 0x02, 0xFD, 0x01, 0x04, 0x01, 0x05, 0x03, 0x01,
  0xFF, 0xFB, 0x04, 0xFB, 0xFD, 0xFE, 0x01, 0x05, 0xFE, 0x00, 0xFE, 0x03,
  0xFD, 0xFD, 0x00, 0x03, 0x05, 0xFD, 0xFB, 0xFB, 0x01, 0x06, 0xFB, 0xFB,
  0xFC, 0xFA, 0xFD, 0xFF, 0x06, 0x02, 0xFF, 0x02, 0x03, 0xFE, 0x03, 0x03,
  0xFB, 0x01, 0x01, 0xFD, 0x01, 0xFB, 0x01, 0x02, 0x03, 0x01, 0x02, 0x01,
  0x04, 0x03, 0x01, 0xFB, 0xFF, 0x00, 0x00, 0x04, 0x04, 0xFC, 0x02, 0xFC,
  0x01, 0x03, 0x04, 0x02, 0xFD, 0xFC, 0xFA, 0xFA, 0xFC, 0x04, 0xFC, 0xFF,
  0xFE, 0xFE, 0xFE, 0x03, 0xFE, 0xFB, 0x04, 0xFE, 0xFF, 0x05, 0x00, 0x03,
  0x04, 0xFB, 0xFA, 0x00, 0x01, 0x00, 0x03, 0x02, 0x05, 0x05, 0xFF, 0x01,
  0xFC, 0x00, 0x01, 0x02, 0x05, 0x05, 0x04, 0x00, 0xFD, 0x01, 0x04, 0x04,
  0xFD, 0xFF, 0xFD, 0xFD, 0xFC, 0x02, 0xFB, 0x03, 0xFF, 0x05, 0xFB, 0xFD,
  0xFD, 0x01, 0xFB, 0xFD, 0xFE, 0xFF, 0x03, 0xFB, 0x03, 0x05, 0xFD, 0xFA,
  0x05, 0xFF, 0xFC, 0x00, 0x00, 0x02, 0xFC, 0x03, 0x05, 0x03, 0xFB, 0x03,
  0x05, 0x02, 0x00, 0xFB, 0x04, 0xFE, 0xFE, 0xFE, 0xFD, 0x05, 0x02, 0x04,
  0xFB, 0x01, 0x02, 0xFC, 0x04, 0x02, 0xFA, 0xFC, 0x01, 0x04, 0xFE, 0xFE,
  0x04, 0x04, 0xFC, 0x04, 0x05, 0x01, 0xFC, 0xFF, 0x05, 0xFB, 0x01, 0xFE,
  0x05, 0xFD, 0x02, 0x01, 0x05, 0xFB, 0x01, 0x03, 0x02, 0x02, 0xFD, 0x04,
  0x05, 0xFA, 0xFF, 0xFA, 0xFC, 0x04, 0xFA, 0xFD, 0x03, 0x04, 0x03, 0x00,
  0x00, 0xFC, 0xFD, 0xFC, 0xFB, 0xFB, 0xFB, 0xFE, 0x01, 0x05, 0xFB, 0x00,
  0x05, 0x00, 0x01, 0x02, 0x05, 0x03, 0x05, 0x03, 0x02, 0x06, 0x02, 0xFC,
  0xFC, 0xFA, 0x00, 0x04, 0x00, 0x02, 0x01, 0xFE, 0x02, 0x00, 0x00, 0xFF,
  0x03, 0x00, 0x00, 0xFD, 0x04, 0x04, 0xFF, 0x04, 0x00, 0xFF, 0x03, 0xFD,
  0x05, 0xFA, 0x01, 0x03, 0xFE, 0x01, 0xFB, 0x01, 0x03, 0x03, 0x03, 0xFA,
  0x00, 0xFD, 0x00, 0x04, 0xFF, 0x03, 0xFB, 0xFB, 0x04, 0xFE, 0x00, 0x03,
  0x05, 0x03, 0x04, 0x03, 0x03, 0x00, 0xFC, 0xFF, 0x03, 0xFB, 0x04, 0xFB,
  0x05, 0xFE, 0x02, 0x02, 0x02, 0x04, 0xFB, 0xFF, 0xFC, 0x03, 0xFE, 0x00,
  0xFD, 0xFB, 0x01, 0xFD, 0x04, 0x05, 0xFD, 0x03, 0x02, 0xFC, 0xFD, 0x04,
  0x02, 0xFA, 0xFB, 0x01, 0x02, 0x04, 0x03, 0xFE, 0xFB, 0xFC, 0xFC, 0x05,
  0x04, 0xFE, 0x00, 0x03, 0x05, 0x01, 0x01, 0x01, 0x05, 0xFF, 0x02, 0xFC,
  0xFF, 0xFD, 0xFD, 0xFF, 0xFB, 0x02, 0x02, 0x04, 0xFB, 0xFE, 0x02, 0x01,
  0x03, 0xFB, 0x03, 0x04, 0xFF, 0xFF, 0x02, 0x03, 0x02, 0xFF, 0x00, 0x00,
  0x04, 0x01, 0x03, 0xFE, 0x03, 0xFF, 0x03, 0xFE, 0x01, 0xFE, 0x05, 0x02,
  0xFD, 0x02, 0xFD, 0x00, 0x00, 0x00, 0xFC, 0x01, 0x01, 0x06, 0x01, 0x01,
  0xFC, 0x01, 0xFE, 0x03, 0x04, 0xFD, 0xFA, 0xFE, 0x00, 0xFC, 0xFB, 0xFA,
  0xFE, 0xFA, 0x03, 0x02, 0x00, 0x00, 0xFD, 0xFD, 0xFB, 0x01, 0x02, 0x02,
  0xFE, 0x01, 0xFD, 0x02, 0x03, 0x01, 0xFA, 0xFF, 0x04, 0xFD, 0xFD, 0x01,
  0x02, 0xFC, 0xFB, 0xFB, 0x05, 0x02, 0x02, 0x00, 0xFB, 0x05, 0xFF, 0x01,
  0xFC, 0xFB, 0x04, 0xFD, 0x03, 0x04, 0xFB, 0x03, 0x03, 0xFF, 0x01, 0x05,
  0x00, 0xFA, 0x00, 0x03, 0xFD, 0x01, 0xFF, 0x01, 0x03, 0xFF, 0x04, 0xFC,
  0x05, 0x03, 0xFA, 0x02, 0x01, 0xFD, 0xFE, 0xFD, 0xFF, 0x04, 0x00, 0xFC,
  0xFD, 0xFC, 0x04, 0x01, 0x04, 0x03, 0xFA, 0x01, 0xFE, 0x00, 0x03, 0x05,
  0xFC, 0x02, 0xFD, 0xFC, 0xFF, 0xFB, 0x05, 0x01, 0xFB, 0x01, 0x05, 0xFF,
  0x02, 0xFC, 0x04, 0x04, 0x04, 0xFE, 0xFC, 0x01, 0xFC, 0x03, 0x04, 0xFD,
  0x03, 0xFA, 0xFD, 0xFD, 0x03, 0x05, 0x03, 0x04, 0xFB, 0xFF, 0xFE, 0x02,
  0x01, 0xFB, 0x01, 0x03, 0xFD, 0xFE, 0xFC, 0x02, 0xFE, 0xFA, 0xFF, 0xFF,
  0x04, 0xFD, 0x01, 0x03, 0xFF, 0x04, 0x02, 0x03, 0x00, 0xFF, 0xFF, 0x02,
  0x03, 0xFC, 0xFD, 0x00, 0x04, 0xFF, 0x02, 0x02, 0xFC, 0x00, 0x02, 0xFF,
  0xFB, 0xFF, 0xFC, 0xFD, 0x01, 0x02, 0xFE, 0x01, 0x03, 0xFD, 0x00, 0x01,
  0x02, 0x04, 0x03, 0x04, 0xFC, 0x01, 0x04, 0xFC, 0x02, 0xFF, 0x01, 0x00,
  0x00, 0x00, 0x04, 0xFA, 0xFC, 0x04, 0xFD, 0xFD, 0x05, 0xFE, 0xFF, 0x03,
  0x03, 0xFD, 0x01, 0xFD, 0x01, 0xFB, 0xFF, 0xFF, 0x02, 0x01, 0xFD, 0x03,
  0xFF, 0x02, 0x00, 0xFA, 0x02, 0x02, 0x00, 0xFE, 0x03, 0x01, 0xFC, 0x01,
  0xFC, 0xFC, 0x05, 0xFA, 0xFF, 0xFC, 0x02, 0x03, 0x01, 0x04, 0xFB, 0xFC,
  0xFD, 0xFB, 0xFB, 0xFA, 0x04, 0x00, 0xFC, 0xFD, 0xFF, 0x04, 0xFB, 0xFB,
  0xFF, 0xFF, 0xFB, 0x05, 0x05, 0x03, 0xFC, 0xFE, 0xFC, 0xFF, 0x05, 0xFD,
  0xFC, 0xFE, 0x01, 0x00, 0xFD, 0xFE, 0x01, 0x03, 0xFE, 0xFD, 0xFE, 0x04,
  0xFF, 0x01, 0xFE, 0xFC, 0xFD, 0xFF, 0xFF, 0xFE, 0x02, 0x02, 0xFC, 0x03,
  0xFD, 0x01, 0xFE, 0x04, 0xFC, 0x03, 0x04, 0xFF, 0xFF, 0x03, 0xFD, 0x00,
  0xFD, 0x02, 0x04, 0xFE, 0xFC, 0x02, 0x03, 0x04, 0xFC, 0x02, 0x00, 0x05,
  0x05, 0xFA, 0x00, 0x02, 0xFC, 0x00, 0x04, 0x00, 0x03, 0xFF, 0xFD, 0xFE,
  0x05, 0x01, 0x00, 0x04, 0xFD, 0x00, 0x02, 0x01, 0xFC, 0x00, 0x05, 0x00,
  0x03, 0xFD, 0xFA, 0xFB, 0x04, 0x05, 0x05, 0x00, 0xFF, 0x03, 0x05, 0xFD,
  0xFE, 0xFB, 0xFE, 0x00, 0xFC, 0xFF, 0xFA, 0x03, 0x04, 0xFF, 0xFD, 0xFE,
  0xFE, 0x04, 0xFC, 0x03, 0x05, 0x05, 0xFE, 0x03, 0x03, 0x05, 0x03, 0xFE,
  0x02, 0xFA, 0xFF, 0xFB, 0x00, 0xFC, 0xFD, 0x03, 0x00, 0xFC, 0xFB, 0x04,
  0x02, 0x00, 0xFC, 0x04, 0xFD, 0x01, 0x02, 0xFF, 0x02, 0xFA, 0x04, 0xFB,
  0xFF, 0xFD, 0x02, 0xFE, 0xFC, 0x00, 0x01, 0xFE, 0x04, 0x05, 0x02, 0x05,
  0xFF, 0xFF, 0xFD, 0x03, 0x04, 0x00, 0xFD, 0x01, 0x03, 0xFF, 0xFB, 0xFC,
  0x01, 0xFC, 0x04, 0x00, 0xFD, 0x04, 0xFD, 0xFA, 0xFF, 0xFE, 0xFE, 0x01,
  0x00, 0x01, 0xFA, 0xFC, 0x03, 0x04, 0xFF, 0xFD, 0xFE, 0x03, 0xFE, 0xFC,
  0x02, 0x00, 0x02, 0xFB, 0x00, 0x05, 0x04, 0x02, 0x00, 0x05, 0x00, 0xFA,
  0x01, 0xFE, 0xFF, 0x03, 0xFD, 0x01, 0x03, 0x01, 0xFF, 0x05, 0xFC, 0xFB,
  0xFC, 0x00, 0xFF, 0x02, 0xFF, 0x03, 0xFA, 0xFB, 0x03, 0xFF, 0xFF, 0xFB,
  0xFE, 0x02, 0x04, 0x01, 0x01, 0x03, 0xFC, 0x00, 0x02, 0x04, 0xFD, 0x00,
  0xFC, 0xFB, 0x04, 0x02, 0x04, 0xFF, 0xFE, 0xFD, 0xFB, 0x00, 0x01, 0xFF,
  0x03, 0xFC, 0x02, 0xFB, 0x05, 0xFF, 0x01, 0x03, 0x04, 0xFE, 0xFF, 0x02,
  0x03, 0xFF, 0x03, 0x02, 0x00, 0xFD, 0xFE, 0xFC, 0x00, 0xFC, 0x02, 0xFE,
  0xFC, 0xFC, 0xFE, 0xFF, 0x02, 0x04, 0xFC, 0x02, 0xFD, 0x04, 0x05, 0xFA,
  0x05, 0x03, 0x00, 0xFD, 0xFC, 0x04, 0xFD, 0xFC, 0x04, 0xFE, 0x00, 0x00,
  0x03, 0xFC, 0xFE, 0xFD, 0x05, 0xFC, 0xFE, 0xFD, 0xFD, 0xFD, 0x03, 0x02,
  0xFF, 0xFD, 0x01, 0x03, 0x03, 0xFC, 0x04, 0x02, 0x02, 0x03, 0x01, 0xFD,
  0x04, 0x03, 0x03, 0xFE, 0x04, 0xFC, 0x01, 0x05, 0x04, 0xFE, 0xFF, 0x02,
  0xFD, 0xFC, 0xFA, 0xFD, 0xFF, 0xFC, 0x03, 0x00, 0x02, 0xFF, 0xFB, 0xFF,
  0x01, 0xFB, 0x03, 0x01, 0xFE, 0x05, 0x05, 0xFB, 0x02, 0xFB, 0xFB, 0xFA,
  0x00, 0x03, 0xFE, 0xFE, 0x00, 0x02, 0x00, 0xFF, 0x03, 0x02, 0xFC, 0x01,
  0xFF, 0xFE, 0xFB, 0x00, 0x01, 0x01, 0x01, 0x03, 0xFC, 0x03, 0x00, 0xFD,
  0x00, 0x01, 0x01, 0x02, 0x00, 0xFD, 0xFD, 0xFD, 0xFC, 0x01, 0xFE, 0xFE,
  0xFD, 0x00, 0xFB, 0x03, 0xFE, 0xFF, 0xFE, 0xFF, 0x04, 0xFE, 0xFE, 0x04,
  0x01, 0xFC, 0xFE, 0xFC, 0xFF, 0xFB, 0x00, 0xFE, 0xFB, 0xFD, 0xFC, 0x00,
  0x01, 0x03, 0x03, 0xFE, 0x06, 0x01, 0x00, 0xFF, 0xFB, 0xFF, 0xFD, 0xFA,
  0x02, 0xFA, 0xFB, 0x01, 0xFB, 0x02, 0x03, 0x00, 0x04, 0x02, 0x01, 0xFF,
  0xFC, 0x03, 0xFE, 0xFE, 0xFE, 0xFE, 0xFB, 0x00, 0xFD, 0x01, 0x03, 0xFE,
  0x01, 0xFC, 0xFB, 0xFF, 0x03, 0x01, 0x03, 0x02, 0xFE, 0xFD, 0x01, 0x04,
  0x01, 0x00, 0x02, 0x04, 0xFC, 0x03, 0x00, 0xFB, 0xFE, 0x06, 0x04, 0x02,
  0x00, 0xFF, 0xFF, 0x00, 0x02, 0x05, 0xFD, 0xFB, 0xFC, 0x06, 0x03, 0xFE,
  0x00, 0x04, 0xFE, 0xFC, 0x00, 0xFB, 0xFA, 0x03, 0xFC, 0xFE, 0x04, 0xFB,
  0x04, 0xFC, 0x03, 0xFD, 0x00, 0xFC, 0xFD, 0x02, 0x05, 0x02, 0x01, 0x02,
  0x01, 0x04, 0xFD, 0x02, 0x00, 0xFD, 0xFB, 0x04, 0x00, 0x03, 0x02, 0xFD,
  0x05, 0xFA, 0xFC, 0xFD, 0x06, 0xFE, 0x02, 0xFC, 0xFC, 0xFE, 0x05, 0x02,
  0x04, 0xFB, 0x05, 0x01, 0x02, 0x00, 0xFF, 0xFD, 0xFD, 0xFE, 0x00, 0x02,
  0xFE, 0x02, 0xFF, 0x02, 0xFE, 0x04, 0x04, 0xFF, 0xFD, 0xFF, 0xFF, 0xFD,
  0xFD, 0xFF, 0xFD, 0xFC, 0x05, 0x02, 0xFE, 0xFE, 0xFC, 0x00, 0xFD, 0x03,
  0xFC, 0xFA, 0x00, 0x00, 0x00, 0xFD, 0xFC, 0x02, 0xFC, 0x04, 0xFE, 0x01,
  0x02, 0x00, 0xFB, 0xFE, 0xFD, 0xFC, 0xFA, 0xFD, 0x04, 0xFB, 0x02, 0xFC,
  0xFD, 0x00, 0xFA, 0xFD, 0xFE, 0xFC, 0x00, 0xFF, 0x01, 0x02, 0x02, 0x05,
  0x00, 0xFC, 0xFC, 0xFB, 0x02, 0xFC, 0xFB, 0xFC, 0x04, 0xFE, 0xFC, 0xFE,
  0x04, 0xF9, 0xFF, 0xFE, 0x03, 0x04, 0x03, 0x01, 0xFE, 0x03, 0xFD, 0xFB,
  0x02, 0x04, 0x01, 0xFC, 0xFF, 0x01, 0x04, 0x05, 0x00, 0xFF, 0xFE, 0x03,
  0xFB, 0x04, 0xFB, 0xFE, 0x02, 0x03, 0x04, 0xFF, 0xFE, 0xFF, 0x03, 0x04,
  0x04, 0x03, 0x03, 0x01, 0x01, 0x00, 0x00, 0xFB, 0xFE, 0xFD, 0xFB, 0x01,
  0x00, 0xFA, 0xFE, 0x04, 0xFF, 0x04, 0x03, 0x02, 0xFC, 0x02, 0x01, 0xFB,
  0xFF, 0x04, 0xFA, 0xFC, 0x00, 0xFE, 0xFD, 0x03, 0x03, 0xFC, 0x02, 0x04,
  0x03, 0x01, 0xFD, 0xFD, 0x06, 0x03, 0x01, 0xFD, 0x00, 0xFD, 0xFD, 0xFD,
  0xFC, 0xFD, 0xFE, 0xFD, 0xFE, 0x05, 0xFB, 0x01, 0x02, 0xFF, 0xFF, 0x01,
  0xFC, 0x03, 0x02, 0x03, 0x00, 0xFF, 0xFA, 0xFD, 0x01, 0x03, 0x01, 0xFF,
  0x04, 0x02, 0xFC, 0xFB, 0xFF, 0x04, 0xFE, 0xFB, 0xFB, 0xFD, 0x04, 0x03,
  0x01, 0x03, 0xFF, 0x00, 0xFD, 0x00, 0x00, 0x01, 0x01, 0xFB, 0xFD, 0x05,
  0xFD, 0xFE, 0xFE, 0x01, 0xFB, 0x03, 0x03, 0xFB, 0x00, 0x00, 0x05, 0xFB,
  0xFE, 0xFF, 0xFB, 0x01, 0xFF, 0xFD, 0xFD, 0x01, 0x01, 0x00, 0xFC, 0xFA,
  0x02, 0xFC, 0xFF, 0x01, 0x00, 0xFD, 0x02, 0x01, 0x03, 0x02, 0xFE, 0xFF,
  0xFE, 0x01, 0xFC, 0x03, 0x03, 0xFD, 0x04, 0xFB, 0x01, 0xFC, 0x04, 0x00,
  0x02, 0xFE, 0xFF, 0x05, 0x02, 0xFC, 0xFB, 0xFD, 0x02, 0x04, 0x01, 0x00,
  0x00, 0xFF, 0x00, 0x01, 0x02, 0xFD, 0x04, 0x01, 0x04, 0xFC, 0x02, 0xFD,
  0x01, 0x00, 0x05, 0xFB, 0x00, 0xFD, 0xFD, 0xFE, 0x03, 0x01, 0x04, 0x02,
  0xFD, 0xFB, 0x02, 0xFB, 0x00, 0x01, 0xFC, 0x00, 0xFE, 0x05, 0xFC, 0x05,
  0x03, 0xFA, 0x04, 0x04, 0x01, 0x02, 0x00, 0xFC, 0x02, 0xFD, 0x02, 0x02,
  0xFF, 0x02, 0xFE, 0xFD, 0x00, 0x00, 0x00, 0xFD, 0xFB, 0x04, 0xFC, 0xFE,
  0x02, 0x04, 0xFD, 0x02, 0x02, 0xFD, 0x00, 0xFB, 0x04, 0x04, 0x04, 0x01,
  0xFF, 0x02, 0x04, 0xFE, 0xFF, 0x01, 0xFF, 0x01, 0x04, 0xFE, 0x04, 0x02,
  0xFE, 0xFB, 0x03, 0x01, 0x03, 0x00, 0xFA, 0x04, 0x02, 0x00, 0x02, 0x02,
  0xFD, 0xFD, 0xFF, 0xFC, 0x03, 0xFF, 0x01, 0x03, 0x01, 0xFD, 0xFD, 0xFB,
  0x03, 0x04, 0x04, 0x02, 0xFD, 0xFF, 0xFB, 0xFD, 0x00, 0x01, 0xFD, 0xFC,
  0xFC, 0xFA, 0xFC, 0x00, 0x05, 0x02, 0xFA, 0x04, 0x04, 0xFC, 0x00, 0xFF,
  0x03, 0x00, 0xFD, 0xFA, 0x05, 0x00, 0x01, 0x03, 0xFE, 0xFD, 0x05, 0x05,
  0xFF, 0x01, 0x03, 0x00, 0xFC, 0x04, 0x00, 0x00, 0xFC, 0x05, 0x00, 0x01,
  0x00, 0x01, 0x01, 0x03, 0x04, 0xFC, 0x04, 0xFD, 0xFB, 0xFF, 0xFC, 0x04,
  0xFB, 0x03, 0xFA, 0x02, 0x04, 0xFC, 0xFC, 0x00, 0x03, 0x05, 0x02, 0x00,
  0x02, 0xFA, 0xFB, 0x00, 0xFD, 0x05, 0xFA, 0x00, 0xFF, 0x02, 0xFE, 0xFE,
  0x02, 0x03, 0xFC, 0x04, 0x02, 0x02, 0xFB, 0x03, 0xFC, 0x06, 0xFD, 0x03,
  0xFE, 0x04, 0xFF, 0x04, 0xFD, 0x04, 0x00, 0xFF, 0x04, 0x02, 0xFD, 0x01,
  0x02, 0xFE, 0x04, 0xFE, 0x05, 0x05, 0xFD, 0xFE, 0xFD, 0xFC, 0x03, 0x00,
  0xFE, 0x02, 0x04, 0x05, 0x01, 0xFB, 0x00, 0x02, 0x00, 0x01, 0xFE, 0xFB,
  0xFF, 0x02, 0xFF, 0xFB, 0xFE, 0x04, 0x00, 0x02, 0xFC, 0x00, 0x01, 0xFD,
  0x04, 0x02, 0xFD, 0xFD, 0x01, 0x04, 0x05, 0x01, 0xFD, 0x01, 0x05, 0x04,
  0x05, 0xFF, 0xFC, 0x00, 0xFD, 0xFB, 0x05, 0xFD, 0x05, 0x00, 0x04, 0x04,
  0x02, 0x02, 0x03, 0xFB, 0x00, 0x00, 0x05, 0xFF, 0xFF, 0x05, 0x05, 0x04,
  0xFF, 0xFC, 0x00, 0x03, 0x05, 0xFF, 0xFB, 0x04, 0xFB, 0x06, 0xFF, 0x05,
  0x04, 0x00, 0x00, 0xFA, 0xFE, 0xFD, 0x02, 0xFB, 0x05, 0xFE, 0x02, 0x04,
  0xFB, 0x04, 0xFB, 0x00, 0x05, 0xFE, 0x04, 0xFC, 0xFB, 0xFE, 0x04, 0x00,
  0xFD, 0xFA, 0xFF, 0xFC, 0xFC, 0xFE, 0x01, 0xFF, 0xFF, 0x00, 0x04, 0x01,
  0x02, 0xFE, 0xFB, 0x04, 0x02, 0x00, 0x03, 0xFC, 0x05, 0xFB, 0xFF, 0x00,
  0x05, 0x04, 0xFA, 0x03, 0x04, 0x05, 0x01, 0xFA, 0xFD, 0x03, 0x01, 0xFB,
  0xFE, 0xFD, 0xFC, 0x00, 0xFE, 0x02, 0xFC, 0x04, 0x05, 0x01, 0x01, 0x00,
  0x05, 0xFF, 0xFD, 0xFF, 0x02, 0xFD, 0x04, 0xFD, 0x02, 0xFB, 0xFE, 0x04,
  0x02, 0x02, 0xFC, 0x01, 0x03, 0x00, 0xFE, 0xFB, 0xFE, 0x04, 0xFD, 0xFE,
  0xFF, 0x02, 0x02, 0xFE, 0x04, 0x05, 0xFE, 0xFA, 0x03, 0xFD, 0x02, 0x04,
  0xFD, 0x02, 0xFE, 0xFC, 0x00, 0x01, 0xFD, 0xFD, 0xFB, 0x00, 0xFE, 0xFD,
  0x05, 0xF9, 0x01, 0xFF, 0x04, 0xFB, 0xFE, 0x02, 0xFF, 0xFB, 0x03, 0x02,
  0x04, 0x03, 0x00, 0xFF, 0x05, 0x00, 0xFD, 0x05, 0x05, 0x05, 0xFC, 0x04,
  0xFC, 0x04, 0xFE, 0x01, 0xFF, 0x05, 0xFD, 0xFE, 0x01, 0xFD, 0x04, 0x01,
  0xFE, 0x02, 0x02, 0x04, 0x00, 0x01, 0x02, 0xFA, 0x04, 0x04, 0xFC, 0x01,
  0x04, 0xFF, 0x03, 0x04, 0x04, 0x04, 0xFB, 0x02, 0x01, 0x01, 0xFD, 0xFD,
  0x00, 0xFC, 0x04, 0xFD, 0x03, 0x01, 0xFF, 0xFB, 0x04, 0xFF, 0x03, 0x04,
  0xFB, 0xFE, 0xFF, 0xFF, 0xFF, 0x05, 0x03, 0x03, 0xFD, 0x04, 0x03, 0xFF,
  0x00, 0x00, 0xFB, 0x03, 0x03, 0xFF, 0xFF, 0xFB, 0xFF, 0xFB, 0x00, 0xFA,
  0x00, 0x04, 0x00, 0xFC, 0xFD, 0xFF, 0xFF, 0x05, 0x02, 0x03, 0xFE, 0xFC,
  0xFC, 0x01, 0x02, 0xFD, 0xFC, 0x02, 0x02, 0x01, 0x00, 0xFD, 0x02, 0xFD,
  0x02, 0xFE, 0xFD, 0xFB, 0x00, 0xFB, 0x02, 0xFB, 0x04, 0x00, 0xFE, 0x05,
  0xFF, 0x03, 0xFB, 0xFC, 0x01, 0xFD, 0xFB, 0xFC, 0x04, 0x03, 0xFE, 0x01,
  0x02, 0x01, 0x04, 0x03, 0x03, 0xFE, 0x02, 0xFE, 0x00, 0x00, 0x03, 0xFF,
  0x01, 0xFD, 0xFD, 0x00, 0x01, 0x05, 0x03, 0x02, 0xFD, 0xFC, 0x05, 0xFB,
  0x01, 0x00, 0x05, 0xFE, 0xFC, 0xFC, 0xFC, 0x03, 0xFB, 0xFE, 0x05, 0xFB,
  0x01, 0xFE, 0xFA, 0xFF, 0x06, 0x02, 0x04, 0x04, 0x04, 0xFE, 0x03, 0x00,
  0x02, 0x04, 0xFB, 0x00, 0x03, 0x05, 0x01, 0x01, 0xFD, 0xFE, 0x02, 0xFB,
  0x05, 0xFC, 0xFD, 0xFC, 0x05, 0x04, 0x04, 0xFE, 0xFC, 0xFE, 0xFE, 0x04,
  0x01, 0xFC, 0x04, 0x01, 0xFC, 0x02, 0x02, 0x05, 0xFE, 0xFD, 0xFF, 0x05,
  0x04, 0x02, 0x04, 0xFB, 0xFD, 0xFF, 0xFB, 0xFD, 0x05, 0xFB, 0x00, 0x01,
  0x00, 0xFF, 0x01, 0xFD, 0x01, 0xFF, 0xFD, 0x03, 0x04, 0xFD, 0x02, 0xFE,
  0x04, 0xFD, 0x01, 0xFB, 0x03, 0xFC, 0xFE, 0x01, 0x05, 0x05, 0xFB, 0x00,
  0x00, 0x02, 0x04, 0xFB, 0x02, 0x01, 0xFF, 0x04, 0x03, 0x02, 0xFE, 0xFE,
  0x01, 0xFC, 0xFE, 0xFE, 0x00, 0x03, 0x04, 0xFD, 0xFF, 0xFE, 0xFD, 0x03,
  0xFE, 0x02, 0x01, 0xFA, 0x04, 0xFB, 0xFE, 0xFF, 0x01, 0x06, 0x01, 0x01,
  0x00, 0x00, 0xFC, 0x04, 0x02, 0xFC, 0xFB, 0x04, 0x01, 0x02, 0xFC, 0xFC,
  0x03, 0xFB, 0x00, 0xFD, 0xFD, 0x01, 0x01, 0xFC, 0x01, 0x03, 0x00, 0xFD,
  0xFB, 0x03, 0xFA, 0xFB, 0xFF, 0x05, 0x02, 0x03, 0xFE, 0x01, 0x04, 0x05,
  0x05, 0x00, 0x03, 0xFB, 0x02, 0xFB, 0x04, 0xFE, 0xFC, 0xFC, 0xFF, 0x05,
  0x02, 0x03, 0x02, 0x03, 0x06, 0xFE, 0x05, 0x02, 0xFB, 0x00, 0x04, 0xFB,
  0xFD, 0x00, 0x04, 0xFF, 0xFD, 0x05, 0xFC, 0xFB, 0xFD, 0x00, 0x02, 0xFD,
  0x04, 0x03, 0x00, 0x04, 0x05, 0x05, 0xFD, 0xFC, 0xFC, 0xFD, 0xFC, 0x01,
  0xFC, 0xFC, 0x02, 0x02, 0x01, 0xFC, 0xFD, 0x02, 0x03, 0xFB, 0xFE, 0x04,
  0xFF, 0x01, 0x05, 0x00, 0x03, 0x05, 0x01, 0x04, 0x04, 0x02, 0x01, 0x00,
  0xFD, 0xFC, 0x01, 0x01, 0x03, 0x04, 0xFE, 0xFC, 0xFE, 0x01, 0x04, 0x03,
  0xFF, 0xFB, 0xFC, 0xFE, 0x06, 0x00, 0x02, 0x04, 0x02, 0x02, 0x05, 0x05,
  0xFF, 0xFC, 0xFA, 0xFA, 0x01, 0x00, 0x01, 0x00, 0x00, 0xFE, 0x04, 0xFD,
  0x04, 0xFC, 0x01, 0x00, 0x02, 0xFD, 0xFE, 0x03, 0x04, 0x06, 0x04, 0x04,
  0x03, 0x00, 0xFD, 0x03, 0x01, 0x05, 0xFA, 0x02, 0x01, 0x04, 0xFF, 0xFB,
  0xFB, 0xFB, 0x03, 0xFD, 0x05, 0x02, 0xFC, 0x03, 0x04, 0x00, 0x04, 0x02,
  0x02, 0xFE, 0xFC, 0x01, 0x05, 0xFC, 0xFD, 0x03, 0x04, 0x01, 0x02, 0xFD,
  0x00, 0x03, 0xFB, 0xFF, 0x04, 0x04, 0xFB, 0x00, 0xFC, 0xFC, 0xFD, 0x02,
  0xFF, 0xFC, 0x05, 0xFC, 0x03, 0x02, 0x02, 0x02, 0xFB, 0xFF, 0x05, 0xFC,
  0xFB, 0xFA, 0x04, 0xFD, 0xFD, 0xFD, 0xFD, 0xFC, 0xFE, 0x01, 0xFD, 0x03,
  0xFF, 0x00, 0x04, 0x00, 0x01, 0x00, 0x02, 0xFD, 0xFC, 0xFF, 0x03, 0x02,
  0x02, 0x03, 0xFA, 0xFD, 0x02, 0x00, 0x00, 0xFF, 0x02, 0x02, 0xFC, 0x04,
  0x05, 0x02, 0x03, 0xFC, 0x05, 0x00, 0x04, 0x02, 0xFC, 0x03, 0x03, 0xFB,
  0xFB, 0x04, 0xFD, 0xFF, 0x01, 0x02, 0x04, 0xFF, 0xFB, 0x06, 0xFB, 0xFA,
  0xFB, 0x04, 0xFB, 0x02, 0x04, 0xFF, 0x02, 0x04, 0xFF, 0xFD, 0x03, 0xFF,
  0x05, 0x01, 0x00, 0xFC, 0xFE, 0x00, 0xFA, 0xFA, 0x02, 0xFE, 0x02, 0x01,
  0xFB, 0xFA, 0xFB, 0xFC, 0x05, 0x04, 0x00, 0xFC, 0xFC, 0xFC, 0xFB, 0x03,
  0x03, 0x03, 0xFD, 0xFB, 0xFE, 0x00, 0x00, 0x01, 0x02, 0xFF, 0x05, 0x04,
  0x04, 0xFF, 0x01, 0x03, 0x05, 0x04, 0x04, 0xFD, 0x00, 0x04, 0xFD, 0x03,
  0xFF, 0xFE, 0xFA, 0xFC, 0xFF, 0xFE, 0xFC, 0xFB, 0x03, 0x01, 0x02, 0x01,
  0x02, 0x04, 0x00, 0x03, 0xFD, 0x05, 0x01, 0x05, 0xFE, 0xFC, 0x01, 0xFB,
  0x01, 0xFF, 0x02, 0xFC, 0xFC, 0x05, 0xFC, 0xFB, 0x05, 0x05, 0xFE, 0x02,
  0x00, 0x03, 0x02, 0xFA, 0xFC, 0x00, 0xFB, 0x00, 0x02, 0x05, 0xFE, 0xFA,
  0x05, 0xFB, 0x02, 0xFC, 0xFC, 0xFC, 0xFE, 0xFF, 0xFD, 0x01, 0x01, 0x00,
  0x05, 0x05, 0x05, 0xFE, 0xFF, 0xFE, 0x04, 0x02, 0xFD, 0xFE, 0x02, 0x03,
  0x01, 0x03, 0xFA, 0x04, 0x01, 0x03, 0x00, 0xFC, 0x03, 0x05, 0xFC, 0xFD,
  0xFD, 0xFD, 0xFC, 0xFF, 0x06, 0x01, 0xFF, 0xFD, 0xFB, 0xFD, 0xFB, 0xFE,
  0x05, 0xFF, 0x03, 0x00, 0x06, 0x02, 0x04, 0xFD, 0xFE, 0xFF, 0xFE, 0xFD,
  0x05, 0xFA, 0x00, 0xFB, 0x02, 0xFE, 0x02, 0xFC, 0x05, 0x06, 0x00, 0xFD,
  0x05, 0xFF, 0xFB, 0xFD, 0x01, 0xFE, 0x02, 0xFE, 0x03, 0xFC, 0x02, 0xFC,
  0x04, 0x02, 0xFC, 0x00, 0xFC, 0xFC, 0x04, 0x02, 0x03, 0xFC, 0x05, 0xFE,
  0x04, 0xFE, 0xFA, 0x04, 0x00, 0x05, 0xFB, 0x00, 0x02, 0xFB, 0xFF, 0xFE,
  0x04, 0x00, 0xFA, 0xFD, 0xFE, 0xFF, 0xFD, 0x04, 0x03, 0xFC, 0x00, 0x03,
  0xFE, 0x04, 0xFD, 0xFA, 0x03, 0xFF, 0xFA, 0x05, 0x00, 0x03, 0xFD, 0xFD,
  0xFF, 0x00, 0xFD, 0xFE, 0x05, 0x02, 0x01, 0x00, 0x05, 0xFE, 0xFC, 0xFC,
  0x01, 0x03, 0xFD, 0x02, 0x01, 0x01, 0xFB, 0x03, 0x00, 0xFD, 0xFB, 0xFF,
  0x04, 0x00, 0x01, 0x03, 0x03, 0x01, 0xFD, 0x01, 0x00, 0x05, 0x04, 0x05,
  0xFF, 0xFC, 0x01, 0xFE, 0xFD, 0xFC, 0xFB, 0xFA, 0xFF, 0xFC, 0xFF, 0xFE,
  0xFC, 0x01, 0xFA, 0xFC, 0x05, 0xFF, 0x03, 0xFD, 0xFF, 0xFC, 0xFD, 0xFD,
  0x02, 0xFE, 0x05, 0x04, 0x02, 0xFD, 0xFA, 0x02, 0xFC, 0xFF, 0x00, 0x01,
  0xFC, 0xFF, 0x02, 0xFF, 0xFF, 0x03, 0xFB, 0xFA, 0x01, 0xFD, 0xFB, 0xFF,
  0xFF, 0xFE, 0x00, 0xFF, 0xFD, 0x00, 0x02, 0xFD, 0x00, 0xFD, 0xFF, 0xFD,
  0xFE, 0xFD, 0xFB, 0xFE, 0x01, 0x02, 0xFC, 0x02, 0x04, 0x00, 0x04, 0xFC,
  0x00, 0xFD, 0xFF, 0xFF, 0x01, 0x01, 0xFA, 0x00, 0x01, 0x00, 0x00, 0xFA,
  0xFF, 0x05, 0x01, 0x00, 0xFB, 0x03, 0xFF, 0x04, 0x04, 0xFD, 0x05, 0xFA,
  0xFE, 0x00, 0x03, 0x01, 0xFD, 0xFF, 0xFE, 0x02, 0xFC, 0x02, 0x00, 0x04,
  0x00, 0x02, 0x03, 0xFA, 0xFE, 0x01, 0xFF, 0x04, 0x02, 0xFF, 0xFF, 0xFF,
  0xFC, 0xFA, 0x02, 0x00, 0xFD, 0x00, 0x00, 0xFD, 0x05, 0x05, 0x02, 0x02,
  0x04, 0xFA, 0xFF, 0xFD, 0x02, 0x01, 0xFB, 0x00, 0x00, 0x00, 0xFD, 0x04,
  0x00, 0xFC, 0xFF, 0x02, 0xFD, 0x02, 0x04, 0x02, 0x01, 0xFE, 0x05, 0xFA,
  0xFD, 0xFA, 0xFF, 0xFF, 0xFB, 0xFD, 0xFF, 0xFE, 0x00, 0x00, 0x05, 0xFA,
  0x00, 0x02, 0xFF, 0xFA, 0x00, 0x05, 0xFE, 0x04, 0x00, 0x04, 0xFD, 0xFE,
  0x01, 0xFD, 0x00, 0x01, 0xFC, 0xFE, 0xFD, 0xFB, 0x04, 0xFB, 0x05, 0xFE,
  0xFE, 0xFF, 0x05, 0x03, 0x05, 0xFF, 0xFD, 0x02, 0x04, 0xFD, 0xFC, 0xFD,
  0x04, 0xFA, 0xFE, 0x02, 0xFD, 0x02, 0xFA, 0xFB, 0xFD, 0xFC, 0x00, 0xFB,
  0xFD, 0xFE, 0x01, 0xFB, 0x05, 0x01, 0x03, 0xFA, 0x05, 0x00, 0xFD, 0x03,
  0x02, 0x03, 0x00, 0xFD, 0xFC, 0xFB, 0xFF, 0xFF, 0x01, 0x01, 0x04, 0xFF,
  0x00, 0xFD, 0x00, 0xFD, 0x00, 0xFD, 0xFE, 0xFA, 0x01, 0x01, 0x03, 0xFC,
  0xFC, 0x00, 0x04, 0x01, 0xFC, 0xFE, 0xFA, 0xFE, 0x01, 0xFD, 0x00, 0x00,
  0x01, 0x02, 0x01, 0xFC, 0x03, 0x04, 0x00, 0xFF, 0x02, 0x04, 0xFC, 0x03,
  0x02, 0x00, 0x00, 0x03, 0xFC, 0xFD, 0xFB, 0x01, 0xFD, 0xFF, 0x04, 0xFC,
  0x03, 0x03, 0xFF, 0x03, 0xFE, 0xFF, 0x01, 0xFF, 0x05, 0x01, 0x04, 0xFE,
  0xFB, 0xFB, 0xFC, 0xFC, 0x05, 0x04, 0x05, 0xFC, 0x04, 0x04, 0x02, 0xFC,
  0xFE, 0x00, 0xFE, 0x04, 0xFF, 0x00, 0xFC, 0x02, 0x02, 0x05, 0xFD, 0x00,
  0xFB, 0xFB, 0x03, 0x01, 0x28, 0x03, 0x1C, 0xFE, 0xFE, 0x0E, 0xE2, 0x1F,
  0x16, 0x19, 0x04, 0x20, 0x30, 0x03, 0x29, 0xFB, 0xDD, 0xDF, 0xF0, 0x0C,
  0x20, 0x10, 0x0F, 0x0F, 0x06, 0x00, 0xFE, 0x02, 0x12, 0x0E, 0x12, 0x08,
  0x0E, 0x06, 0x16, 0x03, 0xDF, 0x02, 0xD9, 0xFD, 0x04, 0xFE, 0xFF, 0x05,
  0xEF, 0xFC, 0x08, 0x02, 0xE2, 0x03, 0xD8, 0x03, 0xFC, 0xF2, 0xFC, 0xFF,
  0xF5, 0xFC, 0xFC, 0x00, 0xE6, 0x04, 0xD6, 0xFA, 0xFA, 0xF7, 0xF5, 0x04,
  0xFD, 0x04, 0xF2, 0x01, 0xFA, 0xFC, 0xED, 0x03, 0x08, 0x03, 0x00, 0x03,
  0xFC, 0x04, 0xFF, 0x0B, 0x08, 0x03, 0x07, 0x03, 0xE0, 0xD9, 0xDD, 0x07,
  0x0E, 0x0A, 0xF2, 0x0B, 0xDB, 0xFD, 0xD3, 0x04, 0xEB, 0xF1, 0xEA, 0x03,
  0xEF, 0x02, 0xF2, 0x04, 0xEB, 0xFD, 0xF6, 0x04, 0x02, 0x00, 0xE6, 0x09,
  0xFD, 0x06, 0x07, 0x0A, 0xDE, 0xFE, 0xE8, 0xFF, 0x01, 0x07, 0xF0, 0x00,
  0xF2, 0xFD, 0x0F, 0x03, 0xE9, 0x02, 0xEE, 0xFE, 0xD3, 0xDC, 0xD0, 0x04,
  0xF4, 0xFA, 0xF6, 0x00, 0xE3, 0x03, 0xF1, 0x04, 0xB9, 0xBA, 0xC5, 0x07,
  0xEF, 0xFB, 0xEA, 0x05, 0xEF, 0x02, 0xF7, 0x01, 0xD7, 0xE0, 0xDC, 0x09,
  0xF7, 0x06, 0xF3, 0x04, 0x20, 0x04, 0x24, 0x04, 0xDF, 0xDC, 0xD5, 0x0A,
  0x17, 0x0B, 0xED, 0x0E, 0x1C, 0x02, 0x12, 0x04, 0xC5, 0xCF, 0xD7, 0x0A,
  0x07, 0x0A, 0xF1, 0x08, 0xE3, 0xFF, 0xD8, 0x01, 0x0E, 0x11, 0x11, 0xFD,
  0xEF, 0xFC, 0x13, 0x07, 0x0B, 0x01, 0x05, 0xFA, 0xF8, 0xEB, 0xE9, 0xFC,
  0x04, 0x02, 0x08, 0xFF, 0x13, 0x00, 0x16, 0x05, 0x19, 0x08, 0x13, 0x09,
  0x0C, 0x07, 0x15, 0x05, 0xED, 0xFD, 0xE4, 0x02, 0xF7, 0xF8, 0xFF, 0xF4,
  0xE1, 0xDB, 0xF9, 0xEF, 0x08, 0xFD, 0xFC, 0x02, 0x14, 0x0C, 0x09, 0xF8,
  0x03, 0xF7, 0x0F, 0xE6, 0xFD, 0x03, 0xF4, 0x04, 0xFD, 0xE2, 0xF8, 0x04,
  0x04, 0xFC, 0xE3, 0xFC, 0xF7, 0x05, 0xF6, 0x01, 0xF4, 0xED, 0xFC, 0xFC,
  0xFA, 0x04, 0x06, 0xED, 0xEE, 0xFE, 0xF4, 0x03, 0xED, 0xD6, 0xED, 0xF1,
  0xE9, 0xFB, 0xE5, 0xDA, 0xEC, 0xFD, 0xEF, 0x04, 0xDE, 0xCA, 0xEB, 0xF2,
  0xF2, 0xF4, 0xE3, 0xE0, 0xFB, 0x01, 0x0E, 0x01, 0xF4, 0xDF, 0xF1, 0x0A,
  0x07, 0x0D, 0xE1, 0xFD, 0xFF, 0xFB, 0x0A, 0x05, 0x10, 0x12, 0x05, 0x03,
  0xFA, 0x0B, 0x19, 0xF9, 0xC6, 0xFE, 0xB6, 0x01, 0xD3, 0xAC, 0xED, 0xDD,
  0xC3, 0xD8, 0xB0, 0xC9, 0xBE, 0xFC, 0xB9, 0x05, 0xFD, 0xE5, 0xF9, 0xCE,
  0xC0, 0xC5, 0xE6, 0xB8, 0xFD, 0xFF, 0x03, 0xFB, 0xF5, 0xDB, 0xF2, 0xF6,
  0xFD, 0xFA, 0xF0, 0xF8, 0x09, 0x04, 0x1A, 0xFC, 0xEB, 0xDE, 0xEB, 0xFD,
  0x15, 0x0B, 0xD7, 0x04, 0x02, 0xFC, 0x00, 0xFD, 0xE8, 0xF4, 0xE4, 0xF7,
  0x00, 0xFA, 0xF5, 0xF9, 0x07, 0xFF, 0x10, 0xFE, 0xE9, 0xD9, 0xE8, 0x00,
  0x06, 0x07, 0xE8, 0x0D, 0x06, 0xFF, 0x1A, 0xFE, 0xD7, 0xC7, 0xE4, 0x02,
  0x11, 0x0C, 0xE1, 0x0C, 0x12, 0xFC, 0x16, 0xFD, 0xFA, 0xE0, 0xF7, 0x04,
  0x08, 0x0C, 0xFA, 0x05, 0x1D, 0xFB, 0x23, 0xFE, 0xE6, 0xBD, 0xE7, 0x1E,
  0x18, 0x1E, 0xC5, 0x10, 0xE3, 0xFB, 0xD8, 0xFD, 0x08, 0xE9, 0xFA, 0xF1,
  0xE5, 0xEA, 0xEC, 0xD6, 0xE4, 0x01, 0xD8, 0xFF, 0x09, 0xE6, 0xFC, 0xE8,
  0xE0, 0xE6, 0xD2, 0xE6, 0x03, 0xFC, 0xFF, 0xFD, 0x12, 0x13, 0x0E, 0xFF,
  0x05, 0xFC, 0x0F, 0xFE, 0xFA, 0x04, 0xF6, 0x03, 0x04, 0x08, 0x06, 0x0B,
  0x10, 0x07, 0xFE, 0x11, 0xFE, 0x02, 0xF0, 0x04, 0x0A, 0x0E, 0x15, 0xF3,
  0xFC, 0xFB, 0x0D, 0xF3, 0xF9, 0x04, 0xF9, 0x01, 0xF8, 0x02, 0xF6, 0x02,
  0x04, 0xFB, 0x00, 0x06, 0xFA, 0xFC, 0xF5, 0xFC, 0xFF, 0xF7, 0xFC, 0x05,
  0x09, 0xFE, 0x18, 0x0C, 0x01, 0x01, 0x01, 0x00, 0x0F, 0x12, 0x0C, 0x0A,
  0x0B, 0x04, 0x17, 0x0A, 0xFD, 0x05, 0xED, 0xFA, 0x0B, 0x02, 0x07, 0xFF,
  0xF0, 0xF3, 0x19, 0xF9, 0xFB, 0x05, 0xEC, 0xFC, 0xFF, 0xEF, 0xF8, 0xFE,
  0xF8, 0xF3, 0x04, 0xFD, 0xFA, 0xFF, 0xF8, 0x03, 0x06, 0x04, 0x02, 0xF9,
  0xF9, 0xF7, 0x0E, 0xF9, 0xF7, 0xFB, 0xF4, 0xFC, 0xEC, 0xE0, 0xF8, 0xF3,
  0xF7, 0xF3, 0xD6, 0xEC, 0xF4, 0xFE, 0xFF, 0xFD, 0x02, 0xFE, 0x08, 0xF1,
  0xFE, 0xF6, 0x06, 0xEC, 0xFC, 0x00, 0x02, 0xFF, 0xD5, 0xCD, 0xE2, 0xFA,
  0x02, 0xFC, 0xE1, 0xFB, 0xF5, 0x03, 0xF6, 0xFD, 0xDC, 0xD0, 0xD8, 0xFB,
  0xFD, 0xF8, 0xD7, 0xF7, 0xF8, 0x01, 0xF5, 0x03, 0xF6, 0xE6, 0xEF, 0xF1,
  0xFA, 0xF9, 0x14, 0xF4, 0xEC, 0xFC, 0xF3, 0x04, 0xE4, 0xED, 0xE3, 0xEE,
  0xF6, 0xF2, 0xFB, 0xED, 0x01, 0xFD, 0x0B, 0x05, 0xF1, 0xF5, 0xEC, 0xFD,
  0x05, 0xFC, 0x04, 0xFC, 0x02, 0x00, 0x0B, 0x01, 0xF4, 0xF5, 0xF5, 0x08,
  0x0E, 0x0C, 0x1D, 0x0A, 0xFD, 0xFF, 0xFF, 0xFD, 0x06, 0xFB, 0xFC, 0x02,
  0x05, 0xFF, 0xFF, 0x02, 0x01, 0xFD, 0x05, 0x03, 0xE3, 0xA8, 0xE9, 0xFD,
  0x0A, 0x02, 0xAE, 0x05, 0xDB, 0x00, 0xDC, 0x03, 0xD9, 0xA4, 0xE1, 0xEB,
  0xDB, 0xEB, 0xAA, 0xCD, 0x0A, 0x03, 0x0C, 0x01, 0x02, 0xF9, 0xF4, 0x06,
  0x0D, 0x12, 0x0B, 0x07, 0xFE, 0xFF, 0x02, 0xFC, 0xF5, 0x05, 0x01, 0x0E,
  0xF5, 0x0A, 0xF6, 0x00, 0x17, 0x01, 0x15, 0x03, 0x12, 0x15, 0x18, 0x02,
  0x15, 0x11, 0x0B, 0x13, 0x12, 0xFE, 0x0C, 0xFC, 0xFE, 0x04, 0xF6, 0x0E,
  0x0B, 0x07, 0x04, 0x07, 0x17, 0x04, 0x0D, 0xFB, 0x13, 0x1F, 0x08, 0x0F,
  0x11, 0x0F, 0x26, 0x13, 0x03, 0x03, 0x03, 0xFF, 0x22, 0x29, 0x1A, 0xFF,
  0x01, 0x07, 0x26, 0x03, 0x02, 0xFF, 0xFB, 0xFE, 0x01, 0x00, 0xF3, 0xF6,
  0xFD, 0xF7, 0x1D, 0xF3, 0xF2, 0x03, 0xEB, 0x03, 0xF2, 0xF4, 0xF5, 0xEE,
  0xEE, 0xF5, 0xEE, 0xF4, 0x02, 0xFB, 0xFE, 0x01, 0x06, 0x07, 0x06, 0xF9,
  0x01, 0xF6, 0x1C, 0x00, 0xFC, 0xFF, 0xF9, 0x00, 0xD1, 0xBA, 0xCD, 0xF8,
  0xF9, 0xF9, 0xD7, 0xF7, 0x08, 0x00, 0x0A, 0xFE, 0xE7, 0xE7, 0xF5, 0x0D,
  0x0C, 0x00, 0xE8, 0x05, 0xF5, 0x04, 0xF8, 0x02, 0xE3, 0xD4, 0xD8, 0xF9,
  0xF4, 0xF5, 0xDC, 0xF2, 0xEF, 0x04, 0xE8, 0x03, 0xF8, 0xE7, 0xDF, 0xE7,
  0xEA, 0xEC, 0xE8, 0xF4, 0xF1, 0x03, 0xED, 0x01, 0x09, 0xF8, 0x00, 0xF5,
  0xEE, 0xF2, 0x05, 0xF2, 0xF4, 0x02, 0xFA, 0x01, 0x00, 0xFA, 0xF6, 0xF2,
  0xFB, 0xFA, 0x11, 0xFA, 0xFD, 0x00, 0x02, 0xFC, 0xEF, 0xEF, 0xEE, 0xFB,
  0x06, 0xF5, 0x10, 0x03, 0xF8, 0xFC, 0xFD, 0x03, 0xEA, 0xE2, 0xE5, 0xEE,
  0xFC, 0xF9, 0x04, 0x01, 0xFA, 0x04, 0xF8, 0x03, 0xF7, 0xF2, 0xFB, 0xF3,
  0xF4, 0xF1, 0xF4, 0xF7, 0xE2, 0xFD, 0xDC, 0x02, 0xD9, 0xB2, 0xE4, 0xEC,
  0xEE, 0xE9, 0xCD, 0xE3, 0xCD, 0xFF, 0xD0, 0xFD, 0xE5, 0xC5, 0xF0, 0xE5,
  0xCC, 0xE4, 0xD9, 0xC7, 0xFE, 0xFF, 0xF7, 0xFE, 0xFB, 0xE8, 0xF0, 0x04,
  0xFD, 0x05, 0xFC, 0xF8, 0xE8, 0xFC, 0xF2, 0xFA, 0xFF, 0x05, 0xFB, 0xD7,
  0xC7, 0xCD, 0xFC, 0xF0, 0x21, 0x05, 0x1E, 0xFC, 0x05, 0x05, 0x06, 0x0F,
  0x18, 0x15, 0x0F, 0x1E, 0x10, 0x03, 0x17, 0x03, 0xE6, 0xD6, 0xE9, 0x15,
  0x15, 0x0C, 0xE9, 0x1B, 0x07, 0xFD, 0x07, 0xFD, 0xE9, 0xE4, 0xE4, 0x0D,
  0x09, 0x06, 0x03, 0x0D, 0xFE, 0x04, 0x04, 0x00, 0x00, 0xFF, 0xF4, 0xFC,
  0x02, 0x03, 0x16, 0x00, 0x04, 0xFE, 0x05, 0xFF, 0xE0, 0xD4, 0xE9, 0x00,
  0x03, 0x02, 0xFD, 0x01, 0xED, 0xFD, 0xF7, 0xFD, 0xEE, 0xE1, 0xEA, 0xF2,
  0xFD, 0xFC, 0xEC, 0xF6, 0xFC, 0xFE, 0xFA, 0xFD, 0x04, 0xFD, 0xF6, 0xFD,
  0xFA, 0xF7, 0x0B, 0xFC, 0xFC, 0xFB, 0xF8, 0xFC, 0xDC, 0xDB, 0xDF, 0xFA,
  0xF4, 0xF6, 0xE7, 0x01, 0xFB, 0xFD, 0xF3, 0x04, 0xFA, 0xFB, 0x07, 0xF4,
  0xF5, 0xF1, 0xE8, 0xEA, 0xF5, 0x02, 0xF5, 0xFA, 0xFB, 0xFA, 0xF8, 0xF5,
  0xF5, 0x05, 0xF8, 0xFA, 0x00, 0xFE, 0xFF, 0xFB, 0x20, 0x1A, 0x0B, 0x05,
  0xFD, 0x08, 0x24, 0x02, 0xFB, 0xFD, 0x00, 0x02, 0xFA, 0xFC, 0x02, 0xF6,
  0xFA, 0xFB, 0xE7, 0xF6, 0xF9, 0x02, 0xF0, 0xFB, 0x15, 0x09, 0x01, 0xF9,
  0xF4, 0xED, 0xFD, 0xF4, 0xF3, 0xFD, 0xF3, 0xFF, 0xE7, 0xDF, 0xE0, 0xEF,
  0xF8, 0xEE, 0xE3, 0xF0, 0xF3, 0x01, 0xE7, 0x04, 0xF2, 0xE7, 0xE6, 0xF7,
  0xF6, 0xE8, 0x0A, 0xF2, 0xE4, 0xFC, 0xDD, 0x03, 0xDD, 0xD0, 0xE3, 0xDD,
  0xE6, 0xE1, 0xE9, 0xE0, 0xC4, 0x02, 0xB9, 0x04, 0xED, 0xD8, 0xE8, 0xCA,
  0xBF, 0xC2, 0xE2, 0xC2, 0xE7, 0xFE, 0xDF, 0x03, 0xF0, 0xDE, 0xF2, 0xF3,
  0xEA, 0xED, 0xEF, 0xE4, 0x11, 0x02, 0x09, 0xFB, 0x28, 0x2A, 0x14, 0x09,
  0x10, 0x0B, 0x3A, 0x10, 0xFD, 0x01, 0x00, 0xFF, 0x01, 0x14, 0x0B, 0x1A,
  0xE7, 0x09, 0x00, 0x00, 0x17, 0xFF, 0x14, 0x01, 0x27, 0x29, 0x10, 0x04,
  0x15, 0x0C, 0x16, 0x0F, 0x15, 0xFC, 0x12, 0x00, 0xEB, 0xD5, 0xEE, 0x12,
  0x18, 0x13, 0xE1, 0x15, 0x0E, 0x05, 0x12, 0x04, 0xE6, 0xDC, 0xDE, 0x11,
  0x1C, 0x15, 0xF0, 0x15, 0x18, 0xFF, 0x1A, 0x05, 0xEF, 0xFC, 0xEF, 0x20,
  0x1A, 0x18, 0x10, 0x1F, 0x07, 0x04, 0x03, 0x03, 0xE3, 0xE1, 0xE4, 0x04,
  0x0D, 0x0A, 0xEA, 0x09, 0x04, 0x05, 0x04, 0x03, 0x00, 0x03, 0xFB, 0x07,
  0x05, 0x06, 0x20, 0x05, 0xFC, 0x00, 0xFA, 0xFF, 0x01, 0x01, 0xF6, 0xFE,
  0x01, 0xFB, 0x00, 0x03, 0xFF, 0x01, 0xF6, 0xFE, 0xFB, 0x07, 0x0A, 0xF7,
  0xFF, 0xFD, 0x21, 0xF5, 0x03, 0xFB, 0xFB, 0x03, 0x09, 0x01, 0x0E, 0x03,
  0xF9, 0x01, 0x04, 0xFC, 0xFC, 0x01, 0xEB, 0x01, 0xF5, 0xED, 0xF4, 0xF8,
  0xEF, 0xEE, 0xF1, 0xEF, 0x07, 0x01, 0x04, 0x00, 0x07, 0x09, 0x05, 0x10,
  0xFD, 0x02, 0x16, 0x0A, 0xFF, 0x04, 0xFE, 0x01, 0xDF, 0xDF, 0xE0, 0x0B,
  0xFE, 0xFE, 0xD2, 0x01, 0xF9, 0xFD, 0xF6, 0x02, 0xFF, 0xF6, 0x00, 0x00,
  0xFC, 0xF4, 0x09, 0x02, 0xFE, 0xFB, 0xFF, 0xFB, 0x14, 0x0F, 0x09, 0x00,
  0x04, 0x00, 0x0A, 0x07, 0xFA, 0x00, 0xF1, 0xFC, 0xF4, 0xFC, 0xF9, 0xFB,
  0xFE, 0xF0, 0x0C, 0xF6, 0xF3, 0xFE, 0xFD, 0xFC, 0xFD, 0xED, 0xF9, 0xFD,
  0xFE, 0xF4, 0xFE, 0xF4, 0xD1, 0xFB, 0xDA, 0x01, 0xF8, 0xF9, 0xF5, 0xE0,
  0xD3, 0xDC, 0xF0, 0xD0, 0xCC, 0x00, 0xC8, 0xFE, 0x14, 0x0E, 0x0B, 0xDB,
  0xCE, 0xD5, 0x05, 0xCA, 0xE2, 0xFF, 0xE8, 0x00, 0x21, 0x2D, 0x0D, 0xEA,
  0xE1, 0xE5, 0x35, 0xE3, 0xFA, 0x00, 0x0A, 0x02, 0x05, 0x12, 0x06, 0x07,
  0x05, 0xF9, 0x01, 0xF9, 0x17, 0x05, 0x15, 0x01, 0x27, 0x41, 0x12, 0x17,
  0x1C, 0x0E, 0x2B, 0x15, 0x0F, 0xFC, 0x07, 0xFC, 0x13, 0x14, 0x15, 0x0C,
  0x0B, 0x02, 0x29, 0x0F, 0x05, 0xFE, 0xFA, 0x01, 0x24, 0x2C, 0x21, 0x05,
  0xFC, 0xFB, 0x43, 0x01, 0x06, 0x01, 0xFB, 0x05, 0x09, 0x08, 0x11, 0x0E,
  0xFF, 0x01, 0x00, 0x09, 0x02, 0x04, 0xF2, 0xFF, 0x0C, 0x0C, 0x0C, 0x07,
  0xFE, 0xF9, 0x11, 0x06, 0xFF, 0x03, 0xF7, 0xFC, 0x28, 0x2E, 0x25, 0x06,
  0x00, 0xFD, 0x15, 0x04, 0xFA, 0x04, 0xFF, 0xFD, 0xF6, 0xF5, 0xF6, 0xF5,
  0xFA, 0xFD, 0xED, 0xFE, 0xEE, 0xFD, 0xED, 0xFF, 0xFD, 0x00, 0xF0, 0xED,
  0xF1, 0xEB, 0xFF, 0xE8, 0xF8, 0x05, 0xF5, 0xFB, 0xF4, 0xEA, 0xF5, 0xEF,
  0x00, 0xF1, 0xD2, 0xF0, 0xF1, 0xFF, 0xF1, 0x02, 0xD9, 0xD2, 0xEA, 0xEF,
  0xFE, 0xFB, 0xDE, 0xF7, 0xFC, 0xFD, 0xFD, 0x01, 0xED, 0xEE, 0xF8, 0xFA,
  0x06, 0x02, 0xEF, 0xFF, 0x03, 0xFC, 0x06, 0xFB, 0xF1, 0xEA, 0xEF, 0xFE,
  0x07, 0x05, 0xF4, 0x08, 0xF7, 0xFD, 0xFD, 0x02, 0xF2, 0xF0, 0xF1, 0xF3,
  0xFF, 0xF8, 0x14, 0xF4, 0xF1, 0xFE, 0xF3, 0x03, 0x04, 0x0B, 0x0B, 0xE9,
  0xF1, 0xF0, 0x29, 0xE9, 0xEE, 0xFB, 0xF3, 0xFD, 0xEE, 0xDC, 0xEA, 0xEF,
  0xF7, 0xF1, 0xEC, 0xF4, 0xF1, 0x04, 0xFA, 0xFD, 0xF3, 0xF6, 0xFB, 0xF6,
  0xF3, 0xF3, 0xEC, 0xF3, 0xE7, 0x00, 0xE5, 0xFD, 0xF9, 0x01, 0xF2, 0xEA,
  0xE7, 0xE9, 0x00, 0xE4, 0xF6, 0x02, 0x01, 0x03, 0x00, 0x06, 0xFE, 0xFC,
  0xF8, 0x00, 0x10, 0xF5, 0x07, 0xFB, 0x12, 0xFB, 0xFD, 0xEF, 0xFB, 0x01,
  0x04, 0x05, 0xF4, 0x06, 0xFB, 0xFD, 0xF5, 0xFF, 0xFF, 0x0C, 0x02, 0xFE,
  0x03, 0xF5, 0xF9, 0xFB, 0xFB, 0x01, 0x02, 0x02, 0xFE, 0x07, 0x01, 0xFF,
  0xFD, 0xFE, 0x14, 0xFC, 0xFB, 0x02, 0x04, 0x05, 0x0F, 0x0E, 0x0D, 0xFF,
  0xFE, 0x01, 0x01, 0x01, 0xF4, 0x04, 0xEB, 0xFF, 0xDF, 0xD5, 0xF9, 0xFA,
  0xF1, 0xF2, 0xDA, 0xF9, 0xF4, 0x01, 0xF5, 0xFA, 0xF4, 0xED, 0x04, 0xFD,
  0xFC, 0xFE, 0xDE, 0xFE, 0xEB, 0x03, 0xEA, 0xFE, 0x2D, 0x27, 0x28, 0xE6,
  0xF1, 0xE7, 0x35, 0xEC, 0xFC, 0xFC, 0x00, 0xFC, 0x0D, 0x0C, 0x16, 0xF3,
  0xF8, 0xF6, 0xFA, 0xF6, 0xF5, 0x01, 0xF5, 0x02, 0x04, 0xFC, 0x0B, 0xF5,
  0xFE, 0xF8, 0xEE, 0xFB, 0xFC, 0x05, 0x05, 0xFC, 0x11, 0x0F, 0x06, 0xFA,
  0x02, 0xFC, 0x11, 0x01, 0x04, 0x03, 0x11, 0x04, 0x1E, 0x1B, 0x25, 0x00,
  0x11, 0x0C, 0x33, 0x0A, 0x07, 0xFF, 0x12, 0xFD, 0xFA, 0xEE, 0xFB, 0xFC,
  0x0C, 0x0D, 0xF6, 0x00, 0x14, 0x02, 0x13, 0xFE, 0xFA, 0xFB, 0x02, 0x12,
  0x1F, 0x12, 0x0A, 0x12, 0x11, 0xFE, 0x10, 0x01, 0xFC, 0xFD, 0xFF, 0x07,
  0x18, 0x0D, 0x02, 0x0C, 0xF7, 0x03, 0xF7, 0x02, 0xF7, 0xF5, 0xFD, 0xFC,
  0x00, 0xF4, 0x21, 0xFC, 0xEC, 0x00, 0xF1, 0x02, 0xE3, 0xE5, 0xFA, 0xEA,
  0xF0, 0xF0, 0x02, 0xF0, 0xF7, 0xFF, 0xF4, 0xFC, 0xEA, 0xDB, 0xF1, 0xF6,
  0xFA, 0xF8, 0xF5, 0xF4, 0xD3, 0x05, 0xCE, 0x00, 0xFF, 0xE0, 0xFD, 0xDE,
  0xD9, 0xDA, 0xE2, 0xDE, 0xD7, 0x00, 0xCC, 0xFC, 0xFF, 0x06, 0xF9, 0xDB,
  0xCE, 0xDE, 0x1A, 0xCE, 0xEF, 0xFD, 0xF0, 0x03, 0xF3, 0xD5, 0xF0, 0xEF,
  0xF1, 0xEC, 0xF1, 0xF4, 0xF2, 0x00, 0xE9, 0xFE, 0x13, 0x2B, 0x09, 0xEF,
  0xF5, 0xF3, 0x25, 0xF3, 0x02, 0xFD, 0xF5, 0xFA, 0x00, 0xFF, 0x04, 0xF1,
  0xDD, 0xEF, 0x02, 0xFB, 0x10, 0x02, 0x12, 0x04, 0xF9, 0xFB, 0xFE, 0x10,
  0x16, 0x15, 0x17, 0x0B, 0xF5, 0x00, 0xFF, 0xFD, 0x06, 0xFC, 0xFB, 0xFA,
  0xFD, 0xFF, 0x1C, 0x00, 0xFA, 0x02, 0xFE, 0x02, 0x0D, 0xFE, 0x05, 0xFE,
  0x05, 0xFC, 0x03, 0xFD, 0xF3, 0xFC, 0xFD, 0xFF, 0xF5, 0xDD, 0xE4, 0xFB,
  0xF4, 0xF6, 0xD5, 0xFE, 0xFA, 0x00, 0xF5, 0xFF, 0xC7, 0xB9, 0xCB, 0xFD,
  0x02, 0xF9, 0xC1, 0xFD, 0xF5, 0xFD, 0xFD, 0x00, 0x00, 0x08, 0x03, 0xFE,
  0x06, 0x00, 0xFC, 0xFE, 0xFB, 0xFC, 0x02, 0xFB, 0x28, 0x24, 0x1B, 0xFE,
  0x09, 0x08, 0x20, 0x07, 0xFE, 0xFD, 0xFD, 0xFE, 0xF1, 0xDD, 0xF2, 0x0C,
  0x11, 0x0A, 0xCB, 0x19, 0x09, 0x04, 0x00, 0xFA, 0x10, 0x09, 0x19, 0x11,
  0x1B, 0x09, 0x0A, 0x1B, 0xFF, 0x05, 0xFD, 0x04, 0x04, 0x00, 0x0A, 0x0D,
  0x0D, 0xFD, 0xF5, 0x18, 0xFF, 0x05, 0xFE, 0xFB, 0x05, 0x06, 0x0C, 0x0E,
  0x19, 0x0A, 0xFF, 0x1D, 0xF9, 0xFC, 0x00, 0x04, 0x2A, 0x22, 0x24, 0x01,
  0x13, 0x00, 0x13, 0x09, 0x0B, 0xFC, 0x15, 0x03, 0x15, 0x16, 0x0C, 0x0E,
  0x14, 0x0F, 0x2F, 0x10, 0x0C, 0x05, 0x04, 0x05, 0xFC, 0xFE, 0xF4, 0x02,
  0x09, 0x09, 0x03, 0x07, 0xF0, 0xFC, 0xF3, 0x00, 0xFC, 0xFD, 0xFD, 0xF2,
  0xF0, 0xF3, 0x0E, 0xF3, 0xE0, 0x05, 0xE6, 0x02, 0xF6, 0xE0, 0xF4, 0xF2,
  0xE9, 0xF7, 0xEB, 0xEB, 0xB0, 0xFC, 0xA5, 0x01, 0xED, 0xDC, 0xEE, 0xCD,
  0xAC, 0xC2, 0xEA, 0xA2, 0xC5, 0x03, 0xBF, 0x05, 0xF5, 0xE3, 0xF0, 0xDF,
  0xC3, 0xD0, 0xED, 0xB7, 0xDC, 0xFD, 0xE0, 0xFD, 0x08, 0x0C, 0xFB, 0xE3,
  0xE3, 0xE3, 0x14, 0xD7, 0x04, 0x05, 0xF8, 0xFE, 0xFB, 0xFF, 0xFF, 0xF2,
  0xFB, 0x00, 0xFF, 0xF7, 0x0E, 0x05, 0x06, 0x01, 0xF9, 0xF3, 0xFE, 0xFC,
  0x07, 0xFB, 0x04, 0xFC, 0xF6, 0x05, 0x02, 0x00, 0xFD, 0xF7, 0xF5, 0xFA,
  0x01, 0xF8, 0xF2, 0x02, 0x11, 0x05, 0x0E, 0x00, 0x20, 0x19, 0x16, 0x09,
  0x1A, 0x0C, 0x0C, 0x15, 0xFE, 0xFE, 0x0B, 0x02, 0x0D, 0x06, 0xFF, 0x03,
  0x08, 0x04, 0xF6, 0x0F, 0x00, 0x04, 0x03, 0x05, 0x07, 0x06, 0x08, 0xFC,
  0x0A, 0xFA, 0x01, 0x08, 0x01, 0x02, 0x02, 0xFF, 0x13, 0x11, 0x15, 0x03,
  0x0C, 0x01, 0xFE, 0x06, 0x0D, 0x05, 0x12, 0xFB, 0x2A, 0x2B, 0x23, 0x0C,
  0x11, 0x0E, 0x23, 0x0D, 0xFD, 0x00, 0xFD, 0xFA, 0x03, 0xF4, 0x04, 0xFA,
  0xFE, 0x02, 0xCC, 0xFB, 0x15, 0x04, 0x19, 0x04, 0xE0, 0xE8, 0xFC, 0x17,
  0x0C, 0x15, 0xF5, 0x17, 0x2A, 0xFE, 0x2B, 0x05, 0x20, 0x18, 0x17, 0x2B,
  0x2B, 0x24, 0x0A, 0x31, 0x1E, 0x05, 0x1C, 0xFE, 0x29, 0x2D, 0x24, 0x16,
  0x1A, 0x22, 0x28, 0x22, 0xFC, 0x03, 0xFE, 0xFE, 0x1A, 0x1D, 0x16, 0x04,
  0xFA, 0xFB, 0x02, 0x01, 0xF6, 0xFB, 0xF6, 0x04, 0x1D, 0x29, 0x11, 0x04,
  0x03, 0xFF, 0x31, 0x0E, 0xFD, 0x04, 0xF9, 0x05, 0x0A, 0x0F, 0x06, 0xF2,
  0xF9, 0xF1, 0x00, 0xFE, 0xE9, 0xFC, 0xEF, 0x05, 0x06, 0x04, 0x05, 0xEA,
  0xE4, 0xE8, 0x05, 0xEA, 0xD4, 0xFF, 0xD2, 0xFE, 0xDE, 0xDA, 0xF4, 0xDA,
  0xD7, 0xD5, 0xEB, 0xD5, 0xA7, 0x04, 0x94, 0x04, 0xEF, 0xE6, 0xF8, 0xCA,
  0xA4, 0xB8, 0xE9, 0x93, 0xB5, 0x00, 0xAC, 0x05, 0xFD, 0xD4, 0xF7, 0xDA,
  0xBB, 0xCB, 0xE4, 0xAE, 0xDD, 0xFE, 0xDD, 0xFA, 0xDF, 0xCF, 0xE8, 0xE8,
  0xE5, 0xEB, 0xCF, 0xE4, 0x07, 0xFD, 0x08, 0xFC, 0xFE, 0xEE, 0x06, 0x08,
  0x22, 0x05, 0xFE, 0x01, 0x04, 0xFD, 0x07, 0xFF, 0x24, 0x2F, 0x1A, 0xF1,
  0x03, 0x06, 0x11, 0x08, 0x06, 0x05, 0x03, 0x03, 0xFF, 0xF9, 0xFE, 0xFC,
  0x00, 0x01, 0x1A, 0x00, 0x02, 0x03, 0x0B, 0xFC, 0x1A, 0x0E, 0x1B, 0x08,
  0x09, 0x05, 0xFC, 0x0B, 0x0C, 0x00, 0x12, 0x04, 0x09, 0xF2, 0xFF, 0x13,
  0x17, 0x0D, 0xF3, 0x12, 0x07, 0xFE, 0x04, 0xFA, 0x0D, 0x0A, 0x03, 0x09,
  0x05, 0x07, 0x03, 0x12, 0x17, 0xFC, 0x20, 0xFE, 0x13, 0x10, 0x0E, 0x1B,
  0x1B, 0x1E, 0x04, 0x26, 0x22, 0xFB, 0x29, 0x01, 0x29, 0x3D, 0x26, 0x27,
  0x2C, 0x25, 0x13, 0x27, 0x05, 0xFE, 0x04, 0x02, 0xF4, 0xFC, 0xFC, 0x0D,
  0x0E, 0x06, 0xDA, 0x10, 0xED, 0x05, 0xF5, 0xFA, 0x00, 0x0A, 0x0A, 0xF8,
  0xEF, 0xF0, 0xF9, 0xF3, 0xE8, 0x00, 0xE6, 0x02, 0x19, 0x12, 0x12, 0xED,
  0xE9, 0xEA, 0xF5, 0xE4, 0xFC, 0x04, 0xFD, 0xFB, 0x1E, 0x1D, 0x19, 0xFA,
  0xFA, 0xF8, 0x1F, 0xFA, 0xEF, 0x04, 0xEC, 0xFF, 0xE9, 0xE4, 0xED, 0xEB,
  0xE7, 0xE7, 0xDD, 0xED, 0xEB, 0xFD, 0xF0, 0x05, 0x22, 0x34, 0x1E, 0xE5,
  0xF1, 0xE8, 0x35, 0xE9, 0xF4, 0xFF, 0xF4, 0xFF, 0x03, 0xFD, 0x09, 0xFA,
  0xF1, 0xEF, 0xF8, 0xEF, 0xEC, 0xFE, 0xF0, 0xFB, 0xEF, 0xE3, 0xF6, 0xEF,
  0xF3, 0xF0, 0xE9, 0xF0, 0xD6, 0xFC, 0xD7, 0x00, 0xEC, 0xD5, 0xFA, 0xD8,
  0xDB, 0xDF, 0xE7, 0xD2, 0xB4, 0x05, 0xA8, 0x01, 0xE3, 0xC6, 0xF4, 0xCE,
  0xBB, 0xCB, 0xC7, 0xA7, 0xD1, 0x04, 0xCC, 0x01, 0xF7, 0xE1, 0xF7, 0xD9,
  0xCD, 0xD9, 0xF0, 0xCA, 0xCE, 0xFD, 0xCC, 0x03, 0xEA, 0xC4, 0xEB, 0xD9,
  0xD6, 0xDC, 0xC9, 0xC7, 0xFF, 0x00, 0xF5, 0xFC, 0xF6, 0xF6, 0x01, 0x02,
  0xF4, 0xF3, 0xF7, 0xF5, 0x0D, 0x05, 0x00, 0x01, 0xEE, 0xE8, 0xFD, 0x04,
  0x07, 0x05, 0xF8, 0x07, 0x21, 0x00, 0x24, 0xFE, 0x08, 0x02, 0x0A, 0x17,
  0x1D, 0x15, 0x1C, 0x2D, 0x0B, 0xFF, 0x18, 0x02, 0x09, 0x05, 0x0D, 0xFD,
  0x15, 0x06, 0x21, 0x18, 0xFF, 0x04, 0x04, 0x02, 0xFE, 0xF2, 0xFF, 0x01,
  0x04, 0xFF, 0xEA, 0xFF, 0x0F, 0x00, 0x0E, 0xFB, 0xE5, 0xD7, 0xF5, 0x0F,
  0x12, 0x09, 0xCC, 0x08, 0x12, 0xFC, 0x15, 0x04, 0x29, 0x32, 0x26, 0x0C,
  0x0C, 0x11, 0x1B, 0x05, 0x04, 0x04, 0x0B, 0x00, 0xFA, 0xF6, 0xF4, 0xFC,
  0x11, 0x07, 0xE7, 0x0A, 0xFF, 0xFB, 0xFF, 0xFB, 0x0F, 0x0A, 0x0C, 0xFC,
  0x04, 0x05, 0x02, 0x0A, 0x0E, 0x00, 0x13, 0x01, 0x23, 0x26, 0x17, 0x12,
  0x18, 0x0F, 0x0C, 0x16, 0x04, 0xFD, 0x05, 0x04, 0x01, 0xF8, 0xF9, 0x0D,
  0x0C, 0x09, 0xFF, 0x07, 0x01, 0x00, 0x00, 0x00, 0x16, 0x14, 0x15, 0x04,
  0x08, 0xFF, 0x0C, 0xFE, 0xEA, 0x05, 0xEB, 0xFE, 0x03, 0xEF, 0x03, 0xF4,
  0xF5, 0xEC, 0xEF, 0xEB, 0x06, 0xFC, 0x0A, 0xFD, 0x0E, 0x0E, 0x04, 0x0A,
  0x07, 0x09, 0x0A, 0x09, 0xFE, 0xFC, 0xFC, 0x03, 0xE5, 0xE8, 0xE6, 0xF5,
  0xF6, 0x01, 0xF2, 0xFA, 0xEE, 0xFF, 0xEF, 0xFD, 0xE3, 0xD5, 0xE5, 0xF0,
  0xF2, 0xF3, 0xE2, 0xEA, 0xEB, 0xFD, 0xEA, 0xFC, 0xEC, 0xDB, 0xEA, 0xEF,
  0xED, 0xEC, 0xE0, 0xF7, 0xED, 0xFC, 0xF4, 0xFE, 0xF2, 0xC9, 0xF0, 0xF5,
  0xFA, 0xED, 0xE0, 0xF7, 0xF1, 0xFF, 0xF1, 0xFE, 0xEC, 0xE5, 0xEB, 0xFF,
  0xF4, 0xFE, 0xE7, 0xF8, 0xDA, 0xFD, 0xCD, 0xFF, 0xF4, 0xD8, 0xF6, 0xE9,
  0xE1, 0xE3, 0xE4, 0xD9, 0xFE, 0x03, 0x18, 0x01, 0xFC, 0xFF, 0x0A, 0x0E,
  0x1C, 0x22, 0xFB, 0x23, 0xE8, 0x02, 0xE1, 0xFC, 0xE9, 0xED, 0xFB, 0xE5,
  0xE8, 0xE8, 0xFC, 0xE5, 0xED, 0xFF, 0xEB, 0x03, 0x11, 0x18, 0x0A, 0xEA,
  0xEE, 0xE4, 0x52, 0xE9, 0xF1, 0xFB, 0xF2, 0xFC, 0xFC, 0xF7, 0xFF, 0xF2,
  0xF3, 0xF3, 0x0B, 0xFD, 0xF8, 0x01, 0xFC, 0xFF, 0xEE, 0xEB, 0xF3, 0xED,
  0xF8, 0xF3, 0xEB, 0xF9, 0x0E, 0x05, 0x12, 0xFC, 0xF5, 0xE5, 0xED, 0xFF,
  0x0C, 0x02, 0xD3, 0x1A, 0x22, 0xFF, 0x24, 0xFF, 0xFE, 0xF9, 0xFD, 0x18,
  0x27, 0x1C, 0xFD, 0x24, 0x13, 0xFE, 0x1A, 0xFE, 0xF5, 0xEE, 0xF3, 0x18,
  0x21, 0x20, 0xD6, 0x1E, 0x0A, 0x02, 0x11, 0xFC, 0x18, 0x11, 0x0E, 0x06,
  0x0E, 0x0B, 0x28, 0x0E, 0x00, 0xFB, 0x02, 0x03, 0x18, 0x11, 0x08, 0xFF,
  0xFC, 0x08, 0x0A, 0xFA, 0x02, 0x02, 0x07, 0x02, 0x0E, 0x02, 0xFD, 0x04,
  0x04, 0x0B, 0x08, 0xFE, 0x04, 0x00, 0x10, 0x01, 0x0B, 0xFE, 0x03, 0x0E,
  0x07, 0x09, 0xF5, 0x0E, 0x08, 0xFD, 0x0B, 0x04, 0xE6, 0xE0, 0xE6, 0x02,
  0x0E, 0x03, 0xE1, 0x11, 0x08, 0x03, 0x10, 0xFB, 0x02, 0xFD, 0x01, 0x0B,
  0x10, 0x0B, 0xF8, 0x13, 0x06, 0xFF, 0x09, 0xFD, 0xED, 0xEF, 0xF3, 0x0F,
  0x14, 0x06, 0xFB, 0x0E, 0x0D, 0xFB, 0x0C, 0xFF, 0xE8, 0xF1, 0xEC, 0x06,
  0x12, 0x0A, 0x11, 0x0C, 0xFD, 0xFF, 0x01, 0xFA, 0x03, 0xFE, 0x01, 0xFB,
  0x06, 0x01, 0x04, 0x00, 0xF6, 0xFB, 0xF8, 0xFC, 0xF3, 0xE8, 0xF5, 0xF6,
  0xF6, 0xEF, 0xF9, 0x00, 0xF9, 0x05, 0xFD, 0x01, 0xED, 0xEA, 0xED, 0xFA,
  0xFA, 0xEF, 0xE8, 0xF7, 0xF0, 0xFB, 0xF1, 0x01, 0xFF, 0xF3, 0xFF, 0xEC,
  0xEC, 0xF0, 0x02, 0xE9, 0x01, 0x01, 0xFA, 0x00, 0x04, 0x04, 0x01, 0x00,
  0xF6, 0xF0, 0xFD, 0xF8, 0xF8, 0x04, 0xE8, 0x03, 0x07, 0x1A, 0x05, 0xF3,
  0xF9, 0xFB, 0x0E, 0xF1, 0xF2, 0x04, 0xF6, 0x05, 0x08, 0x00, 0xFC, 0x02,
  0x00, 0xFC, 0xFF, 0xEE, 0x04, 0xFE, 0x02, 0x04, 0xE9, 0xE3, 0xF1, 0xFE,
  0x00, 0x02, 0xEE, 0xFD, 0xF3, 0xFE, 0xEA, 0x01, 0xFD, 0xEB, 0xF4, 0xF8,
  0xF1, 0xEA, 0xED, 0xF5, 0xF2, 0xFD, 0xE9, 0xFE, 0xF4, 0xE1, 0xF4, 0xF1,
  0xF0, 0xE4, 0xE5, 0xEA, 0xEE, 0x03, 0xEB, 0xFA, 0xF9, 0xFC, 0xFB, 0xF9,
  0xED, 0xEA, 0x04, 0xF5, 0x22, 0x04, 0x1C, 0x05, 0x01, 0xF5, 0xF6, 0x11,
  0x1A, 0x1A, 0xE7, 0x24, 0x21, 0xFE, 0x20, 0x00, 0xFF, 0xFB, 0xFF, 0x15,
  0x18, 0x18, 0x0E, 0x23, 0x25, 0x03, 0x1C, 0xFF, 0xF8, 0xF0, 0xEF, 0x22,
  0x1D, 0x18, 0xF0, 0x26, 0x15, 0x03, 0x14, 0xFC, 0xF1, 0xFA, 0xF7, 0x08,
  0x12, 0x08, 0xFB, 0x12, 0x0C, 0x05, 0x0A, 0x00, 0xE2, 0xCF, 0xDE, 0x0F,
  0x0F, 0x08, 0xDE, 0x15, 0x1C, 0xFE, 0x16, 0x00, 0xE0, 0xCF, 0xEC, 0x11,
  0x1A, 0x13, 0xDE, 0x1C, 0x08, 0x04, 0x16, 0xFE, 0xFB, 0xF5, 0xFC, 0x0A,
  0x0C, 0x05, 0x11, 0x1B, 0xF7, 0xFD, 0xEF, 0xFF, 0x11, 0x21, 0x0A, 0xF0,
  0xF8, 0xF2, 0x29, 0xF8, 0x01, 0x04, 0x0F, 0xFB, 0xF4, 0xE4, 0xF5, 0x03,
  0x08, 0xFB, 0xEF, 0x0D, 0x0C, 0x01, 0x08, 0xFD, 0xF0, 0xCC, 0xFA, 0x06,
  0x09, 0xFF, 0xC9, 0x09, 0xE1, 0xFE, 0xDC, 0xFF, 0xFA, 0xF6, 0xFB, 0xEB,
  0xE5, 0xE3, 0x02, 0xE3, 0xEF, 0x00, 0xF0, 0xFB, 0x01, 0xFC, 0xFF, 0xF0,
  0xED, 0xEE, 0x08, 0xEF, 0xFE, 0xFD, 0x01, 0x00, 0x0A, 0xFF, 0x05, 0xFE,
  0x06, 0xF8, 0x0A, 0x01, 0x0F, 0x00, 0x0E, 0x00, 0x02, 0xFD, 0x01, 0x0E,
  0x23, 0x12, 0x00, 0x0F, 0xFB, 0x00, 0x01, 0x00, 0x13, 0x0A, 0xFC, 0x06,
  0xFF, 0x06, 0x07, 0x05, 0x02, 0xFC, 0x0A, 0xFF, 0xFC, 0xFE, 0x01, 0x02,
  0x0D, 0x08, 0x09, 0x06, 0xFA, 0xFC, 0x17, 0xFE, 0xEF, 0xF0, 0xF0, 0x08,
  0x16, 0x08, 0xF9, 0x06, 0xFE, 0xFD, 0x09, 0x01, 0xF9, 0xF6, 0xF7, 0x08,
  0x0D, 0x01, 0x03, 0x06, 0x01, 0xFC, 0x16, 0xFC, 0xEF, 0xFB, 0xFE, 0x02,
  0x07, 0x0A, 0xFB, 0x03, 0xF3, 0xFC, 0xF4, 0xFC, 0xF2, 0xFC, 0xFC, 0x01,
  0xE2, 0x06, 0x03, 0x00, 0xFB, 0x04, 0x03, 0xFF, 0xF2, 0xEE, 0xEF, 0x0A,
  0xF7, 0x04, 0xFB, 0x07, 0xF6, 0xFF, 0xFD, 0xFA, 0xE6, 0xF9, 0xEF, 0x07,
  0xF0, 0x00, 0xFC, 0x01, 0xF8, 0x01, 0xF5, 0x01, 0xF3, 0xFA, 0xFF, 0x00,
  0xF1, 0x01, 0x04, 0x08, 0xF8, 0xFF, 0xF7, 0xFA, 0xF2, 0xF5, 0x00, 0x06,
  0xEF, 0x07, 0xF6, 0x09, 0xF9, 0x01, 0xF7, 0x02, 0xF4, 0xF9, 0x04, 0x08,
  0xF2, 0x06, 0x03, 0x05, 0x00, 0xFD, 0xFE, 0x04, 0xF9, 0xF2, 0xF0, 0x07,
  0xFD, 0x00, 0xFA, 0x03, 0xFE, 0x01, 0x14, 0xFD, 0xF5, 0x04, 0xFB, 0x08,
  0x0B, 0x07, 0x01, 0x09, 0xF8, 0xFD, 0x08, 0xFA, 0xF1, 0x00, 0x01, 0xFF,
  0x0B, 0x03, 0xFF, 0x00, 0x01, 0x00, 0x00, 0x00, 0xF3, 0x00, 0xF8, 0x01,
  0x09, 0x02, 0x09, 0x05, 0x0B, 0xFF, 0x0C, 0xFA, 0xF4, 0xE6, 0xE8, 0x00,
  0x0A, 0x07, 0xFC, 0x0A, 0xFA, 0xFB, 0x0A, 0xFC, 0xFD, 0x04, 0x02, 0x02,
  0x07, 0x05, 0x05, 0x04, 0xFB, 0xFB, 0x12, 0xFC, 0xF9, 0xFD, 0xFF, 0x00,
  0x0C, 0x00, 0x02, 0x06, 0x07, 0x05, 0x06, 0xFE, 0x00, 0x07, 0xFF, 0x07,
  0x0E, 0x00, 0x03, 0x06, 0xFC, 0x03, 0x02, 0x01, 0x0A, 0xF8, 0xF7, 0x00,
  0xFD, 0xF5, 0x00, 0x01, 0xFB, 0xFD, 0xFB, 0xFB, 0xFF, 0xFB, 0xFB, 0x02,
  0xFB, 0xFB, 0xFD, 0xFC, 0x00, 0x05, 0xFE, 0xFF, 0xFD, 0xFE, 0xFE, 0x02,
  0x02, 0x02, 0xFA, 0x04, 0x02, 0xFE, 0x02, 0x04, 0xFB, 0x04, 0xFB, 0xFA,
  0x00, 0xFA, 0xFD, 0x05, 0xFB, 0x01, 0xFD, 0x02, 0x05, 0x03, 0x02, 0xFA,
  0x04, 0xFA, 0xFA, 0x01, 0x03, 0x01, 0xFE, 0xFB, 0xFB, 0xFF, 0xFB, 0x04,
  0x03, 0x01, 0x05, 0xFD, 0x02, 0xFC, 0xFE, 0x03, 0xFB, 0x01, 0xFA, 0xFC,
  0xFD, 0x00, 0xFD, 0x02, 0xFE, 0xFD, 0xF9, 0xFB, 0x05, 0x04, 0xFE, 0xFE,
  0x02, 0x02, 0xFE, 0x04, 0x05, 0xFC, 0xFD, 0x03, 0xFE, 0x05, 0xFC, 0xFB,
  0xFE, 0x02, 0xFC, 0x00, 0x00, 0xFB, 0x02, 0xFB, 0x02, 0xFF, 0x02, 0x02,
  0x01, 0xFF, 0xFA, 0x03, 0x03, 0xFC, 0x00, 0xFD, 0xFC, 0x01, 0xFA, 0xFB,
  0xFB, 0x01, 0xFF, 0x04, 0x05, 0x00, 0xFC, 0x02, 0xFC, 0x03, 0xFD, 0x01,
  0xFE, 0xFD, 0xFC, 0xFC, 0xFF, 0x01, 0xFE, 0xFD, 0x05, 0xFE, 0xFC, 0xFF,
  0x02, 0x04, 0xFF, 0xFB, 0xFD, 0xFD, 0xFF, 0x00, 0xFD, 0x05, 0xFF, 0xFB,
  0x02, 0x00, 0x04, 0x03, 0x05, 0x04, 0xFC, 0x00, 0xFE, 0xFD, 0x03, 0x03,
  0x01, 0xFF, 0xFF, 0x04, 0xFD, 0x00, 0xFB, 0x01, 0xFC, 0x03, 0xFD, 0xFE,
  0x02, 0x00, 0x02, 0x01, 0x04, 0xFC, 0xFE, 0x03, 0xFC, 0xFF, 0x02, 0xFC,
  0x04, 0x01, 0xFB, 0xFD, 0xFB, 0x04, 0x04, 0xFF, 0x03, 0xFF, 0x02, 0x03,
  0xFB, 0xFB, 0x03, 0x01, 0xFC, 0x00, 0x03, 0xFF, 0xFC, 0xFF, 0xFC, 0x03,
  0xFD, 0x00, 0x04, 0x01, 0xFC, 0xFC, 0x01, 0x03, 0xFB, 0x04, 0xFA, 0xFA,
  0x04, 0xFE, 0x00, 0x04, 0xFD, 0x05, 0x03, 0xFB, 0x00, 0x00, 0xFB, 0xFA,
  0x01, 0x02, 0x02, 0x02, 0x02, 0xFD, 0xFB, 0x03, 0xFF, 0x03, 0xFE, 0x02,
  0x01, 0x02, 0xFF, 0xFF, 0x04, 0x01, 0x04, 0x00, 0xFD, 0xFE, 0xFE, 0x04,
  0x00, 0x00, 0x01, 0xFE, 0x05, 0x01, 0xFA, 0x03, 0x01, 0x01, 0x01, 0x01,
  0x02, 0x00, 0xFF, 0xFF, 0xFC, 0x03, 0xFD, 0x04, 0xFF, 0x01, 0x00, 0xFC,
  0x01, 0xFC, 0x00, 0xFA, 0x06, 0xFC, 0xFF, 0x02, 0x03, 0x03, 0xFC, 0x02,
  0xFC, 0x04, 0x03, 0x03, 0xFC, 0x04, 0xFD, 0x02, 0xFF, 0xFE, 0x02, 0xFC,
  0xFB, 0xFB, 0xFD, 0xFE, 0xFE, 0xFE, 0xFE, 0x02, 0x05, 0x04, 0xFF, 0x03,
  0xFF, 0xFB, 0xFE, 0xFA, 0x06, 0xFD, 0xFA, 0x04, 0xFB, 0x01, 0x00, 0x04,
  0x00, 0x00, 0x00, 0xFC, 0x05, 0xFF, 0x04, 0xFC, 0x01, 0xFD, 0xFA, 0xFE,
  0x01, 0xFE, 0x01, 0x01, 0x06, 0x04, 0xFD, 0xFE, 0x02, 0x02, 0x03, 0x03,
  0xFC, 0xFA, 0xFC, 0xFC, 0x01, 0xFE, 0x03, 0xFC, 0xFD, 0xFD, 0xFA, 0xFB,
  0x03, 0xFA, 0x00, 0x03, 0xFC, 0x05, 0x01, 0xFE, 0xFE, 0x03, 0xFA, 0xFB,
  0x02, 0x02, 0xFE, 0xFB, 0x00, 0xFE, 0xFC, 0x05, 0x00, 0x03, 0xFA, 0x00,
  0x01, 0xFA, 0x00, 0x02, 0x01, 0xFF, 0xFE, 0x00, 0xFF, 0x03, 0xF9, 0x03,
  0x05, 0xFA, 0xFF, 0x01, 0xFE, 0x01, 0xFF, 0xFF, 0x01, 0xFE, 0x00, 0xFC,
  0xFF, 0xFD, 0x00, 0x03, 0xFD, 0x04, 0x02, 0x05, 0xFB, 0x03, 0xF9, 0x00,
  0x03, 0x03, 0xFE, 0xFE, 0xFD, 0x00, 0x00, 0x01, 0x02, 0x03, 0x03, 0xFD,
  0xFD, 0x02, 0xFD, 0xFB, 0x04, 0x05, 0xFA, 0x04, 0xFD, 0x02, 0xFA, 0xFC,
  0x03, 0xFD, 0x01, 0xFB, 0x00, 0x05, 0x00, 0x04, 0xFE, 0xFE, 0xFA, 0x04,
  0x00, 0x04, 0xFF, 0xFB, 0x03, 0x00, 0x03, 0x04, 0xFC, 0xFE, 0xFA, 0x01,
  0xFD, 0xFC, 0xFC, 0x04, 0xFB, 0x04, 0xFD, 0xFE, 0x03, 0x02, 0x02, 0xFC,
  0xFF, 0x01, 0xFA, 0xFD, 0x00, 0x00, 0xFB, 0x03, 0x04, 0x05, 0xFD, 0x04,
  0xFB, 0x05, 0xFD, 0x02, 0xFD, 0xFF, 0xFE, 0x03, 0x05, 0xFD, 0xFF, 0x01,
  0x00, 0x01, 0x04, 0xFD, 0xFF, 0x02, 0xFF, 0x02, 0xFE, 0x01, 0xFC, 0xFE,
  0xFD, 0xFF, 0x04, 0xFA, 0x05, 0xFC, 0x01, 0xFB, 0xFD, 0x01, 0xFF, 0xFB,
  0x04, 0xFB, 0xFD, 0xFE, 0xFF, 0xFD, 0xFE, 0xFB, 0x03, 0x04, 0x00, 0x04,
  0x04, 0xFD, 0x05, 0x04, 0x02, 0xFF, 0xFA, 0xFC, 0x01, 0x05, 0xFE, 0x00,
  0x03, 0xFC, 0xFD, 0xFD, 0x01, 0x00, 0x03, 0xFA, 0x05, 0xFB, 0xFF, 0x04,
  0x03, 0xFE, 0xFD, 0xFC, 0x06, 0xFE, 0xFF, 0xFC, 0x03, 0xFE, 0x01, 0xFA,
  0x04, 0x05, 0x04, 0xFD, 0xFC, 0x03, 0xFF, 0xFB, 0xFC, 0x04, 0xFD, 0x00,
  0x04, 0x02, 0xFB, 0x03, 0xFF, 0x02, 0x01, 0xFA, 0xFC, 0xFB, 0x03, 0x01,
  0xFF, 0xFB, 0xFE, 0xFC, 0x02, 0x02, 0xFB, 0xFE, 0x05, 0x05, 0xFB, 0xFC,
  0xFE, 0xFA, 0x01, 0xFE, 0x03, 0x05, 0xFF, 0xFA, 0xFE, 0x03, 0xFC, 0x00,
  0x04, 0xFB, 0xFF, 0xFB, 0x05, 0xFD, 0xFE, 0x02, 0xFD, 0xFC, 0xFD, 0xFB,
  0xFD, 0xFD, 0x02, 0xFD, 0x00, 0xFD, 0x00, 0xFE, 0x04, 0xFE, 0xFA, 0x00,
  0x04, 0xFA, 0xFB, 0x00, 0xFC, 0x01, 0x02, 0xFE, 0xFE, 0x04, 0xFE, 0x03,
  0x05, 0x03, 0x03, 0x01, 0x05, 0xFD, 0x02, 0x00, 0x05, 0x03, 0x02, 0x02,
  0xFD, 0x01, 0xFA, 0xFF, 0xFD, 0x05, 0xFF, 0x04, 0x02, 0x05, 0x02, 0x05,
  0xFB, 0xFC, 0xFD, 0x03, 0xFD, 0xFF, 0xFC, 0x00, 0xFD, 0xFF, 0xF9, 0x04,
  0xFB, 0xFA, 0xFB, 0xFE, 0xFA, 0xFC, 0x04, 0xFB, 0x05, 0xFE, 0x02, 0xFD,
  0xFD, 0xFD, 0x01, 0x02, 0xFB, 0x01, 0xFF, 0x03, 0x03, 0xFD, 0xFF, 0xFC,
  0x02, 0x00, 0x01, 0x02, 0x03, 0x03, 0x01, 0xFC, 0x00, 0x03, 0xFB, 0xFD,
  0x05, 0xFF, 0x00, 0xFB, 0xFF, 0x00, 0x00, 0xFD, 0x00, 0x06, 0x04, 0xFE,
  0x02, 0x05, 0xFE, 0xFB, 0xFE, 0x04, 0xFD, 0xFD, 0x05, 0xFC, 0x03, 0xFB,
  0xFC, 0xFF, 0xFF, 0xFD, 0xFE, 0xFC, 0x01, 0x01, 0x00, 0xFC, 0xFC, 0xFB,
  0x04, 0x04, 0xFA, 0xFB, 0x01, 0x04, 0x04, 0x04, 0x01, 0xFD, 0x03, 0x02,
  0xFC, 0xFE, 0x04, 0xFF, 0xFF, 0xFB, 0xFF, 0xFB, 0xFF, 0x02, 0x00, 0xFC,
  0x05, 0xFE, 0xFB, 0xFF, 0x02, 0xFB, 0xFB, 0xFB, 0xFC, 0x01, 0xFD, 0xFA,
  0xFD, 0x00, 0xFC, 0x00, 0xFD, 0x01, 0x01, 0x00, 0x05, 0x04, 0x03, 0xFF,
  0x05, 0xFA, 0x01, 0xFC, 0xFB, 0x01, 0xFB, 0x02, 0xFE, 0xFF, 0xFF, 0xFD,
  0xFB, 0xFB, 0x03, 0xFE, 0x00, 0x05, 0xFD, 0x01, 0x04, 0xFD, 0xF9, 0x02,
  0xFF, 0xFC, 0x01, 0xFE, 0xFE, 0x00, 0x01, 0xFF, 0xFB, 0x04, 0x02, 0xFC,
  0x02, 0x00, 0x03, 0x02, 0x00, 0x02, 0x00, 0x05, 0xFE, 0xFE, 0x04, 0xFB,
  0x03, 0xFB, 0xFD, 0xFF, 0xFC, 0x02, 0xFA, 0xFB, 0x01, 0x02, 0x03, 0xFC,
  0x05, 0xFD, 0x03, 0xFA, 0x00, 0xFE, 0xFD, 0xFE, 0x00, 0x05, 0xFB, 0x00,
  0xFD, 0xFC, 0xFC, 0xFC, 0xFE, 0xFE, 0x04, 0xFD, 0x04, 0xFB, 0x00, 0xFA,
  0x05, 0x03, 0xFE, 0xFE, 0x04, 0xFF, 0x01, 0x00, 0xFB, 0x04, 0xF9, 0xFF,
  0x02, 0xFF, 0xFB, 0x02, 0xFC, 0xFD, 0xFF, 0x01, 0x05, 0x02, 0xFC, 0xFF,
  0xFF, 0xFD, 0x02, 0x00, 0xFF, 0x02, 0x01, 0xFE, 0x05, 0x01, 0xF9, 0xFB,
  0xFD, 0xFB, 0xFE, 0x02, 0xFD, 0xFF, 0xFE, 0x03, 0xFE, 0xFE, 0x03, 0xFE,
  0x01, 0xFB, 0xFD, 0x01, 0x04, 0xFE, 0xFE, 0x00, 0x02, 0x00, 0x04, 0x05,
  0xFB, 0xFA, 0x03, 0xFB, 0xFE, 0x03, 0x00, 0xFA, 0xFC, 0x04, 0x00, 0x04,
  0x05, 0x03, 0x03, 0x04, 0xFF, 0xFE, 0xFB, 0xFE, 0xFD, 0xFC, 0xFD, 0xFF,
  0x01, 0x00, 0x00, 0xFD, 0x02, 0xFF, 0xFD, 0x04, 0x02, 0xFF, 0xFB, 0xFC,
  0xFC, 0x02, 0xFB, 0xFB, 0xFB, 0x01, 0x04, 0x02, 0x02, 0x01, 0xFB, 0xFD,
  0x03, 0xFF, 0xFE, 0xFB, 0x02, 0xFE, 0x04, 0x00, 0xFF, 0xFC, 0x02, 0x00,
  0xFB, 0xFC, 0x04, 0x04, 0x03, 0xFB, 0xFC, 0xFA, 0xFF, 0x01, 0x01, 0x00,
  0x05, 0xFF, 0xFE, 0x04, 0xFE, 0x02, 0xFF, 0xFC, 0xFB, 0x01, 0x03, 0xFE,
  0xFD, 0xFC, 0x04, 0xFB, 0x03, 0xFE, 0x01, 0xFA, 0x03, 0xFC, 0xFF, 0x00,
  0x05, 0xFB, 0xFD, 0x02, 0x03, 0x00, 0xFF, 0x02, 0x02, 0x06, 0x01, 0xFF,
  0x05, 0xFD, 0x04, 0x03, 0xFD, 0x03, 0x04, 0xFF, 0x00, 0x00, 0x01, 0xFE,
  0xFC, 0xFF, 0x04, 0x03, 0xFF, 0x03, 0xFB, 0x02, 0xFB, 0xFD, 0xFE, 0x02,
  0x01, 0x00, 0x03, 0x00, 0xFE, 0x02, 0xFF, 0xFF, 0xFE, 0x04, 0xFE, 0x04,
  0x03, 0xFC, 0xFB, 0xFD, 0x00, 0x02, 0x03, 0x01, 0xFE, 0x06, 0x00, 0x03,
  0x04, 0xFC, 0xFB, 0xFF, 0xFF, 0x03, 0x03, 0x02, 0x01, 0xFC, 0x03, 0xFC,
  0x03, 0x01, 0x00, 0x04, 0x05, 0x02, 0xFE, 0x04, 0xFB, 0x02, 0x01, 0xFE,
  0xFD, 0xFE, 0xFF, 0xFC, 0xFE, 0x05, 0x02, 0x02, 0x04, 0x04, 0xFC, 0x00,
  0x01, 0x04, 0x01, 0xFD, 0xFC, 0xFD, 0x02, 0xFB, 0xFF, 0xFD, 0x04, 0x01,
  0xFE, 0x03, 0xFD, 0xFA, 0x03, 0xFF, 0xFF, 0xFA, 0x00, 0xFC, 0xFA, 0xFE,
  0xFB, 0x04, 0xFC, 0x04, 0xFE, 0x03, 0xFB, 0xFC, 0xFB, 0xFE, 0xFA, 0xFE,
  0xFC, 0xFE, 0xFC, 0x01, 0x01, 0x05, 0xFB, 0xFC, 0x04, 0x02, 0xFF, 0x05,
  0xFE, 0x04, 0xFC, 0xFF, 0x04, 0xFB, 0xFA, 0xFF, 0xFB, 0x00, 0xFE, 0x01,
  0xFC, 0x02, 0x03, 0x01, 0x01, 0xFF, 0xFE, 0xFD, 0xFF, 0x02, 0xFC, 0x03,
  0xFE, 0xFD, 0xFF, 0xFA, 0x02, 0x01, 0xFC, 0x04, 0x01, 0x05, 0xFF, 0x02,
  0xFC, 0x00, 0xFB, 0xFE, 0x01, 0x05, 0xFB, 0xFD, 0x05, 0x01, 0x01, 0xFE,
  0x01, 0xFF, 0xFC, 0x00, 0xFD, 0x04, 0x02, 0x02, 0x01, 0xFE, 0x00, 0x04,
  0x02, 0x02, 0xFC, 0x00, 0x01, 0x00, 0x00, 0xFC, 0x03, 0xFF, 0xFC, 0x00,
  0x04, 0xFE, 0xFE, 0x03, 0x04, 0xFE, 0x01, 0xFC, 0x03, 0x01, 0xFA, 0x04,
  0xFE, 0xFE, 0x02, 0x05, 0x05, 0xFC, 0xFF, 0xFC, 0xFD, 0x05, 0xF9, 0xFF,
  0xFD, 0xFC, 0xFA, 0xFC, 0xFF, 0xFF, 0x04, 0xFC, 0x02, 0xFF, 0xFC, 0xFE,
  0x00, 0xFC, 0x02, 0xFF, 0x04, 0x05, 0x00, 0xFF, 0x01, 0x05, 0xFB, 0x01,
  0x04, 0xFD, 0xFA, 0x01, 0x04, 0x03, 0x01, 0xFD, 0xFB, 0xFF, 0xFE, 0x01,
  0x00, 0xFF, 0x04, 0x03, 0x02, 0x02, 0x01, 0xFF, 0x02, 0xFE, 0xFA, 0x01,
  0x00, 0xFB, 0xFB, 0xFB, 0x02, 0x05, 0xFF, 0xFC, 0xFC, 0xFF, 0x00, 0x01,
  0xFB, 0xFE, 0x01, 0xFC, 0x05, 0x00, 0xFB, 0x03, 0x01, 0x02, 0xFB, 0xFA,
  0x05, 0x05, 0xFF, 0xFA, 0x06, 0xFD, 0x00, 0x02, 0xFD, 0x00, 0xFD, 0xFC,
  0x00, 0xFC, 0x04, 0x02, 0xFD, 0x04, 0xFF, 0xFF, 0xFF, 0xFF, 0x03, 0x03,
  0x00, 0xFD, 0xFF, 0x02, 0x00, 0xFE, 0xFB, 0xFE, 0x04, 0xFB, 0xFA, 0xFD,
  0xFC, 0x05, 0x02, 0x02, 0xFE, 0xFF, 0x03, 0xFF, 0xFF, 0x03, 0x00, 0xFC,
  0xFD, 0x02, 0xFC, 0xFA, 0xFF, 0xFC, 0xFB, 0x03, 0x03, 0xFE, 0xFE, 0x04,
  0x02, 0xFB, 0x01, 0xFC, 0xFC, 0xFE, 0x02, 0xFF, 0xFE, 0xFC, 0xF9, 0x01,
  0x01, 0xFE, 0xFF, 0x04, 0x02, 0x02, 0xFF, 0xFD, 0xFF, 0xFC, 0x02, 0xFA,
  0x01, 0xFA, 0x00, 0x01, 0xFE, 0x00, 0xFD, 0xFB, 0xFF, 0x05, 0xFD, 0x04,
  0x00, 0xFA, 0x00, 0xFE, 0x00, 0x04, 0x00, 0x02, 0x03, 0x03, 0xFB, 0xFF,
  0x00, 0x03, 0xFA, 0x00, 0x00, 0xFD, 0x01, 0xFF, 0xFD, 0xFE, 0xFC, 0x04,
  0x01, 0xFF, 0xFC, 0x03, 0xFD, 0x01, 0x01, 0x04, 0xFD, 0x01, 0xFE, 0x04,
  0x03, 0xFC, 0xFA, 0x04, 0x02, 0xFF, 0xFD, 0x04, 0x02, 0x04, 0x00, 0xFC,
  0x04, 0x00, 0xFC, 0xFC, 0xFF, 0x02, 0x01, 0x02, 0xFE, 0x05, 0xFC, 0x02,
  0xFD, 0x00, 0xFB, 0x04, 0x03, 0x00, 0xFC, 0xFA, 0xFE, 0x03, 0x02, 0x01,
  0xFB, 0x03, 0xFD, 0xFF, 0xFD, 0x04, 0xFC, 0xFF, 0x05, 0x03, 0x03, 0x01,
  0xFB, 0x01, 0xFF, 0xFA, 0xFE, 0xFE, 0x00, 0x02, 0xFB, 0xFF, 0xFA, 0xFE,
  0x02, 0x03, 0xFE, 0xFE, 0x03, 0xFF, 0xFF, 0xFF, 0xFB, 0x05, 0x00, 0x02,
  0x03, 0x05, 0xFF, 0xFD, 0xFF, 0x04, 0x01, 0xFD, 0xFF, 0x01, 0x00, 0x01,
  0xFE, 0x05, 0xFB, 0x02, 0xFF, 0x01, 0x00, 0x03, 0x02, 0xFD, 0xFE, 0xFE,
  0x02, 0x02, 0xFC, 0xFB, 0x05, 0xFD, 0xFA, 0xFD, 0xFF, 0xFD, 0xFF, 0x00,
  0xFE, 0xFC, 0x00, 0xFF, 0x04, 0x05, 0x03, 0xFA, 0xFE, 0x05, 0xFF, 0xFB,
  0x01, 0x04, 0x03, 0xFB, 0x04, 0xFF, 0x01, 0x01, 0x03, 0xFB, 0x04, 0x02,
  0xFD, 0x02, 0x02, 0xFE, 0x00, 0x03, 0x04, 0x03, 0xFC, 0xFC, 0xF9, 0x04,
  0x04, 0xFC, 0x02, 0xFC, 0x02, 0xFF, 0x00, 0x01, 0x04, 0xFB, 0xFF, 0x02,
  0xFB, 0xFE, 0x04, 0x03, 0x04, 0x00, 0x03, 0x01, 0xFD, 0x03, 0x02, 0xFA,
  0xFC, 0xFC, 0xFA, 0xFE, 0x03, 0xFC, 0xFB, 0x03, 0x00, 0x01, 0xFF, 0x04,
  0xFF, 0x00, 0xFE, 0xFB, 0x03, 0xFF, 0x02, 0xFF, 0x00, 0x01, 0xFF, 0xFD,
  0x03, 0xFD, 0x04, 0xFE, 0x01, 0xFF, 0xFB, 0xFE, 0xFB, 0x04, 0x02, 0x02,
  0x05, 0xFD, 0x02, 0xFD, 0x04, 0x02, 0xFE, 0xFF, 0xFB, 0xFC, 0x01, 0xFB,
  0x03, 0x00, 0xFE, 0xFF, 0x00, 0x01, 0x03, 0xFB, 0xFF, 0xFC, 0x04, 0x04,
  0xFE, 0x03, 0x01, 0xFF, 0xFB, 0x02, 0xFE, 0xFD, 0xFE, 0x00, 0xFF, 0x00,
  0xFD, 0x04, 0xFE, 0xFF, 0x01, 0xFC, 0x02, 0x04, 0x02, 0xFE, 0xFE, 0xFE,
  0xFC, 0xFD, 0xFD, 0xFD, 0x03, 0x03, 0x00, 0x03, 0x05, 0x00, 0xFD, 0xFE,
  0xFE, 0xFE, 0xFE, 0x04, 0x00, 0x03, 0x04, 0xFE, 0x04, 0x03, 0x01, 0xFB,
  0xFC, 0x03, 0xFC, 0xFF, 0x06, 0x02, 0xFF, 0x02, 0xFB, 0x03, 0xFA, 0xFB,
  0xFD, 0xFB, 0xFF, 0x01, 0xFC, 0xFE, 0xFB, 0xFE, 0xFB, 0xFF, 0xF9, 0xFF,
  0x04, 0x04, 0xFA, 0xFA, 0x04, 0xFC, 0xFC, 0x02, 0x00, 0x02, 0xFA, 0x01,
  0x05, 0xFC, 0x00, 0xFD, 0x01, 0x05, 0xFA, 0x01, 0xFE, 0x00, 0xFB, 0xFB,
  0xFC, 0x05, 0x03, 0x03, 0x02, 0xFE, 0x00, 0x05, 0x01, 0x01, 0xFB, 0xFC,
  0x03, 0xFF, 0x03, 0xFB, 0x03, 0x05, 0x04, 0xFD, 0x01, 0xFC, 0x00, 0xFF,
  0xFD, 0xFF, 0xFF, 0xFC, 0xFD, 0x05, 0xFF, 0x04, 0x01, 0x01, 0x00, 0x04,
  0x04, 0xFC, 0x05, 0xFB, 0x00, 0x04, 0x02, 0xFE, 0x05, 0x01, 0xFE, 0xFA,
  0x04, 0xFC, 0xFB, 0xFC, 0x05, 0xFC, 0xFF, 0x01, 0xFF, 0xFE, 0xFA, 0x01,
  0x00, 0x03, 0x01, 0x00, 0x01, 0xFD, 0x00, 0x00, 0x05, 0xFF, 0xFC, 0xFE,
  0x00, 0xFB, 0x01, 0xFB, 0xFE, 0xFC, 0x01, 0x01, 0xFC, 0xFD, 0x01, 0x05,
  0xFB, 0x02, 0x05, 0x01, 0x04, 0x03, 0x04, 0xFC, 0xFB, 0x04, 0x03, 0x01,
  0xFB, 0xFE, 0xFF, 0xFE, 0x01, 0x04, 0x01, 0xFF, 0xFC, 0x02, 0xFA, 0x04,
  0x05, 0xFF, 0xFB, 0xFE, 0xFF, 0x00, 0xFB, 0x03, 0xFD, 0xFC, 0x04, 0xFB,
  0x03, 0x03, 0x04, 0x01, 0x03, 0x01, 0xFA, 0x05, 0xFB, 0xFE, 0x03, 0x04,
  0xFB, 0xFA, 0x04, 0xFD, 0xFC, 0xFF, 0xFB, 0x04, 0x05, 0xFF, 0x01, 0x01,
  0x05, 0xFE, 0x03, 0xFD, 0xFD, 0x01, 0x02, 0x04, 0xFD, 0x02, 0xF9, 0xFD,
  0x03, 0xFF, 0xFC, 0x04, 0x03, 0x01, 0x01, 0xFD, 0xFE, 0x00, 0x00, 0xFD,
  0x01, 0xFB, 0xFA, 0xFC, 0x06, 0x04, 0xFF, 0xFA, 0xFE, 0x01, 0x03, 0xFF,
  0x02, 0xFF, 0xFD, 0x02, 0xFE, 0xFD, 0x00, 0xFF, 0xFE, 0xFE, 0x00, 0x00,
  0x04, 0xFE, 0xFD, 0x02, 0xFC, 0x01, 0xFE, 0xFB, 0x00, 0x00, 0xFB, 0xFD,
  0x04, 0xFE, 0x01, 0x00, 0xFE, 0x02, 0xFE, 0x00, 0xFE, 0xFD, 0xFF, 0x04,
  0x02, 0xFB, 0x02, 0xFC, 0xFD, 0xFE, 0x04, 0xFD, 0xFE, 0x03, 0xFF, 0xFC,
  0xFB, 0x02, 0x02, 0x01, 0x05, 0xFB, 0x04, 0xFF, 0xFB, 0x04, 0xFC, 0x02,
  0x00, 0x01, 0x01, 0xFE, 0x00, 0xFE, 0x01, 0x03, 0xFC, 0x02, 0xFF, 0x03,
  0xFD, 0x02, 0xFB, 0xFA, 0xFC, 0x04, 0xFA, 0xFE, 0x01, 0xFB, 0x02, 0xFF,
  0xFB, 0x03, 0x00, 0xFB, 0x06, 0xFC, 0x03, 0x02, 0x04, 0xFB, 0xFD, 0xFB,
  0x04, 0x00, 0xFF, 0xFD, 0x00, 0xFE, 0xFE, 0x03, 0x02, 0x05, 0xFD, 0x03,
  0xFF, 0x00, 0x02, 0xFD, 0x03, 0xFF, 0x00, 0xFB, 0xFC, 0x01, 0x03, 0xFD,
  0x00, 0xFC, 0xFB, 0xFC, 0x06, 0x03, 0x02, 0x04, 0xFD, 0xFF, 0x01, 0x04,
  0xFC, 0x04, 0xFA, 0x03, 0x02, 0xFB, 0x01, 0xFE, 0x00, 0x01, 0xF9, 0x00,
  0x05, 0xFD, 0x04, 0xFC, 0x04, 0x05, 0xFB, 0x02, 0x01, 0xFF, 0x03, 0x02,
  0xFF, 0xFF, 0x01, 0x03, 0xFB, 0xFB, 0xFF, 0x05, 0x04, 0x04, 0xFB, 0x05,
  0xFD, 0x05, 0x03, 0xFC, 0xFF, 0xFC, 0x04, 0x01, 0xFD, 0x05, 0x03, 0xFD,
  0x01, 0x02, 0x01, 0x01, 0xFC, 0x00, 0x04, 0xFD, 0xFB, 0xFC, 0x04, 0xFF,
  0x01, 0x03, 0x00, 0xFA, 0x05, 0xFD, 0xFD, 0xFD, 0xFB, 0xFF, 0x04, 0xFF,
  0xFE, 0x04, 0x03, 0xFF, 0x02, 0xFB, 0xFC, 0x03, 0xFE, 0x05, 0xFE, 0x04,
  0xFC, 0x00, 0xFB, 0xFC, 0x00, 0xFE, 0xFF, 0xFB, 0xFE, 0x03, 0x03, 0xFA,
  0x05, 0xFA, 0x00, 0xFF, 0x05, 0x01, 0xFB, 0x04, 0xFB, 0x02, 0x03, 0xFC,
  0xFB, 0x03, 0xFE, 0xFC, 0x01, 0x04, 0xFD, 0xFD, 0xFC, 0x00, 0xFA, 0x04,
  0x05, 0xFE, 0xFA, 0xFC, 0x01, 0xFF, 0x05, 0xFE, 0x04, 0x04, 0xFB, 0x00,
  0x05, 0x02, 0x04, 0x03, 0xFC, 0x04, 0x05, 0x03, 0x02, 0xFD, 0xFE, 0x04,
  0xFD, 0xFE, 0x00, 0xFD, 0x05, 0xFC, 0xFF, 0x04, 0xFC, 0x00, 0x00, 0xFD,
  0xFD, 0x01, 0xFE, 0xFD, 0xFC, 0x03, 0x05, 0x01, 0x00, 0xFF, 0xFE, 0xFE,
  0xFC, 0xFD, 0x00, 0xFD, 0x00, 0x04, 0x04, 0xFD, 0x00, 0x05, 0xFC, 0xFB,
  0x05, 0xFF, 0xFA, 0xFF, 0xFB, 0xFF, 0xFC, 0x04, 0x01, 0x06, 0xFA, 0xFD,
  0x02, 0x01, 0xFA, 0xFC, 0x03, 0xFF, 0xFD, 0x00, 0x03, 0xFF, 0xFC, 0x03,
  0x03, 0xFC, 0x05, 0x02, 0x01, 0x02, 0xFE, 0x04, 0x04, 0xFC, 0x01, 0x03,
  0xFB, 0x00, 0xFA, 0xFE, 0xFF, 0x02, 0x01, 0x02, 0x02, 0x03, 0xFD, 0xFD,
  0x01, 0x04, 0x01, 0x00, 0x00, 0xFD, 0xFB, 0x04, 0xFB, 0x01, 0x04, 0xFF,
  0x04, 0x05, 0x03, 0xFC, 0xFD, 0xFD, 0x02, 0xFF, 0x00, 0x02, 0xFF, 0x03,
  0x05, 0x01, 0x04, 0xFE, 0x01, 0xFE, 0x00, 0xFA, 0x04, 0xFD, 0xF9, 0xFA,
  0x02, 0x03, 0xFF, 0xFB, 0x02, 0x04, 0x02, 0x01, 0x01, 0xFD, 0x02, 0x04,
  0xFD, 0x03, 0x00, 0x00, 0x04, 0xFF, 0x01, 0x04, 0x04, 0x00, 0xFD, 0xFD,
  0x00, 0x00, 0xFC, 0xFD, 0x03, 0xFE, 0x03, 0x01, 0x02, 0x01, 0x02, 0xFD,
  0x04, 0xFF, 0xFC, 0x02, 0xFE, 0x05, 0xFA, 0x01, 0x04, 0xFE, 0x04, 0x03,
  0x03, 0xFA, 0xFE, 0x01, 0x05, 0x01, 0xFD, 0xFB, 0x05, 0xFE, 0xFF, 0x01,
  0x03, 0xFE, 0xFB, 0xFA, 0x00, 0xFF, 0xFF, 0x05, 0xFF, 0x04, 0x02, 0x00,
  0x02, 0xFC, 0xFD, 0xFD, 0xFB, 0xFF, 0xFB, 0x02, 0xFE, 0x04, 0xFF, 0xFC,
  0x04, 0xFD, 0xFD, 0xFC, 0x02, 0xFD, 0xFD, 0x03, 0x01, 0xFF, 0x03, 0x01,
  0x05, 0x03, 0x03, 0xFB, 0x04, 0x05, 0x03, 0x03, 0x00, 0xFF, 0xFA, 0xFF,
  0xFE, 0xFB, 0x00, 0xFF, 0x04, 0xFD, 0x04, 0x04, 0x04, 0xFF, 0x00, 0x02,
  0x01, 0x02, 0x03, 0xFF, 0x06, 0xFC, 0x04, 0x02, 0xFB, 0xFB, 0xFD, 0x00,
  0x03, 0xFF, 0x01, 0xFA, 0x05, 0xFB, 0xFC, 0x00, 0x02, 0x03, 0x03, 0xFC,
  0xFC, 0x01, 0x02, 0x01, 0xFE, 0x05, 0xFC, 0x02, 0x02, 0x01, 0x02, 0xFD,
  0x03, 0x02, 0x04, 0xFC, 0xFE, 0xFF, 0x01, 0x02, 0xFB, 0x04, 0xFA, 0x03,
  0x03, 0x02, 0xFB, 0x05, 0x00, 0x01, 0xFB, 0xFF, 0xFB, 0x01, 0xFC, 0x04,
  0x05, 0xFF, 0xFF, 0xFF, 0xFD, 0x03, 0xFF, 0xFC, 0x03, 0x01, 0x04, 0xFD,
  0x03, 0xFD, 0x02, 0x00, 0x01, 0x05, 0x05, 0x01, 0xFD, 0xFC, 0xFD, 0xFF,
  0xFF, 0xFF, 0xFF, 0x03, 0xFD, 0x02, 0x05, 0xFF, 0xFD, 0x05, 0xFD, 0xFE,
  0xFB, 0xFE, 0xFE, 0xFD, 0xFC, 0xFD, 0xFB, 0x03, 0xFE, 0x01, 0x03, 0xFA,
  0xFD, 0xFD, 0xFB, 0x01, 0x03, 0x04, 0x02, 0xFF, 0x04, 0x01, 0x01, 0xFC,
  0xFE, 0x02, 0xFF, 0x02, 0x01, 0x00, 0xFD, 0x03, 0x02, 0x02, 0xFF, 0xFB,
  0x03, 0x01, 0x02, 0xFC, 0xFE, 0xFB, 0xFA, 0xFC, 0xFE, 0xFE, 0x01, 0x00,
  0x02, 0xFA, 0xFF, 0xFE, 0xFC, 0x01, 0xFF, 0xFD, 0x02, 0x03, 0xFA, 0xFE,
  0x02, 0x00, 0x01, 0xFD, 0x06, 0x01, 0x03, 0xFB, 0x01, 0x02, 0xFC, 0xFF,
  0x03, 0xFE, 0xFA, 0xFD, 0xFB, 0x04, 0xFD, 0xFF, 0xFD, 0x02, 0xFC, 0x03,
  0x05, 0x04, 0xFA, 0xFC, 0x01, 0x03, 0x03, 0xFE, 0xFC, 0x05, 0x00, 0x03,
  0xFE, 0x00, 0xFA, 0xFE, 0x01, 0xFF, 0x01, 0xFE, 0xFC, 0xFC, 0xFC, 0xFA,
  0xFB, 0x01, 0x00, 0x01, 0x00, 0x01, 0x04, 0x04, 0xFC, 0xFD, 0x03, 0xFB,
  0xFB, 0xFD, 0xFC, 0x04, 0x02, 0xFF, 0xFB, 0x00, 0x04, 0xFD, 0x01, 0x03,
  0x01, 0x00, 0x01, 0x01, 0xFE, 0x05, 0xFE, 0xFD, 0x00, 0x05, 0x02, 0x01,
  0x01, 0x01, 0xFB, 0xFA, 0xFF, 0xFC, 0xFE, 0xFF, 0xFF, 0x01, 0x01, 0xFB,
  0xFF, 0x01, 0xFD, 0x04, 0x03, 0xFB, 0xFE, 0xFD, 0x00, 0xFE, 0x03, 0x02,
  0x00, 0x01, 0x02, 0xFF, 0x02, 0xFC, 0xFD, 0xFB, 0xFF, 0xFF, 0xFE, 0x03,
  0xFD, 0xFE, 0x00, 0xFB, 0xFE, 0x01, 0x00, 0xFE, 0x00, 0x00, 0xFA, 0xFD,
  0x01, 0x02, 0xFF, 0xFD, 0x03, 0xFC, 0x03, 0xFC, 0xFB, 0xFF, 0xFF, 0xFF,
  0x01, 0x01, 0xFB, 0x01, 0x02, 0x04, 0x01, 0x02, 0xFF, 0xFD, 0xFA, 0x01,
  0x04, 0x01, 0xFE, 0xFF, 0xFE, 0x00, 0xFF, 0xFB, 0x02, 0xFF, 0xFA, 0x03,
  0x02, 0xFC, 0xFD, 0x04, 0xFB, 0xFB, 0x04, 0xFD, 0x01, 0xFE, 0xFC, 0x01,
  0xFD, 0xFF, 0xFE, 0xFD, 0xFC, 0x04, 0x01, 0xFD, 0x03, 0xFF, 0xFE, 0x03,
  0x03, 0xFE, 0x01, 0x03, 0xFE, 0x03, 0xFF, 0xFD, 0x05, 0x04, 0x01, 0x03,
  0x00, 0x01, 0xFB, 0xFA, 0xFD, 0x01, 0xFE, 0xFD, 0x01, 0xFE, 0xFC, 0xFC,
  0xFE, 0xFB, 0x02, 0x04, 0x06, 0x00, 0xFC, 0xFE, 0xFE, 0x03, 0x00, 0x02,
  0xFC, 0xFB, 0xFD, 0xFF, 0xFD, 0xFE, 0xFD, 0xFD, 0xFB, 0xFD, 0x00, 0xFC,
  0xFE, 0xFF, 0xFF, 0xFC, 0x05, 0x05, 0xFC, 0x01, 0x01, 0xFD, 0x01, 0xFC,
  0xFF, 0xFA, 0xFC, 0xFC, 0x02, 0x03, 0xFE, 0xFE, 0xFD, 0x01, 0x01, 0x04,
  0xFF, 0xFF, 0x03, 0xFD, 0x05, 0xFD, 0xFF, 0x03, 0xFF, 0x01, 0xFE, 0xFB,
  0xFB, 0x04, 0xFA, 0x00, 0x06, 0xFE, 0x03, 0xFD, 0xFD, 0x01, 0xFA, 0x04,
  0xFF, 0xFB, 0x03, 0xFD, 0x04, 0xFB, 0xFB, 0xFE, 0x05, 0xFE, 0xFD, 0xFC,
  0x05, 0xFB, 0x03, 0xFD, 0xFD, 0x02, 0xFA, 0x04, 0x03, 0x01, 0x01, 0x02,
  0xFE, 0x03, 0xFF, 0x01, 0xFB, 0xFD, 0xFE, 0xFF, 0xFD, 0x03, 0x01, 0xFC,
  0xFF, 0xFA, 0xFF, 0x05, 0x02, 0xFF, 0xFA, 0x03, 0xFF, 0xFC, 0x01, 0xFD,
  0x00, 0xFF, 0xFB, 0x00, 0x04, 0xFE, 0xFE, 0xFF, 0x05, 0x04, 0xFE, 0x03,
  0xFE, 0xFD, 0xFC, 0xFD, 0x05, 0xFB, 0x00, 0x00, 0xFB, 0x05, 0xFE, 0xFD,
  0xFC, 0xFF, 0xFF, 0xFE, 0xFF, 0xFF, 0x02, 0x02, 0x03, 0x01, 0xFC, 0xFE,
  0x03, 0x01, 0xFF, 0xFB, 0x03, 0xFD, 0x04, 0x02, 0xFB, 0x04, 0x03, 0x01,
  0x02, 0x00, 0x00, 0x02, 0xFE, 0x04, 0xFE, 0x02, 0xFF, 0xFD, 0xF9, 0x02,
  0x03, 0x02, 0xFE, 0xFF, 0xFE, 0x05, 0xFB, 0x04, 0xFC, 0x03, 0xFF, 0x01,
  0x05, 0x00, 0xFB, 0xFF, 0x04, 0xFF, 0xFD, 0xFB, 0xFE, 0x02, 0xFF, 0x01,
  0x02, 0xFF, 0xFE, 0xFA, 0xFB, 0xFD, 0xFE, 0x00, 0xFD, 0x06, 0x03, 0x04,
  0xFE, 0xFF, 0xFD, 0xFE, 0xFB, 0xFE, 0xFC, 0xFF, 0xFB, 0x02, 0x03, 0xFA,
  0xFC, 0xFD, 0x04, 0xFD, 0x04, 0xFB, 0x04, 0x04, 0x02, 0x02, 0x02, 0xFB,
  0xFF, 0x05, 0x03, 0x04, 0xFE, 0x04, 0xFB, 0x04, 0xFB, 0x06, 0x00, 0xFA,
  0xFD, 0xFA, 0x04, 0xFC, 0x02, 0x01, 0x05, 0x03, 0x01, 0xFC, 0xFD, 0xFF,
  0xFF, 0x01, 0x01, 0xFF, 0xFF, 0x05, 0x02, 0xFA, 0x04, 0x06, 0x01, 0xFE,
  0x01, 0x01, 0xFC, 0x02, 0x05, 0x03, 0x00, 0x00, 0xFD, 0x05, 0xFB, 0xFA,
  0x03, 0x02, 0xFF, 0x00, 0xFC, 0x02, 0xFB, 0x04, 0xFB, 0xFD, 0xFE, 0x01,
  0x04, 0x03, 0xFA, 0x02, 0x01, 0x00, 0x04, 0xFC, 0xFB, 0x02, 0xFC, 0xFB,
  0x05, 0xFF, 0x02, 0xFE, 0x01, 0x00, 0x03, 0xFE, 0x00, 0xFD, 0x03, 0xFC,
  0x03, 0x02, 0x02, 0xFE, 0x04, 0xFC, 0xFA, 0x02, 0xFF, 0x05, 0xFB, 0xFB,
  0xFB, 0xFF, 0x03, 0xFF, 0x05, 0xFC, 0x05, 0xFC, 0x04, 0xFE, 0x04, 0xFF,
  0xFC, 0x01, 0x04, 0x04, 0x00, 0x05, 0x03, 0xFC, 0xFE, 0x05, 0x03, 0x01,
  0x05, 0x00, 0x02, 0x03, 0x02, 0x03, 0x03, 0x03, 0xFB, 0x00, 0xFB, 0xFD,
  0x00, 0xFC, 0x03, 0x04, 0xFD, 0x04, 0xFD, 0xFA, 0x03, 0x01, 0xFA, 0x01,
  0x01, 0xFB, 0xFE, 0x01, 0x00, 0xFF, 0x05, 0xFA, 0xFF, 0xFC, 0x00, 0xFC,
  0xFD, 0x04, 0xFB, 0x04, 0xFE, 0xFC, 0x01, 0x02, 0xFF, 0x02, 0x00, 0xFD,
  0xFE, 0xFD, 0x00, 0x01, 0xFB, 0xFC, 0xFE, 0xFB, 0x03, 0x06, 0x04, 0x01,
  0xFE, 0xFB, 0x02, 0xFD, 0x04, 0x01, 0xFD, 0xFD, 0x04, 0xFF, 0x03, 0xFC,
  0x01, 0x02, 0x01, 0xFD, 0x05, 0xFF, 0xFF, 0x03, 0xFD, 0x04, 0xFB, 0xFC,
  0x03, 0x01, 0x01, 0xFF, 0x04, 0x03, 0x02, 0xFE, 0xFD, 0x04, 0x00, 0x02,
  0x04, 0xFC, 0xFB, 0x04, 0xFB, 0xFC, 0x01, 0x00, 0x02, 0xFB, 0xFB, 0xFE,
  0x02, 0xFC, 0xFE, 0xFC, 0xFE, 0xFE, 0x00, 0xF9, 0xFE, 0x04, 0xFD, 0x03,
  0xFE, 0x00, 0x00, 0xFF, 0xFC, 0xFE, 0x02, 0xFE, 0x02, 0x04, 0xFC, 0x02,
  0xFB, 0xFC, 0xFE, 0xFB, 0x04, 0xFE, 0x04, 0xFA, 0xFB, 0xFE, 0x04, 0xFE,
  0xFD, 0x00, 0x01, 0x00, 0xFC, 0x02, 0xFD, 0xFF, 0xFE, 0x00, 0x00, 0xFE,
  0xFD, 0x04, 0x01, 0xFC, 0x03, 0xFC, 0xFF, 0xFC, 0xFC, 0xFA, 0x02, 0xFA,
  0xFC, 0x00, 0x01, 0x03, 0x00, 0x05, 0xFD, 0x01, 0x03, 0x04, 0x05, 0x03,
  0x05, 0x01, 0xFE, 0xFE, 0x02, 0x05, 0xFC, 0x00, 0xFE, 0xFF, 0xFF, 0x03,
  0x04, 0xFD, 0x04, 0xFB, 0x03, 0xFF, 0xFB, 0x00, 0x03, 0xFB, 0x01, 0x04,
  0x03, 0x00, 0x02, 0xFA, 0xFC, 0x03, 0xFD, 0xFB, 0x02, 0xFC, 0xFC, 0xF9,
  0xFE, 0xFC, 0x04, 0x03, 0xFF, 0x04, 0xFF, 0xFB, 0x01, 0xFB, 0x03, 0x00,
  0xFC, 0xFD, 0x04, 0x02, 0x00, 0xFB, 0xFF, 0xFC, 0xFE, 0xFE, 0x02, 0xFB,
  0x03, 0x03, 0x03, 0x03, 0xFC, 0x05, 0xFF, 0xFB, 0xFF, 0x02, 0xFE, 0xFC,
  0xFC, 0x05, 0xFB, 0xFD, 0x02, 0x04, 0xFF, 0xFF, 0x00, 0xFB, 0x03, 0x00,
  0x05, 0xFF, 0xFB, 0xFB, 0x05, 0xFB, 0xFC, 0x03, 0xFE, 0xFF, 0x01, 0x03,
  0x01, 0xFF, 0xFD, 0xFE, 0xFC, 0x05, 0x01, 0xFF, 0x02, 0xFB, 0x02, 0x00,
  0x01, 0xFC, 0x05, 0xFC, 0x05, 0xFE, 0xFA, 0x00, 0x05, 0xFE, 0xFC, 0x00,
  0xFC, 0x03, 0xFC, 0x04, 0x05, 0xFE, 0xFD, 0x03, 0x03, 0x03, 0xFC, 0xFB,
  0xFF, 0xFF, 0x01, 0xFA, 0x01, 0xFC, 0xFE, 0xFA, 0xFB, 0xFF, 0xFB, 0xFF,
  0xFC, 0xFF, 0xFB, 0x00, 0xFD, 0x03, 0xFD, 0xFE, 0xFB, 0xFD, 0xFC, 0xFB,
  0xFD, 0xFE, 0x02, 0x02, 0xFC, 0x02, 0x01, 0xFE, 0xFB, 0xFF, 0x01, 0x00,
