// Auto-generated on 2026-05-12
// Model: drone_model_qat_int8.tflite  |  Quantization: INT8 QAT  |  Size: 142816 bytes
#ifndef TF_DRONE_MODEL_QAT_H
#define TF_DRONE_MODEL_QAT_H
#include <stdint.h>
#include <stdalign.h>

alignas(16) const uint8_t tf_drone_model_qat[] = {
  0x1C, 0x00, 0x00, 0x00, 0x54, 0x46, 0x4C, 0x33, 0x14, 0x00, 0x20, 0x00,
  0x1C, 0x00, 0x18, 0x00, 0x14, 0x00, 0x10, 0x00, 0x0C, 0x00, 0x00, 0x00,
  0x08, 0x00, 0x04, 0x00, 0x14, 0x00, 0x00, 0x00, 0x1C, 0x00, 0x00, 0x00,
  0xD8, 0x00, 0x00, 0x00, 0x58, 0x01, 0x00, 0x00, 0xBC, 0x02, 0x02, 0x00,
  0xCC, 0x02, 0x02, 0x00, 0x0C, 0x2D, 0x02, 0x00, 0x03, 0x00, 0x00, 0x00,
  0x01, 0x00, 0x00, 0x00, 0x04, 0x00, 0x00, 0x00, 0x06, 0xF9, 0xFD, 0xFF,
  0x0C, 0x00, 0x00, 0x00, 0x1C, 0x00, 0x00, 0x00, 0x64, 0x00, 0x00, 0x00,
  0x0F, 0x00, 0x00, 0x00, 0x73, 0x65, 0x72, 0x76, 0x69, 0x6E, 0x67, 0x5F,
  0x64, 0x65, 0x66, 0x61, 0x75, 0x6C, 0x74, 0x00, 0x02, 0x00, 0x00, 0x00,
  0x28, 0x00, 0x00, 0x00, 0x04, 0x00, 0x00, 0x00, 0x20, 0xFF, 0xFF, 0xFF,
  0x30, 0x00, 0x00, 0x00, 0x04, 0x00, 0x00, 0x00, 0x0F, 0x00, 0x00, 0x00,
  0x71, 0x75, 0x61, 0x6E, 0x74, 0x5F, 0x63, 0x6C, 0x61, 0x73, 0x73, 0x5F,
  0x6F, 0x75, 0x74, 0x00, 0x40, 0xFF, 0xFF, 0xFF, 0x21, 0x00, 0x00, 0x00,
  0x04, 0x00, 0x00, 0x00, 0x0E, 0x00, 0x00, 0x00, 0x71, 0x75, 0x61, 0x6E,
  0x74, 0x5F, 0x62, 0x62, 0x6F, 0x78, 0x5F, 0x6F, 0x75, 0x74, 0x00, 0x00,
  0x02, 0x00, 0x00, 0x00, 0x28, 0x00, 0x00, 0x00, 0x04, 0x00, 0x00, 0x00,
  0x6C, 0xFF, 0xFF, 0xFF, 0x01, 0x00, 0x00, 0x00, 0x04, 0x00, 0x00, 0x00,
  0x0C, 0x00, 0x00, 0x00, 0x69, 0x6D, 0x61, 0x67, 0x65, 0x32, 0x5F, 0x69,
  0x6E, 0x70, 0x75, 0x74, 0x00, 0x00, 0x00, 0x00, 0x7E, 0xFA, 0xFD, 0xFF,
  0x04, 0x00, 0x00, 0x00, 0x0C, 0x00, 0x00, 0x00, 0x69, 0x6D, 0x61, 0x67,
  0x65, 0x31, 0x5F, 0x69, 0x6E, 0x70, 0x75, 0x74, 0x00, 0x00, 0x00, 0x00,
  0x03, 0x00, 0x00, 0x00, 0x5C, 0x00, 0x00, 0x00, 0x2C, 0x00, 0x00, 0x00,
  0x04, 0x00, 0x00, 0x00, 0xB8, 0xFF, 0xFF, 0xFF, 0x34, 0x00, 0x00, 0x00,
  0x04, 0x00, 0x00, 0x00, 0x13, 0x00, 0x00, 0x00, 0x43, 0x4F, 0x4E, 0x56,
  0x45, 0x52, 0x53, 0x49, 0x4F, 0x4E, 0x5F, 0x4D, 0x45, 0x54, 0x41, 0x44,
  0x41, 0x54, 0x41, 0x00, 0xDC, 0xFF, 0xFF, 0xFF, 0x33, 0x00, 0x00, 0x00,
  0x04, 0x00, 0x00, 0x00, 0x13, 0x00, 0x00, 0x00, 0x6D, 0x69, 0x6E, 0x5F,
  0x72, 0x75, 0x6E, 0x74, 0x69, 0x6D, 0x65, 0x5F, 0x76, 0x65, 0x72, 0x73,
  0x69, 0x6F, 0x6E, 0x00, 0x08, 0x00, 0x0C, 0x00, 0x08, 0x00, 0x04, 0x00,
  0x08, 0x00, 0x00, 0x00, 0x32, 0x00, 0x00, 0x00, 0x04, 0x00, 0x00, 0x00,
  0x13, 0x00, 0x00, 0x00, 0x6D, 0x69, 0x6E, 0x5F, 0x72, 0x75, 0x6E, 0x74,
  0x69, 0x6D, 0x65, 0x5F, 0x76, 0x65, 0x72, 0x73, 0x69, 0x6F, 0x6E, 0x00,
  0x35, 0x00, 0x00, 0x00, 0x60, 0x01, 0x02, 0x00, 0x58, 0x01, 0x02, 0x00,
  0x50, 0x01, 0x02, 0x00, 0x38, 0x01, 0x02, 0x00, 0x20, 0x01, 0x02, 0x00,
  0x94, 0xFF, 0x01, 0x00, 0xDC, 0xFE, 0x01, 0x00, 0xD4, 0xFE, 0x01, 0x00,
  0x0C, 0xED, 0x01, 0x00, 0xCC, 0xEC, 0x01, 0x00, 0xC4, 0xEC, 0x01, 0x00,
  0xBC, 0xEC, 0x01, 0x00, 0xB4, 0xEC, 0x01, 0x00, 0x28, 0xEB, 0x01, 0x00,
  0x70, 0xEA, 0x01, 0x00, 0x68, 0xEA, 0x01, 0x00, 0xA0, 0xD8, 0x01, 0x00,
  0x60, 0xD8, 0x01, 0x00, 0x58, 0xD8, 0x01, 0x00, 0x50, 0xD8, 0x01, 0x00,
  0x48, 0xD8, 0x01, 0x00, 0x40, 0xD8, 0x01, 0x00, 0x30, 0x16, 0x00, 0x00,
  0xE0, 0x15, 0x00, 0x00, 0xD8, 0x15, 0x00, 0x00, 0xC8, 0x14, 0x00, 0x00,
  0x78, 0x14, 0x00, 0x00, 0x70, 0x14, 0x00, 0x00, 0xE0, 0x13, 0x00, 0x00,
  0xB0, 0x13, 0x00, 0x00, 0xA8, 0x13, 0x00, 0x00, 0x78, 0x13, 0x00, 0x00,
  0x58, 0x13, 0x00, 0x00, 0x50, 0x13, 0x00, 0x00, 0x48, 0x13, 0x00, 0x00,
  0x40, 0x13, 0x00, 0x00, 0x38, 0x13, 0x00, 0x00, 0x28, 0x0D, 0x00, 0x00,
  0x18, 0x0C, 0x00, 0x00, 0x10, 0x0C, 0x00, 0x00, 0x00, 0x04, 0x00, 0x00,
  0x70, 0x03, 0x00, 0x00, 0x68, 0x03, 0x00, 0x00, 0x58, 0x01, 0x00, 0x00,
  0x08, 0x01, 0x00, 0x00, 0x00, 0x01, 0x00, 0x00, 0xE0, 0x00, 0x00, 0x00,
  0xCC, 0x00, 0x00, 0x00, 0xC4, 0x00, 0x00, 0x00, 0xBC, 0x00, 0x00, 0x00,
  0x9C, 0x00, 0x00, 0x00, 0x7C, 0x00, 0x00, 0x00, 0x04, 0x00, 0x00, 0x00,
  0xF6, 0xFB, 0xFD, 0xFF, 0x04, 0x00, 0x00, 0x00, 0x68, 0x00, 0x00, 0x00,
  0x10, 0x00, 0x00, 0x00, 0x00, 0x00, 0x00, 0x00, 0x08, 0x00, 0x0E, 0x00,
  0x08, 0x00, 0x04, 0x00, 0x08, 0x00, 0x00, 0x00, 0x10, 0x00, 0x00, 0x00,
  0x2C, 0x00, 0x00, 0x00, 0x00, 0x00, 0x06, 0x00, 0x08, 0x00, 0x04, 0x00,
  0x06, 0x00, 0x00, 0x00, 0x04, 0x00, 0x00, 0x00, 0x02, 0x00, 0x00, 0x00,
  0xEB, 0x03, 0x00, 0x00, 0xD0, 0x07, 0x00, 0x00, 0x0C, 0x00, 0x18, 0x00,
  0x14, 0x00, 0x10, 0x00, 0x0C, 0x00, 0x04, 0x00, 0x0C, 0x00, 0x00, 0x00,
  0x8A, 0x9A, 0xC2, 0xF6, 0xF0, 0x48, 0x4D, 0xF8, 0x02, 0x00, 0x00, 0x00,
  0x02, 0x00, 0x00, 0x00, 0x04, 0x00, 0x00, 0x00, 0x06, 0x00, 0x00, 0x00,
  0x32, 0x2E, 0x31, 0x39, 0x2E, 0x30, 0x00, 0x00, 0x6A, 0xFC, 0xFD, 0xFF,
  0x04, 0x00, 0x00, 0x00, 0x10, 0x00, 0x00, 0x00, 0x00, 0x00, 0x00, 0x00,
  0x00, 0x00, 0x00, 0x00, 0x00, 0x00, 0x00, 0x00, 0x00, 0x00, 0x00, 0x00,
  0x86, 0xFC, 0xFD, 0xFF, 0x04, 0x00, 0x00, 0x00, 0x10, 0x00, 0x00, 0x00,
  0x31, 0x2E, 0x31, 0x34, 0x2E, 0x30, 0x00, 0x00, 0x00, 0x00, 0x00, 0x00,
  0x00, 0x00, 0x00, 0x00, 0x24, 0xD7, 0xFD, 0xFF, 0x28, 0xD7, 0xFD, 0xFF,
  0xAA, 0xFC, 0xFD, 0xFF, 0x04, 0x00, 0x00, 0x00, 0x04, 0x00, 0x00, 0x00,
  0x0C, 0x01, 0x00, 0x00, 0xBA, 0xFC, 0xFD, 0xFF, 0x04, 0x00, 0x00, 0x00,
  0x10, 0x00, 0x00, 0x00, 0x05, 0xA6, 0xC3, 0xFC, 0xCC, 0x81, 0xAC, 0xC5,
  0x1B, 0x17, 0x99, 0x31, 0xB2, 0xD4, 0x61, 0x89, 0x58, 0xD7, 0xFD, 0xFF,
  0xDA, 0xFC, 0xFD, 0xFF, 0x04, 0x00, 0x00, 0x00, 0x40, 0x00, 0x00, 0x00,
  0xF3, 0xFF, 0xFF, 0xFF, 0x47, 0x00, 0x00, 0x00, 0x41, 0x00, 0x00, 0x00,
  0xED, 0xFF, 0xFF, 0xFF, 0x5B, 0x00, 0x00, 0x00, 0xA3, 0x00, 0x00, 0x00,
  0x49, 0x00, 0x00, 0x00, 0x17, 0x00, 0x00, 0x00, 0xDC, 0xFF, 0xFF, 0xFF,
  0x00, 0x00, 0x00, 0x00, 0xA5, 0x00, 0x00, 0x00, 0xDA, 0xFE, 0xFF, 0xFF,
  0x20, 0x00, 0x00, 0x00, 0x46, 0x00, 0x00, 0x00, 0xD2, 0x00, 0x00, 0x00,
  0x75, 0x00, 0x00, 0x00, 0x26, 0xFD, 0xFD, 0xFF, 0x04, 0x00, 0x00, 0x00,
  0x00, 0x02, 0x00, 0x00, 0x07, 0x05, 0xF9, 0xF0, 0xFE, 0x03, 0x03, 0xF2,
  0x11, 0x07, 0x0E, 0xFD, 0xF3, 0xF8, 0xFF, 0xFD, 0x05, 0xF8, 0x0D, 0xFB,
  0x05, 0x05, 0x04, 0xFE, 0x09, 0xED, 0xFA, 0xF2, 0xF6, 0xFE, 0x0D, 0xF1,
  0x59, 0x0D, 0xF8, 0xF1, 0x07, 0xFF, 0x13, 0xE5, 0x06, 0x20, 0xE3, 0x0A,
  0xF0, 0xF6, 0xEC, 0x0E, 0xFB, 0x22, 0x11, 0x06, 0x05, 0xF9, 0xEA, 0xF2,
  0xF1, 0x14, 0x13, 0x11, 0xF4, 0x0B, 0x0D, 0xE3, 0x3E, 0x00, 0xF3, 0xDC,
  0x0F, 0xF6, 0xF2, 0x04, 0x0F, 0x1D, 0x06, 0x07, 0x06, 0xF7, 0xE1, 0x14,
  0xF4, 0xFB, 0x08, 0x0D, 0x0D, 0xEC, 0xE0, 0xEF, 0xFC, 0x08, 0x19, 0x0E,
  0x06, 0x09, 0x02, 0x05, 0x0B, 0x0E, 0x0B, 0x00, 0xEF, 0x0B, 0xF4, 0xF0,
  0xFA, 0xF7, 0xF0, 0xFC, 0x07, 0xF0, 0xFD, 0xF9, 0xF2, 0xFD, 0xFD, 0x07,
  0x0C, 0xFC, 0x06, 0xF9, 0x0C, 0xF1, 0x10, 0x02, 0xF0, 0xFB, 0x10, 0x10,
  0x44, 0xF1, 0x00, 0xD7, 0x03, 0x0B, 0xF6, 0xFB, 0xFE, 0x20, 0xFA, 0x08,
  0x0A, 0xFB, 0xDB, 0x13, 0xF7, 0x0B, 0xEE, 0x06, 0x06, 0xDC, 0xE6, 0x02,
  0x10, 0x06, 0x11, 0xF9, 0x0B, 0x05, 0xFC, 0xF1, 0x21, 0x07, 0x0B, 0x18,
  0x11, 0x04, 0x16, 0x1C, 0x0F, 0x29, 0xBE, 0xC0, 0x00, 0x0A, 0x15, 0x16,
  0x05, 0x2C, 0xFE, 0xF4, 0xBF, 0x19, 0x26, 0x11, 0x07, 0x4C, 0x23, 0xDF,
  0xB7, 0x2C, 0xF8, 0xC9, 0x43, 0xF6, 0x0A, 0xF3, 0x04, 0xF6, 0x14, 0xF7,
  0x14, 0x19, 0xE5, 0xF2, 0x0D, 0xF3, 0xF9, 0xFE, 0xFA, 0x21, 0x00, 0xF5,
  0x07, 0xE4, 0xFB, 0x04, 0xF9, 0x0B, 0x18, 0x06, 0xFB, 0x1C, 0xFD, 0xED,
  0x43, 0x0C, 0xF6, 0xD4, 0x17, 0x10, 0x10, 0xF1, 0x1E, 0x1D, 0x07, 0x08,
  0x06, 0x04, 0xDC, 0x04, 0xFF, 0x19, 0x11, 0xF6, 0x02, 0xE6, 0xE2, 0x09,
  0x10, 0x0C, 0x04, 0x09, 0xF7, 0x1A, 0xF6, 0xF2, 0xF3, 0xFD, 0x0D, 0xEF,
  0xF9, 0xF0, 0x0D, 0xF2, 0x09, 0xF9, 0x04, 0xF9, 0x10, 0x06, 0x10, 0xF6,
  0x0D, 0x06, 0x05, 0xF0, 0xF4, 0xF7, 0xF0, 0x00, 0x05, 0xF4, 0x09, 0xFE,
  0x01, 0x01, 0x07, 0xFC, 0x09, 0x11, 0xFD, 0x0A, 0xF8, 0x0D, 0xF9, 0xFC,
  0xFA, 0xF0, 0x01, 0xF6, 0x11, 0x05, 0x0B, 0xF2, 0xF2, 0x02, 0x01, 0xF0,
  0xF6, 0xF1, 0x0D, 0x0D, 0xFE, 0xEF, 0x0F, 0x06, 0xF5, 0xF1, 0x07, 0xF2,
  0x2D, 0x07, 0xF4, 0x22, 0x1D, 0x12, 0x07, 0x07, 0x17, 0x20, 0xD8, 0xD9,
  0xFA, 0xF5, 0x18, 0x19, 0x0C, 0x3C, 0x09, 0x0F, 0xC8, 0x12, 0x14, 0xF7,
  0xFF, 0x62, 0x35, 0xD7, 0xD2, 0x17, 0xF3, 0xD2, 0x81, 0x02, 0xF0, 0x21,
  0x0F, 0xF9, 0xF1, 0xE1, 0xEB, 0xFD, 0x0F, 0x07, 0x06, 0xF5, 0xD5, 0xE9,
  0xF2, 0x1D, 0xF3, 0xFF, 0x00, 0xF6, 0xF2, 0xFE, 0x08, 0x1F, 0x05, 0x04,
  0x04, 0xFC, 0xF2, 0xEE, 0x4A, 0xF4, 0x03, 0xDF, 0xFC, 0x08, 0x10, 0xE7,
  0xF9, 0x20, 0xFB, 0x02, 0x09, 0x08, 0xD6, 0x07, 0x0C, 0x0C, 0xF1, 0x10,
  0xFB, 0xEA, 0xE6, 0x0A, 0x0A, 0x04, 0x20, 0xF6, 0xF5, 0x1C, 0xF0, 0x08,
  0x43, 0x06, 0xFA, 0xD3, 0x07, 0x11, 0x02, 0xE6, 0x0A, 0x19, 0x12, 0x09,
  0x05, 0xF1, 0xEE, 0xF9, 0x07, 0x17, 0xF0, 0xED, 0x06, 0xDA, 0xE6, 0x09,
  0xF6, 0x01, 0x05, 0x05, 0x15, 0x07, 0x03, 0xFE, 0xBF, 0x02, 0xF2, 0xAD,
  0xB3, 0x08, 0x20, 0x1A, 0xDD, 0xA6, 0x1F, 0x28, 0xF7, 0x11, 0x21, 0x19,
  0xF7, 0xA7, 0x12, 0x02, 0x20, 0xF4, 0x10, 0x08, 0x0E, 0xA7, 0xA4, 0xEE,
  0x30, 0xAB, 0xF9, 0x26, 0x3C, 0x0F, 0x06, 0x11, 0x0D, 0xFD, 0x13, 0x01,
  0xF8, 0x26, 0xE8, 0xF6, 0x02, 0x0E, 0xFA, 0x01, 0x11, 0x25, 0xFC, 0xF4,
  0x03, 0xF7, 0xF2, 0x08, 0x07, 0x14, 0x0E, 0xE8, 0xF3, 0x0B, 0x03, 0xF1,
  0xB4, 0xD9, 0xFD, 0xFF, 0x36, 0xFF, 0xFD, 0xFF, 0x04, 0x00, 0x00, 0x00,
  0x80, 0x00, 0x00, 0x00, 0x39, 0x01, 0x00, 0x00, 0x01, 0x00, 0x00, 0x00,
  0x00, 0x00, 0x00, 0x00, 0x2A, 0xFE, 0xFF, 0xFF, 0x66, 0xFF, 0xFF, 0xFF,
  0xF4, 0xFF, 0xFF, 0xFF, 0x16, 0x06, 0x00, 0x00, 0x76, 0x02, 0x00, 0x00,
  0x81, 0xFE, 0xFF, 0xFF, 0x8E, 0xFF, 0xFF, 0xFF, 0x84, 0xFE, 0xFF, 0xFF,
  0xDF, 0xFE, 0xFF, 0xFF, 0x00, 0x00, 0x00, 0x00, 0x00, 0x00, 0x00, 0x00,
  0x8D, 0x01, 0x00, 0x00, 0x97, 0x04, 0x00, 0x00, 0x0F, 0x00, 0x00, 0x00,
  0xB1, 0xFF, 0xFF, 0xFF, 0x4F, 0x00, 0x00, 0x00, 0xCD, 0xFF, 0xFF, 0xFF,
  0xEF, 0xFE, 0xFF, 0xFF, 0x88, 0x01, 0x00, 0x00, 0x8B, 0x01, 0x00, 0x00,
  0x92, 0xFF, 0xFF, 0xFF, 0x02, 0x00, 0x00, 0x00, 0x69, 0xFF, 0xFF, 0xFF,
  0xE3, 0xFF, 0xFF, 0xFF, 0xAB, 0xFE, 0xFF, 0xFF, 0xD5, 0xFE, 0xFF, 0xFF,
  0x79, 0xFF, 0xFF, 0xFF, 0x00, 0x00, 0x00, 0x00, 0x91, 0xFE, 0xFF, 0xFF,
  0xC2, 0xFF, 0xFD, 0xFF, 0x04, 0x00, 0x00, 0x00, 0x00, 0x08, 0x00, 0x00,
  0x2C, 0xEB, 0xFB, 0xF5, 0x15, 0x00, 0xF4, 0x1C, 0x09, 0xE7, 0xF0, 0xF1,
  0x0F, 0xF3, 0xEF, 0xFE, 0xF0, 0x0B, 0x29, 0x11, 0xFC, 0x06, 0x7F, 0xF6,
  0x12, 0xDB, 0xF7, 0xF9, 0xFC, 0xD1, 0x1F, 0x03, 0xF4, 0x08, 0x0D, 0x0A,
  0x09, 0xE0, 0x08, 0x07, 0xE0, 0xD8, 0x1E, 0x04, 0x0B, 0x05, 0x06, 0x14,
  0xCA, 0xF4, 0xF4, 0x01, 0x0A, 0xF2, 0xFA, 0xE6, 0xFB, 0xCA, 0x2F, 0x09,
  0xFD, 0xF8, 0x0F, 0xB5, 0x0B, 0xF6, 0x0D, 0xF3, 0xFE, 0xFA, 0xF8, 0x0C,
  0xF2, 0x03, 0xF5, 0xFD, 0x01, 0xF4, 0x08, 0xF1, 0xF2, 0x00, 0xF3, 0x0F,
  0x03, 0xF9, 0x00, 0xF1, 0x01, 0x0A, 0x0B, 0x02, 0x01, 0x04, 0xFE, 0x00,
  0xF9, 0xF9, 0xFA, 0xFC, 0xF9, 0xFB, 0x07, 0xF4, 0x0F, 0x01, 0x03, 0x02,
  0x06, 0x07, 0x05, 0x0A, 0x0D, 0xF4, 0xF5, 0x0D, 0x0A, 0xF6, 0xF2, 0xFB,
  0xF3, 0xF1, 0x03, 0xF9, 0xF6, 0x01, 0xF1, 0x0E, 0xFE, 0x08, 0xF4, 0xF2,
  0xFF, 0xFA, 0xF0, 0x02, 0xFE, 0x0A, 0xFA, 0x00, 0x03, 0xF8, 0xF4, 0xFE,
  0x0A, 0xFB, 0xF1, 0xFC, 0xF7, 0xF7, 0x01, 0xFC, 0xF6, 0x08, 0xF6, 0x0B,
  0x06, 0x01, 0x00, 0xF9, 0x02, 0xF5, 0xFC, 0xF3, 0x04, 0xF0, 0x0B, 0x05,
  0xF1, 0xF2, 0xFF, 0x0C, 0xF6, 0xF7, 0xFB, 0xF7, 0x07, 0x0E, 0xF1, 0x01,
  0xF5, 0x02, 0x00, 0x0C, 0x0D, 0x05, 0x0D, 0xF6, 0xF5, 0xF2, 0xF0, 0xF5,
  0x29, 0x18, 0x0A, 0xE8, 0x28, 0x13, 0xF0, 0x0F, 0xD6, 0x0B, 0xFD, 0x17,
  0x0A, 0xD8, 0xE9, 0x0A, 0x26, 0x0E, 0x16, 0x29, 0x09, 0xF7, 0xD0, 0xFA,
  0xAB, 0x07, 0xF0, 0x03, 0xF0, 0x26, 0x28, 0x28, 0x00, 0x07, 0xF3, 0x11,
  0x22, 0x13, 0xFD, 0xF4, 0xBA, 0xE7, 0xDD, 0xFA, 0xF7, 0xF7, 0xF5, 0x17,
  0x0E, 0xF7, 0x0D, 0xFC, 0x0C, 0xFF, 0x0F, 0x10, 0xE3, 0x14, 0xE5, 0x18,
  0x02, 0x10, 0xFA, 0xF0, 0xE7, 0x26, 0xF5, 0x06, 0xFF, 0x08, 0xF1, 0xF2,
  0xE7, 0x13, 0xEB, 0x13, 0x01, 0x01, 0xFF, 0xF1, 0x1D, 0xE2, 0xF7, 0x25,
  0x0E, 0xF9, 0xF3, 0xFC, 0xE3, 0xE4, 0xF5, 0x05, 0xFA, 0x07, 0x2C, 0x22,
  0x03, 0xFA, 0xF9, 0xF4, 0x30, 0x15, 0xFE, 0x0C, 0xF8, 0xFB, 0x23, 0xFD,
  0xF6, 0xF0, 0xF3, 0x02, 0x15, 0xFC, 0xF6, 0x03, 0x03, 0xF5, 0x00, 0x04,
  0xEA, 0x1D, 0x0F, 0xFC, 0x00, 0x13, 0x04, 0x03, 0x01, 0x03, 0x03, 0xFD,
  0xFA, 0xF7, 0x02, 0x0C, 0xF5, 0x04, 0xF3, 0xF9, 0x0B, 0xF9, 0xF8, 0xFA,
  0xF2, 0x02, 0xFB, 0xF3, 0x0D, 0xF1, 0x05, 0xFD, 0xFE, 0xF8, 0xF3, 0xF5,
  0x05, 0xF7, 0xFA, 0x03, 0x0C, 0x0D, 0x0E, 0x00, 0x00, 0xFD, 0xF3, 0x07,
  0x03, 0x04, 0xFC, 0x05, 0x05, 0x08, 0x01, 0x04, 0x00, 0x0A, 0x0B, 0xF6,
  0xFD, 0xF0, 0x0B, 0xFD, 0xEF, 0x08, 0xFD, 0x01, 0x0B, 0x03, 0x09, 0xFD,
  0x27, 0xF2, 0x05, 0x12, 0xF4, 0x11, 0x0F, 0xFF, 0x2C, 0x0A, 0xE6, 0x1E,
  0x02, 0x26, 0x00, 0x0B, 0xF8, 0xE3, 0x13, 0xE6, 0x07, 0x05, 0x48, 0x15,
  0x2A, 0x1D, 0x01, 0xF1, 0xF3, 0xF6, 0xE6, 0xF3, 0x04, 0xF7, 0xF3, 0xE5,
  0xD6, 0xFB, 0x00, 0x08, 0x29, 0x04, 0xF3, 0xFF, 0x0A, 0x06, 0x20, 0x2C,
  0xDE, 0x0C, 0x00, 0x10, 0xF8, 0x1F, 0xFD, 0xF4, 0x10, 0xFA, 0xF6, 0x11,
  0x13, 0x0E, 0xF4, 0xF2, 0x19, 0xF3, 0xFA, 0x1B, 0xF8, 0xF4, 0x0D, 0xEE,
  0x14, 0x0C, 0x28, 0xF6, 0xF1, 0x19, 0x0A, 0xF2, 0xFA, 0x32, 0x11, 0xC7,
  0x05, 0x02, 0xF9, 0x07, 0x21, 0x23, 0xF4, 0x02, 0x08, 0xE2, 0xD4, 0xEB,
  0x0B, 0x10, 0x0C, 0x14, 0xCB, 0xED, 0xF9, 0x10, 0x1B, 0x14, 0xFC, 0x08,
  0x08, 0xF7, 0x09, 0xED, 0xF7, 0x05, 0x05, 0xF2, 0x08, 0x1E, 0xF2, 0xFA,
  0x1D, 0xEC, 0x0F, 0x11, 0xF9, 0xFA, 0xF4, 0x10, 0x18, 0xF8, 0xFA, 0x00,
  0x0A, 0xF7, 0x05, 0x04, 0xFB, 0xF4, 0x11, 0xF5, 0xF3, 0xF8, 0x32, 0x0C,
  0x0B, 0x0B, 0x06, 0xE8, 0xF5, 0xFF, 0x04, 0xFF, 0xEB, 0x06, 0x0A, 0x07,
  0x0E, 0xF3, 0x04, 0xFF, 0xF4, 0xF0, 0x1E, 0xFF, 0xFC, 0xFB, 0x0E, 0x03,
  0x04, 0xFE, 0x55, 0x0A, 0xFD, 0xF6, 0xF2, 0xF9, 0x12, 0x0B, 0xF7, 0xF9,
  0xF1, 0x10, 0x0D, 0xFF, 0x07, 0x0E, 0x1F, 0xF4, 0x05, 0x03, 0x00, 0x0B,
  0xF8, 0x1C, 0xFC, 0xF9, 0x02, 0x04, 0x07, 0x04, 0xFA, 0x02, 0xDF, 0x06,
  0x03, 0xE8, 0xE2, 0xF1, 0x12, 0xCB, 0xEA, 0x2B, 0x0D, 0xFC, 0x4A, 0x0F,
  0x02, 0xDE, 0xFF, 0x05, 0x0C, 0x18, 0x25, 0x1A, 0xFB, 0x0F, 0xFE, 0xE2,
  0x23, 0x16, 0xF3, 0x06, 0xE3, 0xE8, 0x15, 0xF3, 0x03, 0xF5, 0xFF, 0x16,
  0xEA, 0xF8, 0xF5, 0xF4, 0xFB, 0xEA, 0x08, 0x15, 0xFE, 0x13, 0x08, 0x05,
  0x11, 0x0A, 0xFF, 0x04, 0x1D, 0x20, 0xF9, 0xFE, 0x25, 0x1A, 0xF8, 0x3F,
  0xF8, 0x18, 0x11, 0x07, 0xFC, 0xE5, 0x08, 0x04, 0x22, 0x0F, 0x21, 0xE0,
  0x09, 0x01, 0x9C, 0x17, 0xEC, 0xF5, 0x06, 0xF2, 0x03, 0x22, 0x05, 0x17,
  0xFB, 0xF7, 0x14, 0x49, 0xFC, 0x06, 0xFD, 0xF7, 0xFC, 0xFC, 0x06, 0x0C,
  0xF1, 0x0A, 0xFE, 0x25, 0x1D, 0x01, 0xF9, 0x0F, 0x00, 0xE1, 0x2A, 0x2B,
  0xF2, 0x1F, 0x00, 0x1A, 0x1E, 0x19, 0x01, 0xEE, 0x25, 0x12, 0x0F, 0xFB,
  0x33, 0x27, 0x05, 0x2C, 0xF8, 0x0B, 0x07, 0x0A, 0x0D, 0xE8, 0x13, 0x10,
  0x1C, 0xEB, 0x25, 0xE8, 0xFA, 0x0D, 0x9B, 0x01, 0xEF, 0xF3, 0xF1, 0x07,
  0x05, 0x10, 0x1B, 0x09, 0x0B, 0x0A, 0xF1, 0x39, 0xFC, 0x0D, 0xF4, 0xFD,
  0xEC, 0xFF, 0xFF, 0x0B, 0x0B, 0x10, 0xF9, 0x2C, 0x12, 0x0D, 0xF1, 0xF7,
  0xFD, 0xDD, 0x18, 0x28, 0xFF, 0x1F, 0xF6, 0x19, 0x1B, 0x25, 0x07, 0xF8,
  0xF1, 0x07, 0xF3, 0xF0, 0xF2, 0xF5, 0x02, 0xF4, 0xF2, 0xF8, 0xFB, 0xF2,
  0x0B, 0x02, 0x01, 0x10, 0xFF, 0xFA, 0x09, 0x0E, 0xF0, 0x05, 0xFE, 0xF2,
  0x00, 0xFB, 0xFC, 0x0F, 0x07, 0x0C, 0xFC, 0x04, 0xF2, 0xF7, 0xFE, 0xF2,
  0x0F, 0xF5, 0xF3, 0x0E, 0x05, 0x02, 0x0D, 0x05, 0x02, 0x0D, 0xF3, 0x05,
  0x05, 0xF8, 0x07, 0xFE, 0x09, 0xFB, 0xF3, 0x05, 0x08, 0x05, 0x05, 0x0F,
  0x05, 0x0E, 0x0A, 0xF7, 0x0F, 0x02, 0x0E, 0x04, 0x03, 0x10, 0xFC, 0xF0,
  0x0C, 0xF4, 0x05, 0xF7, 0xF8, 0x0D, 0xF3, 0xFC, 0xF7, 0xFE, 0xF3, 0xF4,
  0xF5, 0x07, 0x03, 0x0C, 0xF2, 0xF3, 0x00, 0xF2, 0x09, 0xFA, 0x04, 0x0D,
  0xF8, 0xF2, 0xF1, 0xF9, 0x0F, 0x01, 0x00, 0xFA, 0xFE, 0xF8, 0xFC, 0x0A,
  0x00, 0x02, 0xF3, 0x00, 0xFB, 0x0A, 0xF4, 0xFD, 0xF4, 0x05, 0xFC, 0x00,
  0xFC, 0x04, 0x09, 0x0B, 0xF2, 0xFB, 0xF2, 0xF5, 0x0A, 0xF3, 0xF3, 0x16,
  0x09, 0xF1, 0xFF, 0xF8, 0x1D, 0xF8, 0x17, 0xFB, 0xFC, 0x0E, 0x19, 0xF5,
  0xF0, 0x24, 0x04, 0xCE, 0x03, 0x0C, 0xCB, 0x09, 0x17, 0x1B, 0x07, 0x09,
  0xF3, 0xE8, 0xDC, 0xE8, 0xFC, 0x00, 0x05, 0x0E, 0xBB, 0xFB, 0x06, 0x03,
  0x1A, 0x04, 0xF5, 0xF1, 0x07, 0xFE, 0x1B, 0xEC, 0x12, 0xFB, 0xFA, 0x0C,
  0x0E, 0x08, 0xF2, 0xEC, 0x18, 0xEA, 0xF9, 0x0A, 0x03, 0x0D, 0x05, 0x03,
  0x0A, 0xF8, 0xFB, 0x1F, 0x08, 0x00, 0xF9, 0xF2, 0x2A, 0xF4, 0xF7, 0x1B,
  0xF1, 0x20, 0x16, 0xF2, 0xFE, 0xCE, 0xF5, 0x0B, 0x00, 0xF4, 0x4F, 0x04,
  0x18, 0x17, 0x0A, 0xF2, 0x07, 0xED, 0x06, 0x01, 0xF7, 0x0B, 0x10, 0xF1,
  0xE6, 0xF2, 0x0A, 0xF9, 0x24, 0x12, 0x11, 0x0C, 0xFD, 0x06, 0x1A, 0x1E,
  0xFD, 0xFC, 0x07, 0x0A, 0x0D, 0x04, 0xF1, 0x08, 0x19, 0xE8, 0xF3, 0xFC,
  0x05, 0x00, 0x00, 0x07, 0xF6, 0xFD, 0xF2, 0x04, 0xF3, 0xF5, 0x05, 0x06,
  0x08, 0x07, 0xF5, 0xF9, 0xF6, 0xF4, 0xFE, 0x05, 0x05, 0xF9, 0xF9, 0x02,
  0x0C, 0xF1, 0xF2, 0xF0, 0xF0, 0xF4, 0xF7, 0x02, 0xF2, 0xFF, 0x05, 0xF7,
  0xF7, 0xF4, 0x08, 0x09, 0x01, 0x07, 0xF0, 0x09, 0xFC, 0xFD, 0x10, 0xF8,
  0xFD, 0x07, 0x09, 0x0C, 0xFD, 0xFA, 0xF9, 0xEF, 0xFC, 0x00, 0x0B, 0x08,
  0x09, 0x03, 0xF9, 0x10, 0xF4, 0x03, 0x01, 0x0B, 0x0D, 0x14, 0x0E, 0xF2,
  0x0B, 0x0C, 0xFE, 0xF5, 0xF7, 0xFD, 0xEF, 0x0C, 0x0D, 0xFA, 0xF3, 0x09,
  0x01, 0xD6, 0xFE, 0x2F, 0xF8, 0xF3, 0x6A, 0x00, 0xF5, 0xEB, 0x04, 0xF9,
  0x0D, 0x03, 0x23, 0x21, 0x0B, 0xF3, 0x17, 0xEB, 0x34, 0x0D, 0xF7, 0x0F,
  0xEC, 0xED, 0xFF, 0xF6, 0xFE, 0xFD, 0x04, 0x16, 0x00, 0x03, 0xF5, 0xF1,
  0x0B, 0xDD, 0x00, 0xFC, 0xEE, 0x07, 0xFC, 0xF7, 0x0F, 0x00, 0x0E, 0x05,
  0xF2, 0x0B, 0xFB, 0xFD, 0x10, 0x08, 0x0B, 0x0F, 0xFC, 0xFB, 0x06, 0xF2,
  0xFD, 0x03, 0xF1, 0xF7, 0x0B, 0xF4, 0xFA, 0x04, 0x09, 0xF3, 0xF4, 0xF2,
  0x02, 0xF4, 0xF4, 0x01, 0x04, 0x00, 0x0C, 0x0A, 0x05, 0x05, 0xF4, 0x08,
  0xFD, 0xFF, 0xF9, 0x09, 0x10, 0xFE, 0xF9, 0xF6, 0xF0, 0x0F, 0x02, 0x00,
  0x11, 0x06, 0x08, 0x0A, 0x06, 0xFE, 0xF4, 0xF5, 0xF1, 0xF3, 0x0D, 0xF7,
  0x06, 0xF1, 0x0D, 0x11, 0xFA, 0x0E, 0xF0, 0xF9, 0xF1, 0xFE, 0xF6, 0xFC,
  0xFA, 0x01, 0xFF, 0x0C, 0xF2, 0x0C, 0xFE, 0xF2, 0xF3, 0xF0, 0xFE, 0xF8,
  0x06, 0xF3, 0x07, 0x08, 0xFF, 0x04, 0x0E, 0xF1, 0x03, 0xEF, 0x07, 0xF2,
  0xF7, 0xF6, 0x0D, 0xF6, 0xF4, 0xF1, 0x05, 0xF8, 0x02, 0x0B, 0x0F, 0xF3,
  0x05, 0x0A, 0xFD, 0xF2, 0x00, 0xFF, 0x10, 0x0D, 0xF5, 0xF1, 0xF6, 0xF1,
  0xFE, 0xF0, 0x01, 0xF3, 0xFE, 0xFA, 0x07, 0xF6, 0x23, 0x17, 0xFE, 0x00,
  0x2A, 0x28, 0x04, 0x29, 0xE8, 0x11, 0xF7, 0x13, 0x03, 0xFA, 0x11, 0xF0,
  0x1D, 0xF4, 0x25, 0xE9, 0xFE, 0x04, 0xAC, 0x08, 0xF0, 0xE8, 0x01, 0x07,
  0xF8, 0x14, 0x10, 0x06, 0x08, 0x05, 0xF6, 0x20, 0xF4, 0x19, 0xF7, 0xF4,
  0xE4, 0x03, 0xF2, 0xFE, 0x0A, 0x05, 0x07, 0x1C, 0x23, 0xF5, 0x06, 0xFF,
  0x03, 0xF9, 0x20, 0x06, 0xEB, 0x09, 0xF8, 0x27, 0x1B, 0x1C, 0xFE, 0xEE,
  0xEE, 0xEB, 0xFF, 0x14, 0xE6, 0xED, 0xF5, 0xF1, 0x06, 0x01, 0x1D, 0x0D,
  0x02, 0x13, 0x0E, 0x00, 0xF6, 0x32, 0xF0, 0xF0, 0xF1, 0xF2, 0x18, 0xFF,
  0x0E, 0x18, 0x04, 0x01, 0x03, 0xE4, 0xE3, 0xFE, 0xEF, 0xF5, 0xFE, 0xFC,
  0xE9, 0x03, 0x0B, 0x0A, 0x0D, 0x01, 0x06, 0xF4, 0xF1, 0x00, 0x11, 0xE9,
  0x01, 0xF4, 0x07, 0x0F, 0xF4, 0x28, 0xF5, 0xEC, 0x12, 0x09, 0xFA, 0xFF,
  0xF5, 0xEB, 0xF2, 0xFB, 0xEE, 0xE6, 0xF1, 0x0E, 0xE8, 0xF9, 0xF3, 0xF3,
  0x0C, 0x03, 0x15, 0x0F, 0x06, 0x0E, 0x07, 0xF5, 0xDF, 0x25, 0xED, 0xCF,
  0xF1, 0x11, 0x04, 0x10, 0x1A, 0x19, 0xFA, 0x08, 0xF1, 0xF4, 0xC8, 0xD4,
  0xFE, 0x0C, 0x05, 0xFC, 0xDD, 0xE0, 0xEE, 0x02, 0x29, 0x11, 0xF3, 0x0B,
  0xF6, 0x01, 0x10, 0xF0, 0xFA, 0xF8, 0xF3, 0xFB, 0x03, 0x24, 0xEB, 0xE6,
  0x1D, 0xEF, 0x0D, 0xF1, 0x05, 0xF1, 0x01, 0xFF, 0x0A, 0x07, 0x0C, 0xEF,
  0x07, 0x01, 0xF9, 0x0C, 0x00, 0xEF, 0xFA, 0x00, 0x0E, 0xFE, 0xF6, 0x0D,
  0x04, 0xF9, 0x00, 0x0B, 0xF3, 0xFA, 0xF9, 0xEF, 0xFB, 0x00, 0xF8, 0x09,
  0xF8, 0x0A, 0xEF, 0xFB, 0x0E, 0xF5, 0x0A, 0xEE, 0xEE, 0xFA, 0x0F, 0x06,
  0xF4, 0xF0, 0xF1, 0xF8, 0x0A, 0xFB, 0xFF, 0xF6, 0x0D, 0xFC, 0xF2, 0xF7,
  0xFC, 0xFC, 0xFD, 0xEE, 0x07, 0x0B, 0x03, 0xF9, 0x08, 0x06, 0xFD, 0xF5,
  0xF4, 0x0C, 0xFE, 0xF1, 0x0A, 0x0F, 0x06, 0x0A, 0xFA, 0xF5, 0xF8, 0xF3,
  0xF3, 0x0B, 0x10, 0x09, 0x0C, 0x09, 0xFA, 0xF5, 0x0A, 0x06, 0x04, 0xF3,
  0x0E, 0x01, 0x0C, 0x09, 0x04, 0xFC, 0x0D, 0xFD, 0x0B, 0x08, 0x0E, 0xF3,
  0x04, 0x06, 0x04, 0xF2, 0x00, 0x01, 0xFF, 0x07, 0x10, 0x08, 0xF6, 0xFB,
  0xF8, 0xF4, 0x06, 0x05, 0xF8, 0xF3, 0xF7, 0xFA, 0xF5, 0xF5, 0xF4, 0xF0,
  0x01, 0x0E, 0xF1, 0x0B, 0x18, 0x22, 0x0D, 0xFA, 0x10, 0xFA, 0xF2, 0xFD,
  0xF0, 0x03, 0xFE, 0x0A, 0xFF, 0xDE, 0xF4, 0xFD, 0x04, 0x06, 0x18, 0x31,
  0x10, 0x0F, 0x7A, 0xFB, 0x02, 0xEF, 0x0A, 0xF9, 0xF8, 0x0D, 0x22, 0x18,
  0x0D, 0x0D, 0x0B, 0x03, 0x30, 0x1A, 0x05, 0x01, 0xDA, 0xEF, 0x09, 0x01,
  0x09, 0x05, 0xFB, 0x1D, 0x04, 0x0B, 0xF3, 0x01, 0x05, 0xE2, 0x04, 0x1C,
  0xED, 0x08, 0x19, 0x0E, 0x00, 0x05, 0x05, 0x0B, 0x00, 0x10, 0x03, 0x05,
  0xFD, 0xF5, 0x10, 0x06, 0xF2, 0xFF, 0xE3, 0x0D, 0x02, 0xFF, 0xF2, 0x01,
  0x20, 0xCC, 0x02, 0x2C, 0xF0, 0x06, 0x4D, 0x0D, 0xEB, 0xDE, 0xEF, 0xFB,
  0xF9, 0x0B, 0x2E, 0x22, 0xFA, 0x09, 0x02, 0xFE, 0x2F, 0x19, 0x0A, 0xF4,
  0xDA, 0xF2, 0x10, 0xFB, 0x0E, 0x02, 0xF2, 0x0E, 0x05, 0x04, 0x00, 0x08,
  0x01, 0xE3, 0xF7, 0x14, 0xF6, 0x0D, 0xFF, 0x09, 0x16, 0x00, 0x02, 0x0B,
  0xF4, 0x0D, 0xFA, 0xFE, 0x0A, 0x0F, 0x02, 0x1F, 0xEA, 0x19, 0xE5, 0x13,
  0xF2, 0xEF, 0xFA, 0x06, 0x1A, 0xDE, 0x07, 0x22, 0x07, 0xFB, 0xDA, 0x11,
  0xF9, 0xF2, 0xF0, 0xF3, 0x0B, 0x22, 0x21, 0x16, 0x01, 0xFA, 0x0D, 0x20,
  0x12, 0x14, 0xFF, 0xF2, 0xF8, 0xF8, 0x1E, 0xF1, 0x00, 0xF3, 0x03, 0x0F,
  0x0F, 0x03, 0x08, 0x07, 0x0C, 0xF6, 0x05, 0x12, 0x04, 0x16, 0x05, 0x01,
  0x11, 0x19, 0xF8, 0x00, 0x30, 0x16, 0x02, 0x03, 0x3D, 0x2A, 0x00, 0x42,
  0xEA, 0x05, 0x00, 0xF7, 0xF8, 0x01, 0x11, 0xF4, 0x2C, 0xF2, 0x25, 0xD7,
  0x0B, 0xFC, 0x88, 0x05, 0xF7, 0xF6, 0xF5, 0x05, 0xF8, 0x18, 0x08, 0x02,
  0xF5, 0xF8, 0x09, 0x2B, 0xF5, 0x13, 0xF3, 0xF9, 0xFA, 0xFA, 0x02, 0x0B,
  0xFC, 0xFC, 0xFE, 0x18, 0x0D, 0x06, 0x10, 0xFD, 0xFB, 0xE4, 0x26, 0x2A,
  0xF9, 0x27, 0x03, 0x34, 0x1F, 0x1E, 0x0F, 0xE9, 0xE8, 0x0E, 0xF6, 0xF2,
  0x0F, 0xF5, 0x09, 0xFB, 0xFF, 0x0A, 0xFB, 0x05, 0xF3, 0xF7, 0xEB, 0xF5,
  0x0B, 0xD6, 0xED, 0x31, 0xFF, 0x02, 0x09, 0x0B, 0xF3, 0xED, 0x08, 0xF9,
  0xF2, 0x16, 0x1F, 0x09, 0x09, 0x03, 0x04, 0xF6, 0x33, 0x20, 0xFE, 0xFA,
  0xF0, 0xF3, 0x22, 0x0F, 0xF1, 0xF3, 0xF4, 0x15, 0x0E, 0xFB, 0x03, 0xF3,
  0x08, 0xE9, 0x12, 0x1E, 0xFF, 0x14, 0x0C, 0xFB, 0x06, 0x0E, 0xF2, 0x0A,
  0xFF, 0xFB, 0xF1, 0xF2, 0xFD, 0x0D, 0x0B, 0xF5, 0xFC, 0x0B, 0xF5, 0xFA,
  0x0F, 0xF9, 0x05, 0xFE, 0xFD, 0xF6, 0xF9, 0x01, 0xFA, 0xF9, 0x0A, 0xFF,
  0xF6, 0x06, 0x06, 0xF2, 0xF2, 0x07, 0xF8, 0xFB, 0xFF, 0x0A, 0x09, 0x0D,
  0xFD, 0xF8, 0x04, 0x09, 0xF7, 0x0A, 0x0E, 0xF2, 0x05, 0xF0, 0xFA, 0xF3,
  0xF1, 0xF2, 0xF3, 0x0A, 0xF2, 0xF7, 0x0D, 0xF4, 0xFC, 0x00, 0x00, 0xF3,
  0xFC, 0x00, 0x07, 0xF4, 0x25, 0x0D, 0xF4, 0xFF, 0x3D, 0x27, 0x04, 0x37,
  0xFB, 0x15, 0x17, 0x08, 0x07, 0xE2, 0x02, 0x0B, 0x24, 0x12, 0x33, 0xCA,
  0x07, 0x04, 0x8C, 0x03, 0xEF, 0xF2, 0x08, 0xF8, 0xFB, 0x0E, 0xE3, 0xFA,
  0xF0, 0xFE, 0x0F, 0x34, 0xD1, 0x1A, 0x01, 0x02, 0xDF, 0x08, 0xFD, 0xFB,
  0xF5, 0xF0, 0x07, 0x27, 0x23, 0x00, 0xF8, 0x06, 0xFE, 0xEF, 0x1F, 0x2C,
  0xF2, 0x20, 0x01, 0x36, 0x19, 0x0D, 0x10, 0x04, 0x50, 0xE2, 0xFD, 0xFF,
  0xD2, 0x07, 0xFE, 0xFF, 0x04, 0x00, 0x00, 0x00, 0x00, 0x01, 0x00, 0x00,
  0xCE, 0xFE, 0xFF, 0xFF, 0xB6, 0xFE, 0xFF, 0xFF, 0xFD, 0xFF, 0xFF, 0xFF,
  0x77, 0x01, 0x00, 0x00, 0x74, 0xFE, 0xFF, 0xFF, 0x1A, 0xFE, 0xFF, 0xFF,
  0xCE, 0xFF, 0xFF, 0xFF, 0x7B, 0xFE, 0xFF, 0xFF, 0x80, 0x02, 0x00, 0x00,
  0x21, 0xFD, 0xFF, 0xFF, 0x1F, 0xFF, 0xFF, 0xFF, 0xA9, 0xFE, 0xFF, 0xFF,
  0xE3, 0xFF, 0xFF, 0xFF, 0xC9, 0x01, 0x00, 0x00, 0x26, 0x00, 0x00, 0x00,
  0x00, 0x00, 0x00, 0x00, 0x0B, 0xFE, 0xFF, 0xFF, 0xBB, 0xFF, 0xFF, 0xFF,
  0x1E, 0xFE, 0xFF, 0xFF, 0xCD, 0xFE, 0xFF, 0xFF, 0x00, 0x00, 0x00, 0x00,
  0x89, 0xFF, 0xFF, 0xFF, 0xB8, 0x02, 0x00, 0x00, 0x5F, 0xFE, 0xFF, 0xFF,
  0x7D, 0x02, 0x00, 0x00, 0xF1, 0x01, 0x00, 0x00, 0x90, 0xFF, 0xFF, 0xFF,
  0x00, 0x00, 0x00, 0x00, 0x00, 0x00, 0x00, 0x00, 0x5A, 0xFE, 0xFF, 0xFF,
  0x6C, 0xFF, 0xFF, 0xFF, 0x09, 0xFF, 0xFF, 0xFF, 0xA6, 0xFF, 0xFF, 0xFF,
  0x00, 0x00, 0x00, 0x00, 0x8E, 0xFF, 0xFF, 0xFF, 0x9A, 0xFE, 0xFF, 0xFF,
  0xB7, 0xFE, 0xFF, 0xFF, 0x85, 0xFE, 0xFF, 0xFF, 0xA1, 0xFF, 0xFF, 0xFF,
  0xF0, 0xFF, 0xFF, 0xFF, 0xEE, 0x01, 0x00, 0x00, 0x08, 0x01, 0x00, 0x00,
  0x9F, 0xFE, 0xFF, 0xFF, 0x19, 0x00, 0x00, 0x00, 0x00, 0x00, 0x00, 0x00,
  0x94, 0xFF, 0xFF, 0xFF, 0xA5, 0x01, 0x00, 0x00, 0x3C, 0xFF, 0xFF, 0xFF,
  0xCE, 0xFD, 0xFF, 0xFF, 0xCE, 0xFE, 0xFF, 0xFF, 0xEB, 0xFF, 0xFF, 0xFF,
  0xC5, 0xFF, 0xFF, 0xFF, 0x00, 0x00, 0x00, 0x00, 0x74, 0x01, 0x00, 0x00,
  0xCE, 0xFD, 0xFF, 0xFF, 0x85, 0xFE, 0xFF, 0xFF, 0xF4, 0x01, 0x00, 0x00,
  0x94, 0xFE, 0xFF, 0xFF, 0x64, 0xFF, 0xFF, 0xFF, 0x6C, 0xFE, 0xFF, 0xFF,
  0x42, 0xFE, 0xFF, 0xFF, 0x05, 0xFE, 0xFF, 0xFF, 0xF3, 0xFF, 0xFF, 0xFF,
  0x75, 0x01, 0x00, 0x00, 0xDE, 0x08, 0xFE, 0xFF, 0x04, 0x00, 0x00, 0x00,
  0x00, 0x06, 0x00, 0x00, 0x3C, 0x14, 0x2A, 0x18, 0x4D, 0x5E, 0xF3, 0x0D,
  0x10, 0x29, 0x19, 0xFB, 0x04, 0xF4, 0x07, 0x0E, 0xFF, 0x06, 0xF2, 0x0B,
  0x07, 0x04, 0xFE, 0x0E, 0x21, 0x29, 0xF9, 0x02, 0xFD, 0x11, 0x10, 0x0F,
  0x24, 0x16, 0x23, 0x12, 0x06, 0xF3, 0x05, 0xF7, 0xF4, 0xF3, 0x06, 0xF6,
  0xF7, 0x02, 0xFB, 0xFB, 0x04, 0xFA, 0xFA, 0x05, 0x08, 0xF2, 0xFE, 0x0D,
  0xF1, 0x05, 0xF8, 0xFC, 0x06, 0xFC, 0x03, 0x0B, 0x08, 0xFF, 0x00, 0x05,
  0x0A, 0xFC, 0x07, 0x0A, 0xDF, 0xE4, 0x03, 0x06, 0xF4, 0xD7, 0xFC, 0x13,
  0xD8, 0xEC, 0xC6, 0x0E, 0x10, 0xFA, 0x04, 0xFA, 0x03, 0x0C, 0xF3, 0xF3,
  0xFE, 0xF2, 0xFD, 0x07, 0x2D, 0x13, 0x28, 0x21, 0x35, 0x43, 0xF3, 0x12,
  0x23, 0x33, 0x26, 0x09, 0xFB, 0x0B, 0xF8, 0x0B, 0xFB, 0x00, 0xF3, 0x06,
  0x0B, 0x0A, 0x07, 0xFB, 0x37, 0x22, 0x24, 0x2D, 0x4B, 0x28, 0x02, 0x10,
  0x16, 0x37, 0x19, 0x02, 0x0B, 0xF6, 0xFF, 0x0A, 0xFA, 0x02, 0xFE, 0xFD,
  0x0D, 0x04, 0x04, 0x02, 0xFD, 0xF3, 0x01, 0xF6, 0xF8, 0xFC, 0xF5, 0xF9,
  0xF8, 0x07, 0xFC, 0xF8, 0x06, 0x04, 0xF5, 0x09, 0x0F, 0x04, 0x0D, 0x0B,
  0x0C, 0x03, 0xF2, 0x08, 0x2E, 0x17, 0x21, 0x33, 0x49, 0x44, 0x02, 0x0D,
  0x10, 0x23, 0x08, 0x01, 0xFD, 0xF1, 0xF4, 0x08, 0xFE, 0x03, 0xFB, 0xFC,
  0xFD, 0xF7, 0xFD, 0xF5, 0xD2, 0xD3, 0xFD, 0xF5, 0xFB, 0xE7, 0xFE, 0x06,
  0xE8, 0xDF, 0xDE, 0xF6, 0x02, 0x02, 0x01, 0x0B, 0xF3, 0x11, 0x00, 0x0F,
  0x07, 0x09, 0x07, 0xFC, 0x16, 0x20, 0x20, 0x27, 0x21, 0xF5, 0x02, 0x17,
  0xF3, 0x3D, 0x0A, 0x0C, 0xFA, 0xFC, 0xF2, 0xF9, 0x05, 0x07, 0xFB, 0x0D,
  0xF9, 0x06, 0xFB, 0x06, 0xDF, 0xCD, 0xDE, 0x1A, 0xFA, 0xDD, 0x0E, 0x06,
  0xFB, 0xD4, 0xC8, 0x14, 0xF8, 0x03, 0x02, 0x0E, 0x03, 0xF9, 0xFD, 0xFC,
  0x03, 0xF4, 0x06, 0xF0, 0x0D, 0x36, 0xFB, 0x02, 0xE3, 0xEC, 0xFE, 0x12,
  0x13, 0x29, 0x1F, 0x0E, 0xFF, 0xF3, 0xF6, 0x0F, 0x0C, 0x07, 0x01, 0x03,
  0xFF, 0x06, 0x0C, 0x05, 0x0D, 0xF3, 0x09, 0x04, 0x08, 0xF4, 0xFB, 0x0E,
  0x0E, 0xF9, 0xFC, 0xFE, 0xF2, 0xF2, 0x06, 0xF7, 0x09, 0xFB, 0x0B, 0xFF,
  0xFF, 0xFC, 0x02, 0x08, 0xCD, 0xD6, 0x00, 0xEE, 0xDC, 0xCD, 0xFF, 0x0B,
  0xE2, 0xC8, 0xC9, 0xFB, 0x08, 0xFD, 0x09, 0xFE, 0xFA, 0x0A, 0xF8, 0xF4,
  0x0D, 0x06, 0xFC, 0xFD, 0xED, 0xD2, 0x2A, 0x39, 0x29, 0x08, 0x07, 0x1E,
  0xCC, 0x03, 0xD0, 0xFF, 0xFB, 0xFA, 0xFE, 0x0D, 0xFB, 0x07, 0x0C, 0xF6,
  0xF6, 0xF7, 0xFC, 0xF6, 0x00, 0x01, 0x02, 0xF2, 0xF7, 0xF2, 0x0E, 0xF1,
  0x0B, 0xF3, 0x0E, 0xF3, 0x07, 0xFD, 0xF1, 0xFC, 0x01, 0xFA, 0xF4, 0xFD,
  0x0F, 0xF3, 0x00, 0x09, 0x24, 0x2C, 0x0D, 0x22, 0x15, 0x13, 0x04, 0x02,
  0x22, 0x3B, 0x24, 0x0A, 0xF8, 0x01, 0xF6, 0xF3, 0x06, 0xFB, 0xFC, 0xFE,
  0x06, 0xF9, 0x09, 0xFB, 0xA7, 0xB4, 0xF6, 0x26, 0xF1, 0x81, 0x10, 0x0A,
  0xFE, 0xC0, 0xC4, 0x11, 0xF2, 0xF4, 0xF5, 0x01, 0x0D, 0xFB, 0x02, 0xFB,
  0x0E, 0x0C, 0xF9, 0x0D, 0x4A, 0x18, 0x32, 0x13, 0x6B, 0x57, 0xF0, 0x17,
  0x1B, 0x48, 0x1D, 0xFC, 0xFF, 0xFB, 0xFB, 0x05, 0x06, 0x09, 0x0A, 0xF2,
  0x02, 0x05, 0x04, 0x06, 0x15, 0x3A, 0xDC, 0xE1, 0xCB, 0x0D, 0x04, 0x06,
  0x32, 0x0C, 0x45, 0x06, 0xF0, 0xFF, 0x0D, 0xFB, 0x02, 0xFD, 0x0B, 0xFB,
  0xF8, 0x07, 0x04, 0xFF, 0xFA, 0xFA, 0xF5, 0xF9, 0x0E, 0xFF, 0xF2, 0xF9,
  0xF7, 0x09, 0xF8, 0xF6, 0x0C, 0xFB, 0x0A, 0x08, 0x07, 0xF3, 0xF9, 0x04,
  0xFA, 0xFF, 0x0A, 0x02, 0xF9, 0xFF, 0x01, 0xF9, 0xF5, 0xFD, 0xFB, 0x0C,
  0x09, 0x10, 0x09, 0x03, 0xFC, 0x09, 0x0F, 0x08, 0x02, 0xF2, 0x06, 0x06,
  0x06, 0x0F, 0xFB, 0xF4, 0xD3, 0xE7, 0xD7, 0xDC, 0xC9, 0x10, 0x04, 0xCC,
  0x07, 0xB2, 0xEA, 0xEC, 0xF6, 0x0B, 0xF0, 0x01, 0x0D, 0x0E, 0xF8, 0xF5,
  0x08, 0x03, 0xFA, 0xF9, 0x09, 0x1D, 0x05, 0x1D, 0xFD, 0xF3, 0x04, 0x12,
  0xEE, 0x04, 0xF5, 0xFF, 0xFF, 0x07, 0xF5, 0x0E, 0x04, 0x09, 0x09, 0x0B,
  0xF1, 0xFF, 0xF8, 0x0A, 0xEA, 0xE1, 0xEA, 0xFE, 0xEF, 0xEC, 0xFB, 0x06,
  0xEB, 0xD5, 0xD3, 0xF2, 0x0C, 0xF1, 0x01, 0xF6, 0xFA, 0x13, 0x04, 0xFC,
  0xFE, 0xF8, 0x00, 0x07, 0xCF, 0xD4, 0x10, 0xFC, 0xFD, 0xDA, 0xF1, 0x01,
  0xCE, 0xDD, 0xCB, 0x0A, 0xF8, 0x08, 0x0A, 0xFB, 0xF9, 0x07, 0x0B, 0x06,
  0xF3, 0xF3, 0x09, 0xF3, 0xF3, 0xFF, 0x05, 0x00, 0xF2, 0x01, 0xFB, 0xFB,
  0x03, 0xF9, 0xF0, 0xF2, 0xF4, 0xFE, 0x0C, 0x09, 0x02, 0x01, 0x0B, 0xF6,
  0x06, 0xF5, 0x02, 0x0A, 0xF8, 0xF4, 0xFD, 0x04, 0xFD, 0xF5, 0xF7, 0xF9,
  0x03, 0xF3, 0xFE, 0xF9, 0x07, 0x00, 0x03, 0xF3, 0x03, 0xFC, 0x0A, 0xF4,
  0xF6, 0xF2, 0xFB, 0xFF, 0xF2, 0xF5, 0x02, 0xFD, 0x03, 0x01, 0xFF, 0x08,
  0xF8, 0xFF, 0x0B, 0xF1, 0x0B, 0x0E, 0x04, 0x01, 0xFE, 0xF2, 0xFF, 0xF4,
  0xF5, 0x0A, 0x00, 0xFA, 0x25, 0x26, 0x08, 0x21, 0x07, 0xFC, 0x11, 0x00,
  0x22, 0x3D, 0x17, 0x0C, 0xFC, 0xFA, 0x07, 0xF2, 0xFB, 0xF8, 0xFA, 0xFD,
  0xFF, 0xF9, 0x01, 0xF3, 0x24, 0x32, 0x01, 0xEA, 0x07, 0x1D, 0x01, 0xF4,
  0x27, 0x14, 0x35, 0x0A, 0x0B, 0xFF, 0x07, 0xF3, 0x0B, 0xFD, 0xF9, 0xF3,
  0xF1, 0x09, 0xF5, 0x00, 0x1C, 0x27, 0xEE, 0xF1, 0xF2, 0x0A, 0x03, 0x00,
  0x28, 0x0B, 0x27, 0x11, 0x0E, 0xF3, 0x01, 0x0B, 0xFD, 0xFA, 0x00, 0xF9,
  0xF0, 0xF5, 0x0A, 0x0F, 0x06, 0xEF, 0x0B, 0x0A, 0xFE, 0xF5, 0xFC, 0xF3,
  0x07, 0xFE, 0xFC, 0x02, 0x09, 0xFA, 0xFA, 0x0B, 0x0F, 0xF5, 0xFE, 0x07,
  0xFB, 0x0D, 0x07, 0xF7, 0x04, 0xFD, 0x0F, 0xFA, 0x0D, 0x0E, 0xFB, 0xF3,
  0x09, 0xF6, 0xFF, 0xF6, 0xFC, 0xFD, 0xF6, 0x0E, 0x08, 0xF8, 0xFA, 0xF2,
  0xFA, 0x00, 0xF8, 0x00, 0xFF, 0x0D, 0xFC, 0x07, 0xEE, 0xFE, 0xF0, 0xFE,
  0x03, 0xFC, 0xF9, 0x0C, 0xF7, 0xF1, 0x0A, 0x08, 0x03, 0xF9, 0x06, 0xFD,
  0xF8, 0xF8, 0x0A, 0xFC, 0x31, 0x04, 0x30, 0x2D, 0x5C, 0x2C, 0x01, 0x18,
  0xFC, 0x45, 0x06, 0x03, 0xF7, 0xFC, 0xFB, 0xF8, 0xFF, 0x02, 0xFA, 0x08,
  0x0C, 0x06, 0x02, 0xF5, 0x23, 0x38, 0xE1, 0xE8, 0xEC, 0x02, 0x09, 0xFB,
  0x24, 0x19, 0x3E, 0x02, 0xF2, 0x0D, 0x0A, 0xFA, 0x05, 0xFC, 0x0A, 0x05,
  0xFA, 0x09, 0x0A, 0x10, 0x29, 0x35, 0xF8, 0x09, 0xF3, 0x0D, 0x0B, 0x17,
  0x10, 0x1F, 0x2D, 0x0D, 0x0B, 0x03, 0x08, 0x09, 0xFB, 0xFB, 0x0D, 0xFE,
  0x0B, 0xF3, 0x0D, 0xFC, 0x01, 0x03, 0xF7, 0xF7, 0xF4, 0x00, 0x06, 0x05,
  0xF1, 0xFC, 0xFD, 0xF7, 0x08, 0xF8, 0xF1, 0xFB, 0xF2, 0xFF, 0x0F, 0x02,
  0x06, 0x06, 0x0E, 0x02, 0x02, 0xF7, 0xFF, 0x00, 0x0E, 0xF6, 0xF9, 0x09,
  0xFB, 0x05, 0x0F, 0x00, 0x0C, 0xF4, 0x0E, 0x09, 0xF5, 0xF6, 0xF2, 0x00,
  0x0B, 0x03, 0xF5, 0x0B, 0xD6, 0xD0, 0x0A, 0x02, 0xE3, 0xE2, 0xF9, 0x08,
  0xCC, 0xF0, 0xCB, 0x00, 0xFD, 0xF9, 0x0A, 0xF4, 0x0C, 0x07, 0xF8, 0xF9,
  0x10, 0x04, 0x04, 0x01, 0xCE, 0xD1, 0x20, 0x1E, 0xFD, 0xDA, 0x06, 0x03,
  0xD2, 0xE9, 0xBC, 0x0E, 0x0B, 0x0A, 0x0B, 0x0C, 0x0E, 0x05, 0xF7, 0x06,
  0x0C, 0xFA, 0x07, 0xF1, 0x05, 0x09, 0x2C, 0x28, 0x19, 0x0E, 0xF7, 0x0D,
  0xEF, 0xFD, 0x09, 0x0C, 0xFB, 0x02, 0xFD, 0x07, 0x04, 0xEB, 0x02, 0x07,
  0x04, 0xFE, 0x01, 0xFF, 0x02, 0x02, 0x07, 0x00, 0xF2, 0xF1, 0x06, 0x04,
  0x04, 0x08, 0x04, 0x00, 0x0D, 0xFE, 0x05, 0x02, 0xFA, 0xF5, 0x06, 0x0C,
  0x04, 0xFA, 0xF8, 0xF6, 0x05, 0xF8, 0xFC, 0xF8, 0x04, 0xF9, 0xF8, 0xF2,
  0x0F, 0xF3, 0x00, 0x01, 0x09, 0x02, 0xF7, 0x07, 0x0B, 0xF5, 0xF7, 0xF1,
  0x03, 0xFD, 0xF4, 0xF1, 0xF8, 0xF0, 0xFB, 0xFE, 0xFF, 0x08, 0xF4, 0x01,
  0x07, 0xF4, 0x05, 0xF0, 0x00, 0xFC, 0xF8, 0x04, 0xFD, 0x05, 0xFA, 0x08,
  0x0C, 0xFE, 0xFA, 0x04, 0xDF, 0xCA, 0x0F, 0x02, 0x10, 0xFE, 0x01, 0x06,
  0xD7, 0xE2, 0xC3, 0x02, 0xFB, 0x01, 0xF2, 0x0D, 0xF9, 0x10, 0x0A, 0x0B,
  0x07, 0xEF, 0xF7, 0x0A, 0x30, 0x22, 0x14, 0x18, 0x1A, 0x2B, 0xF9, 0x16,
  0x28, 0x2E, 0x24, 0xFB, 0xF1, 0x02, 0x12, 0xFA, 0x08, 0x06, 0xF5, 0xF9,
  0x01, 0xFD, 0x01, 0xF5, 0x0F, 0x12, 0x34, 0x37, 0x2F, 0xFC, 0x0D, 0x14,
  0x09, 0x35, 0xFC, 0x0A, 0x0D, 0x0E, 0xF9, 0x06, 0x06, 0x00, 0xFF, 0x0A,
  0x0B, 0x09, 0x06, 0x0B, 0xFE, 0xEE, 0xF0, 0xF0, 0x00, 0xF9, 0xF0, 0xF2,
  0xFE, 0xFF, 0xFA, 0x06, 0xF2, 0xF4, 0xFD, 0xF5, 0xF6, 0xF5, 0x04, 0xF4,
  0x04, 0xF9, 0xF2, 0x07, 0x06, 0xF0, 0x0A, 0xFB, 0x0C, 0x00, 0x08, 0x0C,
  0xF9, 0x0B, 0x06, 0xF4, 0x0A, 0xFA, 0xF6, 0xF1, 0xF9, 0xF5, 0xF3, 0x0C,
  0x00, 0x0B, 0x09, 0xF6, 0xFC, 0x03, 0x0C, 0x04, 0xF3, 0xFB, 0xFF, 0x09,
  0x03, 0x07, 0x01, 0x01, 0xF3, 0x0B, 0x03, 0x06, 0xFA, 0xEF, 0x05, 0x09,
  0x08, 0x08, 0x00, 0x0E, 0x08, 0xFB, 0x02, 0x06, 0xF7, 0x06, 0x06, 0xFC,
  0xF4, 0xF6, 0xFE, 0xF1, 0x04, 0xFA, 0x05, 0xFA, 0xF2, 0xF3, 0xFA, 0xFE,
  0x0D, 0x06, 0xF8, 0x08, 0xD3, 0xC7, 0xF9, 0xED, 0xDF, 0xD5, 0xF8, 0xE7,
  0xCF, 0xD5, 0xBB, 0x04, 0x03, 0x02, 0x03, 0xFB, 0xF5, 0x0D, 0x09, 0xFD,
  0x0B, 0xF9, 0xFE, 0xF5, 0x2F, 0x1D, 0x1A, 0x21, 0x2C, 0x2C, 0x09, 0x0E,
  0x11, 0x32, 0x20, 0x09, 0xFC, 0x09, 0xFB, 0xF3, 0xF9, 0xFD, 0x0C, 0xF2,
  0x0D, 0xF8, 0xFF, 0x05, 0x1D, 0x21, 0x0A, 0x1C, 0x1C, 0x0E, 0x0B, 0x0C,
  0x0F, 0x33, 0x18, 0x0C, 0x09, 0x07, 0xFD, 0x01, 0xF9, 0xF8, 0xFF, 0x05,
  0xF0, 0x09, 0xFF, 0x02, 0xD4, 0xC9, 0x0E, 0xF7, 0xDB, 0xE9, 0x01, 0x05,
  0xD0, 0xD8, 0xBD, 0x01, 0xF9, 0x06, 0xFB, 0xFF, 0x01, 0x0C, 0x0A, 0xFF,
  0xF4, 0x02, 0xFD, 0x0C, 0x14, 0x1A, 0x18, 0x1F, 0x0F, 0xFE, 0x12, 0x18,
  0x05, 0x2E, 0x23, 0x0B, 0x0B, 0x0A, 0x04, 0x0C, 0xF9, 0xF8, 0x08, 0xF7,
  0xF2, 0xF3, 0x0A, 0xF2, 0x1E, 0xF9, 0x2A, 0x0B, 0x2E, 0x27, 0xF1, 0xF8,
  0xF3, 0x05, 0x23, 0x0B, 0xFB, 0xF7, 0xF9, 0x0E, 0x0C, 0xF0, 0x0D, 0x02,
  0xF4, 0xFA, 0xFD, 0x06, 0x1B, 0x17, 0x21, 0x37, 0x3E, 0x31, 0xF8, 0x1A,
  0x19, 0x45, 0xFD, 0x02, 0xF5, 0x0A, 0xF7, 0x03, 0xFD, 0x05, 0xF8, 0x03,
  0x0B, 0x0C, 0x0F, 0x00, 0x25, 0x2B, 0x19, 0x13, 0x2A, 0x22, 0xFE, 0x18,
  0xFE, 0x31, 0x10, 0x05, 0x03, 0xF4, 0x0D, 0x04, 0xF9, 0x02, 0xFE, 0xFA,
  0xFC, 0xF8, 0x03, 0x0D, 0x1A, 0x28, 0x25, 0x2B, 0x1B, 0x14, 0xF2, 0x15,
  0x19, 0x3A, 0x16, 0x05, 0xF4, 0x0B, 0xFE, 0xF6, 0x0A, 0x05, 0x08, 0xF2,
  0xFD, 0xF4, 0xFC, 0xF0, 0xF9, 0x0C, 0xFE, 0xFE, 0xF7, 0xF6, 0x0C, 0xFD,
  0xFD, 0x09, 0x07, 0xF2, 0x0E, 0x0C, 0xFF, 0x0E, 0xF2, 0xF7, 0xFA, 0x0E,
  0xFD, 0x00, 0xF1, 0x06, 0xD2, 0x10, 0x11, 0xF8, 0xD6, 0xBC, 0x02, 0x1F,
  0xF1, 0xF6, 0xFB, 0x0F, 0xF9, 0xF9, 0x07, 0xF9, 0x0A, 0xFC, 0xF4, 0x04,
  0x0E, 0xF6, 0xFF, 0x01, 0x6C, 0xE9, 0xFD, 0xFF, 0x70, 0xE9, 0xFD, 0xFF,
  0x74, 0xE9, 0xFD, 0xFF, 0x78, 0xE9, 0xFD, 0xFF, 0xFA, 0x0E, 0xFE, 0xFF,
  0x04, 0x00, 0x00, 0x00, 0x10, 0x00, 0x00, 0x00, 0x0D, 0x00, 0x00, 0x00,
  0xAB, 0x00, 0x00, 0x00, 0x21, 0xFD, 0xFF, 0xFF, 0x5C, 0xFC, 0xFF, 0xFF,
  0x16, 0x0F, 0xFE, 0xFF, 0x04, 0x00, 0x00, 0x00, 0x20, 0x00, 0x00, 0x00,
  0xF0, 0x2A, 0x0A, 0x25, 0x26, 0xF7, 0xEA, 0x1E, 0x17, 0x08, 0xFF, 0x0A,
  0xEE, 0xE6, 0xEB, 0x5F, 0x12, 0xD8, 0x9F, 0xD6, 0xF2, 0xDA, 0x01, 0x7F,
  0xBF, 0x0F, 0x0E, 0x3D, 0xF8, 0x1A, 0xFD, 0x0A, 0xC4, 0xE9, 0xFD, 0xFF,
  0x46, 0x0F, 0xFE, 0xFF, 0x04, 0x00, 0x00, 0x00, 0x20, 0x00, 0x00, 0x00,
  0x47, 0x02, 0x00, 0x00, 0xC6, 0xFF, 0xFF, 0xFF, 0x4B, 0x01, 0x00, 0x00,
  0x4C, 0x00, 0x00, 0x00, 0x5C, 0x01, 0x00, 0x00, 0xB2, 0xFF, 0xFF, 0xFF,
  0x31, 0xFF, 0xFF, 0xFF, 0x99, 0x02, 0x00, 0x00, 0x72, 0x0F, 0xFE, 0xFF,
  0x04, 0x00, 0x00, 0x00, 0x80, 0x00, 0x00, 0x00, 0x27, 0x08, 0xFB, 0x4E,
  0x0D, 0x11, 0xDB, 0xD6, 0x2B, 0x0F, 0x17, 0x25, 0xE7, 0x19, 0xED, 0x2A,
  0x07, 0x0E, 0xFF, 0xEE, 0xDF, 0xEE, 0xE0, 0x2A, 0x26, 0xDE, 0xD6, 0x03,
  0xF1, 0xD8, 0x1B, 0x05, 0xE6, 0x1E, 0x07, 0x3B, 0xD5, 0x28, 0xD0, 0xFB,
  0x22, 0xFE, 0x06, 0x15, 0xD7, 0x47, 0xEE, 0x03, 0x0B, 0xBC, 0x17, 0x1A,
  0xE1, 0xDE, 0x1A, 0x19, 0x2D, 0x10, 0x26, 0x1C, 0x25, 0xD3, 0x17, 0xE8,
  0xF7, 0x1B, 0x1A, 0xEA, 0x28, 0xB3, 0xEE, 0x18, 0xE8, 0x12, 0xFD, 0xCD,
  0x12, 0x62, 0x06, 0xE6, 0xE6, 0xE3, 0x0A, 0xFA, 0xDE, 0xFD, 0xD4, 0x15,
  0x08, 0xDE, 0x25, 0x24, 0xD4, 0xE8, 0xF9, 0xD4, 0xE5, 0xDF, 0xEF, 0xFF,
  0x3A, 0xEC, 0x1E, 0x2C, 0xE4, 0xEA, 0xEA, 0x09, 0xF4, 0xC2, 0x42, 0x2B,
  0x06, 0x14, 0xD5, 0x2E, 0x10, 0xEF, 0x0C, 0xF7, 0xD1, 0xDB, 0xDD, 0xD3,
  0x81, 0xA9, 0xEF, 0x27, 0x80, 0xEA, 0xFD, 0xFF, 0x02, 0x10, 0xFE, 0xFF,
  0x04, 0x00, 0x00, 0x00, 0x40, 0x00, 0x00, 0x00, 0xFD, 0xFF, 0xFF, 0xFF,
  0x18, 0x02, 0x00, 0x00, 0xD4, 0xFF, 0xFF, 0xFF, 0x00, 0x02, 0x00, 0x00,
  0x1B, 0x01, 0x00, 0x00, 0xCB, 0x00, 0x00, 0x00, 0xDE, 0xFF, 0xFF, 0xFF,
  0xF5, 0xFF, 0xFF, 0xFF, 0xFC, 0xFF, 0xFF, 0xFF, 0x54, 0x00, 0x00, 0x00,
  0xDF, 0xFF, 0xFF, 0xFF, 0x7D, 0xFF, 0xFF, 0xFF, 0x27, 0xFE, 0xFF, 0xFF,
  0xB2, 0x01, 0x00, 0x00, 0xC5, 0xFE, 0xFF, 0xFF, 0x00, 0x00, 0x00, 0x00,
  0x4E, 0x10, 0xFE, 0xFF, 0x04, 0x00, 0x00, 0x00, 0x00, 0x01, 0x00, 0x00,
  0xA3, 0x02, 0xBB, 0xF8, 0xA9, 0x47, 0x32, 0x59, 0x30, 0xBB, 0xF2, 0x92,
  0xA4, 0xDE, 0x93, 0xE1, 0x70, 0x45, 0x53, 0x55, 0x54, 0xB5, 0x46, 0x52,
  0x48, 0x28, 0xBF, 0xD9, 0x17, 0xB0, 0x4B, 0x14, 0x99, 0x57, 0x3E, 0x65,
  0x46, 0xD0, 0x9B, 0x14, 0x6A, 0x5A, 0xEF, 0xD4, 0x08, 0xCB, 0xF4, 0x24,
  0xD3, 0xB0, 0x28, 0x1C, 0x26, 0x00, 0xF8, 0x5F, 0x91, 0xD4, 0xFF, 0x32,
  0x01, 0x24, 0xBD, 0xFE, 0xAA, 0x99, 0xE6, 0xFA, 0x11, 0xA2, 0x28, 0x21,
  0xC7, 0x61, 0xD2, 0x5B, 0xFB, 0x4E, 0x70, 0x5D, 0x0E, 0x3E, 0xED, 0xF0,
  0xA3, 0xF5, 0x6A, 0x66, 0xD8, 0xE4, 0x58, 0x42, 0xAB, 0x02, 0xF0, 0x12,
  0xEC, 0xDB, 0x2F, 0x69, 0x07, 0xC0, 0xEB, 0x9E, 0xEA, 0xEA, 0x63, 0xA5,
  0xA8, 0x25, 0xAF, 0x1C, 0xCD, 0xB0, 0x9E, 0x70, 0x99, 0x64, 0xB0, 0x45,
  0xE2, 0xFC, 0xB8, 0x98, 0xFA, 0xA7, 0x90, 0x6B, 0x99, 0xA3, 0x42, 0xBA,
  0xD8, 0x36, 0x27, 0x45, 0x28, 0xD2, 0xB3, 0xAC, 0x05, 0xF1, 0x3E, 0xC5,
  0xCC, 0x3B, 0x10, 0x4B, 0x49, 0x07, 0x27, 0x96, 0x5B, 0x2E, 0xC4, 0x8F,
  0x4C, 0xD3, 0x59, 0x5C, 0x0A, 0xC7, 0x2D, 0x53, 0xED, 0xF7, 0xD9, 0xC6,
  0x65, 0xB9, 0xB3, 0xB3, 0x92, 0x00, 0xE3, 0xB7, 0x66, 0x05, 0xE9, 0x0B,
  0xB5, 0x64, 0x0A, 0xA5, 0xA4, 0xA6, 0xB8, 0x72, 0x45, 0x7F, 0x42, 0x38,
  0xED, 0xB6, 0xB2, 0xFD, 0xDB, 0x54, 0xD0, 0xE7, 0x6A, 0x27, 0xBA, 0x0D,
  0xF2, 0x19, 0xA5, 0x9C, 0x5D, 0xD7, 0x1A, 0x53, 0xD2, 0x93, 0xBB, 0xDE,
  0xB6, 0xE6, 0x9B, 0xA3, 0x2A, 0xE2, 0xA0, 0x4F, 0x38, 0x19, 0x4C, 0xC8,
  0xEC, 0x49, 0x93, 0xEC, 0x28, 0x1A, 0x5C, 0x00, 0x5F, 0x68, 0xBB, 0xA7,
  0x41, 0x0E, 0x1F, 0xE4, 0xAE, 0xB7, 0xD8, 0xA4, 0xAE, 0x99, 0xE6, 0x4F,
  0x20, 0xA6, 0xF2, 0xAA, 0xDC, 0xEB, 0xFD, 0xFF, 0x5E, 0x11, 0xFE, 0xFF,
  0x04, 0x00, 0x00, 0x00, 0x40, 0x00, 0x00, 0x00, 0xF1, 0xFF, 0xFF, 0xFF,
  0xE2, 0xFF, 0xFF, 0xFF, 0xF3, 0xFF, 0xFF, 0xFF, 0xED, 0xFF, 0xFF, 0xFF,
  0xF7, 0xFF, 0xFF, 0xFF, 0xF2, 0xFF, 0xFF, 0xFF, 0xF1, 0xFF, 0xFF, 0xFF,
  0xF6, 0xFF, 0xFF, 0xFF, 0xF4, 0xFF, 0xFF, 0xFF, 0x62, 0x00, 0x00, 0x00,
  0xBD, 0xFF, 0xFF, 0xFF, 0xF3, 0xFF, 0xFF, 0xFF, 0xF5, 0xFF, 0xFF, 0xFF,
  0x59, 0x00, 0x00, 0x00, 0xF1, 0xFF, 0xFF, 0xFF, 0xF3, 0xFF, 0xFF, 0xFF,
  0xAA, 0x11, 0xFE, 0xFF, 0x04, 0x00, 0x00, 0x00, 0x00, 0xC2, 0x01, 0x00,
  0xFF, 0xFE, 0xFF, 0xFF, 0xFE, 0xFE, 0xFE, 0x01, 0x00, 0xFF, 0x01, 0x01,
  0x01, 0x01, 0xFF, 0xFF, 0xFF, 0xFF, 0x02, 0x00, 0x00, 0x00, 0xFE, 0x02,
  0x00, 0x00, 0x00, 0xFF, 0xFF, 0xFF, 0xFF, 0x00, 0xFF, 0xFE, 0xFF, 0xFE,
  0x01, 0xFF, 0xFF, 0xFE, 0xFF, 0x01, 0xFF, 0xFF, 0x01, 0x00, 0x01, 0x01,
  0x01, 0xFF, 0x01, 0x01, 0xFE, 0xFF, 0x01, 0xFF, 0xFF, 0xFF, 0xFE, 0x00,
  0x01, 0x01, 0xFF, 0x00, 0x01, 0x01, 0xFF, 0x00, 0xFF, 0xFF, 0x01, 0x00,
  0x00, 0xFF, 0x02, 0xFF, 0x01, 0x00, 0xFF, 0x01, 0xFF, 0x01, 0xFE, 0xFF,
  0x00, 0xFF, 0xFF, 0xFF, 0xFF, 0xFF, 0xFF, 0x01, 0x00, 0xFF, 0x01, 0x00,
  0x01, 0x02, 0x01, 0x02, 0xFF, 0x00, 0xFE, 0x02, 0xFF, 0xFF, 0x00, 0x00,
  0xFE, 0x02, 0x01, 0x01, 0xFF, 0x00, 0xFF, 0x00, 0x01, 0xFF, 0x00, 0xFF,
  0x00, 0x01, 0xFF, 0x00, 0x00, 0xFE, 0x01, 0xFE, 0xFF, 0x00, 0x00, 0xFF,
  0xFF, 0x00, 0xFF, 0x00, 0xFE, 0x01, 0x00, 0xFF, 0xFF, 0xFF, 0x01, 0x01,
  0x00, 0x00, 0xFF, 0x01, 0xFE, 0x00, 0xFE, 0x01, 0x01, 0xFF, 0xFF, 0x01,
  0xFF, 0x00, 0x01, 0x01, 0xFF, 0x01, 0x00, 0x00, 0xFF, 0xFF, 0x01, 0xFF,
  0xFF, 0x00, 0xFE, 0x00, 0x00, 0x01, 0x01, 0xFE, 0x01, 0xFF, 0x00, 0x00,
  0x01, 0xFE, 0x01, 0x01, 0x01, 0x02, 0x01, 0x00, 0xFE, 0xFF, 0x00, 0x01,
  0xFF, 0x01, 0x01, 0xFF, 0x00, 0x00, 0x01, 0x00, 0x01, 0x01, 0x00, 0x01,
  0x00, 0xFF, 0x00, 0x00, 0x01, 0xFF, 0x01, 0x01, 0x01, 0x01, 0x01, 0x00,
  0xFF, 0x01, 0x01, 0x00, 0x00, 0x01, 0xFF, 0xFF, 0xFF, 0xFF, 0xFF, 0x00,
  0xFF, 0x01, 0xFF, 0x01, 0x01, 0xFF, 0xFF, 0x00, 0xFF, 0x01, 0x00, 0x02,
  0xFF, 0x00, 0x00, 0x00, 0x00, 0x00, 0x01, 0x00, 0x01, 0xFF, 0xFF, 0x01,
  0xFE, 0x00, 0x01, 0xFE, 0x00, 0x01, 0xFF, 0x00, 0xFF, 0x01, 0xFF, 0xFF,
  0x01, 0x00, 0xFF, 0xFF, 0xFE, 0xFF, 0xFF, 0x00, 0xFF, 0xFF, 0x01, 0x01,
  0x01, 0x01, 0x01, 0x00, 0x01, 0x01, 0x00, 0xFF, 0x00, 0x00, 0x01, 0x00,
  0x00, 0x02, 0xFF, 0xFF, 0x01, 0x02, 0xFF, 0x00, 0x01, 0x01, 0x00, 0x00,
  0x01, 0x00, 0x00, 0x00, 0xFF, 0x00, 0x00, 0xFF, 0x01, 0xFF, 0x01, 0xFF,
  0x02, 0x00, 0xFE, 0xFF, 0xFF, 0xFE, 0x00, 0x01, 0xFE, 0x01, 0xFF, 0xFE,
  0xFF, 0x00, 0x00, 0x00, 0x01, 0xFF, 0xFE, 0xFE, 0xFE, 0x00, 0x00, 0xFE,
  0xFF, 0x00, 0x00, 0xFF, 0xFF, 0x00, 0x01, 0x00, 0x01, 0x01, 0x00, 0x01,
  0xFF, 0xFF, 0x01, 0x01, 0x00, 0x01, 0x00, 0x00, 0x01, 0x01, 0xFE, 0xFF,
  0xFF, 0x00, 0x01, 0x00, 0xFF, 0x01, 0xFF, 0x02, 0x00, 0x00, 0x01, 0x00,
  0xFE, 0x00, 0x00, 0xFF, 0x00, 0x00, 0x01, 0x01, 0x00, 0x00, 0xFF, 0x00,
  0xFE, 0xFF, 0xFF, 0x01, 0xFE, 0xFE, 0xFF, 0x00, 0x00, 0xFF, 0xFF, 0x01,
  0x00, 0xFF, 0xFF, 0x01, 0xFF, 0x01, 0xFF, 0x01, 0x00, 0x00, 0xFF, 0xFE,
  0x00, 0xFF, 0xFF, 0xFF, 0x01, 0x00, 0xFF, 0xFF, 0xFE, 0xFF, 0xFF, 0xFE,
  0xFF, 0xFF, 0x00, 0xFE, 0x02, 0x01, 0xFF, 0xFF, 0x00, 0xFE, 0xFF, 0xFF,
  0x00, 0xFF, 0x02, 0xFF, 0xFF, 0xFE, 0x01, 0xFF, 0xFF, 0xFE, 0x00, 0x01,
  0x01, 0xFF, 0x00, 0xFF, 0x00, 0x00, 0x00, 0xFF, 0x02, 0x01, 0x00, 0x01,
  0xFF, 0xFF, 0x00, 0x00, 0x01, 0x01, 0xFF, 0xFE, 0xFF, 0xFF, 0x01, 0x01,
  0xFF, 0x01, 0xFE, 0xFF, 0x01, 0x00, 0x00, 0xFE, 0xFE, 0x00, 0x02, 0xFF,
  0xFE, 0xFE, 0x01, 0xFF, 0xFF, 0x00, 0x01, 0x01, 0x00, 0x00, 0x01, 0xFF,
  0x00, 0xFE, 0x00, 0xFE, 0xFF, 0xFF, 0xFF, 0x00, 0xFF, 0xFF, 0x00, 0xFF,
  0xFF, 0x00, 0x01, 0xFF, 0x00, 0x02, 0xFF, 0x02, 0x01, 0x01, 0x00, 0x01,
  0xFE, 0x01, 0xFF, 0x00, 0x00, 0x00, 0xFF, 0x00, 0xFF, 0x01, 0x01, 0xFF,
  0xFF, 0x00, 0x02, 0x00, 0x00, 0x01, 0xFE, 0x01, 0x00, 0xFE, 0xFF, 0xFF,
  0x00, 0xFF, 0x00, 0x01, 0x00, 0x01, 0x01, 0x00, 0x00, 0xFF, 0x01, 0xFF,
  0xFF, 0xFF, 0x01, 0x02, 0xFF, 0x00, 0xFF, 0x01, 0xFF, 0xFF, 0x00, 0x01,
  0x02, 0xFF, 0xFF, 0xFE, 0x00, 0x01, 0xFE, 0xFE, 0xFF, 0xFF, 0xFF, 0x00,
  0x02, 0x00, 0x00, 0x01, 0x00, 0xFF, 0x01, 0x01, 0xFE, 0x00, 0x00, 0xFF,
  0x00, 0xFE, 0x01, 0x01, 0x01, 0x00, 0x01, 0x00, 0x01, 0x01, 0x00, 0xFF,
  0x00, 0x00, 0x00, 0x01, 0x01, 0xFF, 0x00, 0xFF, 0x00, 0x01, 0x01, 0x01,
  0xFF, 0xFF, 0xFE, 0xFE, 0xFF, 0x01, 0xFF, 0x00, 0xFF, 0x00, 0xFF, 0x01,
  0xFF, 0xFE, 0x01, 0x00, 0xFF, 0x01, 0x00, 0x01, 0x01, 0xFE, 0xFE, 0x00,
  0x00, 0x00, 0x01, 0x00, 0x02, 0x01, 0x00, 0x00, 0xFF, 0x00, 0x00, 0x01,
  0x01, 0x02, 0x01, 0x00, 0xFF, 0x00, 0x01, 0x01, 0xFF, 0x00, 0xFF, 0xFF,
  0xFE, 0x01, 0xFF, 0x01, 0x00, 0x01, 0xFE, 0xFF, 0xFF, 0x01, 0xFE, 0xFF,
  0xFF, 0x00, 0x01, 0xFF, 0x01, 0x01, 0xFF, 0xFE, 0x01, 0x00, 0xFE, 0x00,
  0x00, 0x01, 0xFF, 0x01, 0x02, 0x01, 0xFE, 0x01, 0x01, 0x01, 0x00, 0xFF,
  0x01, 0xFF, 0xFF, 0x00, 0xFF, 0x01, 0x00, 0x01, 0xFE, 0x00, 0x01, 0xFF,
  0x01, 0x01, 0xFE, 0xFF, 0x00, 0x01, 0xFF, 0xFF, 0x01, 0x01, 0xFF, 0x02,
  0x02, 0x00, 0xFF, 0x00, 0x01, 0xFE, 0x00, 0x00, 0x02, 0xFF, 0x00, 0x00,
  0x01, 0xFE, 0x01, 0x01, 0x01, 0x00, 0xFF, 0x01, 0x02, 0xFF, 0x00, 0xFE,
  0xFF, 0x01, 0xFE, 0xFF, 0x01, 0x01, 0x01, 0x00, 0x00, 0xFF, 0xFF, 0xFF,
  0xFE, 0xFE, 0xFF, 0xFF, 0x00, 0x01, 0xFE, 0x00, 0x02, 0x00, 0x00, 0x01,
  0x01, 0x01, 0x02, 0x01, 0x00, 0x02, 0x00, 0xFF, 0xFF, 0xFE, 0x00, 0x01,
  0x00, 0x01, 0x01, 0xFF, 0x01, 0x00, 0x00, 0x00, 0x01, 0x00, 0x00, 0xFF,
  0x01, 0x01, 0x00, 0x01, 0x00, 0x00, 0x01, 0xFF, 0x02, 0xFE, 0x00, 0x01,
  0xFF, 0x00, 0xFF, 0x00, 0x01, 0x01, 0x01, 0xFE, 0x00, 0xFF, 0x00, 0x02,
  0x00, 0x01, 0xFF, 0xFF, 0x01, 0xFF, 0x00, 0x01, 0x02, 0x01, 0x01, 0x01,
  0x01, 0x00, 0xFF, 0x00, 0x01, 0xFE, 0x01, 0xFE, 0x02, 0x00, 0x01, 0x01,
  0x00, 0x01, 0xFE, 0x00, 0xFE, 0x01, 0xFF, 0x00, 0xFF, 0xFF, 0x00, 0xFF,
  0x01, 0x02, 0xFF, 0x01, 0x01, 0xFE, 0xFF, 0x01, 0x01, 0xFF, 0xFE, 0x00,
  0x00, 0x01, 0x01, 0x00, 0xFE, 0xFF, 0xFF, 0x02, 0x01, 0xFF, 0x00, 0x01,
  0x01, 0x00, 0x00, 0x00, 0x02, 0xFF, 0x01, 0xFE, 0x00, 0xFF, 0xFF, 0x00,
  0xFE, 0x00, 0x01, 0x02, 0xFE, 0xFF, 0x00, 0x00, 0x01, 0xFF, 0x01, 0x01,
  0xFF, 0x00, 0x01, 0x01, 0x00, 0xFF, 0x00, 0x00, 0x01, 0x01, 0x01, 0x00,
  0x01, 0x00, 0x01, 0x00, 0x00, 0xFF, 0x01, 0x01, 0xFF, 0x01, 0xFF, 0x00,
  0x00, 0x00, 0xFF, 0x00, 0x00, 0x01, 0x00, 0x00, 0xFF, 0x01, 0xFF, 0x01,
  0x01, 0xFF, 0xFE, 0xFF, 0x00, 0xFE, 0xFF, 0xFE, 0xFF, 0xFE, 0x01, 0x01,
  0x00, 0x00, 0xFF, 0xFF, 0xFE, 0x00, 0x01, 0x01, 0xFF, 0x00, 0xFF, 0x01,
  0x01, 0x01, 0xFE, 0x00, 0x01, 0xFF, 0xFF, 0x01, 0x01, 0xFF, 0xFE, 0xFE,
  0x01, 0x01, 0x01, 0x00, 0xFE, 0x01, 0x00, 0x00, 0xFF, 0xFF, 0x01, 0xFF,
  0x01, 0x01, 0xFF, 0x01, 0x01, 0x00, 0x00, 0x02, 0x00, 0xFE, 0x00, 0x01,
  0xFF, 0x00, 0x00, 0x00, 0x01, 0xFF, 0x01, 0xFE, 0x02, 0x01, 0xFE, 0x01,
  0x00, 0xFF, 0x00, 0xFF, 0xFF, 0x01, 0x00, 0xFF, 0xFF, 0xFF, 0x01, 0x00,
  0x01, 0x01, 0xFE, 0x00, 0xFF, 0xFF, 0x01, 0x01, 0xFF, 0x01, 0xFF, 0xFF,
  0xFF, 0xFF, 0x02, 0x00, 0xFE, 0x00, 0x01, 0x00, 0x01, 0xFF, 0x01, 0x01,
  0x01, 0xFF, 0xFF, 0x00, 0xFF, 0x01, 0x01, 0xFF, 0x01, 0xFF, 0xFF, 0xFF,
  0x01, 0x01, 0x01, 0x01, 0xFE, 0xFF, 0xFF, 0x01, 0x01, 0xFF, 0x00, 0x01,
  0xFF, 0xFF, 0xFF, 0x01, 0xFF, 0xFE, 0x00, 0xFF, 0x01, 0x00, 0x00, 0x01,
  0x00, 0x02, 0x01, 0x01, 0x00, 0xFF, 0xFF, 0x01, 0x01, 0xFF, 0xFF, 0x00,
  0x02, 0x00, 0x00, 0x00, 0xFF, 0x00, 0x01, 0x00, 0xFE, 0x00, 0xFF, 0xFF,
  0x00, 0x01, 0xFF, 0x00, 0x01, 0xFF, 0x00, 0x01, 0x01, 0x01, 0x01, 0x01,
  0xFF, 0x00, 0x01, 0xFF, 0x01, 0xFF, 0x00, 0x00, 0x00, 0x00, 0x01, 0xFE,
  0xFE, 0x01, 0xFF, 0xFF, 0x01, 0xFF, 0xFF, 0x01, 0x01, 0xFF, 0x00, 0xFF,
  0x00, 0xFE, 0x00, 0xFF, 0x01, 0x00, 0xFF, 0x01, 0x00, 0x01, 0x00, 0xFE,
  0x00, 0x00, 0x00, 0xFF, 0x01, 0x00, 0xFF, 0x01, 0xFF, 0xFF, 0x01, 0xFE,
  0xFF, 0xFF, 0x01, 0x01, 0x00, 0x01, 0xFE, 0xFF, 0xFF, 0xFF, 0xFE, 0xFE,
  0x01, 0x00, 0xFF, 0xFF, 0xFF, 0x01, 0xFE, 0xFF, 0x00, 0x00, 0xFE, 0x01,
  0x02, 0x01, 0xFF, 0xFF, 0xFF, 0xFF, 0x02, 0xFF, 0xFF, 0xFF, 0x00, 0x00,
  0xFF, 0xFF, 0x01, 0x01, 0xFF, 0xFF, 0xFF, 0x01, 0x00, 0x00, 0xFF, 0xFE,
  0xFF, 0x00, 0x00, 0xFF, 0x01, 0x00, 0xFF, 0x01, 0xFF, 0x01, 0xFF, 0x01,
  0xFF, 0x00, 0x01, 0x00, 0xFF, 0x01, 0xFF, 0x00, 0xFF, 0x01, 0x01, 0xFF,
  0xFF, 0x01, 0x01, 0x01, 0xFF, 0x00, 0x00, 0x01, 0x02, 0xFF, 0x00, 0x01,
  0xFF, 0x00, 0x01, 0x00, 0x01, 0xFF, 0xFF, 0x00, 0x02, 0x00, 0x00, 0x01,
  0xFF, 0x00, 0x01, 0x00, 0xFF, 0x00, 0x02, 0x00, 0x01, 0x00, 0xFE, 0xFF,
  0x01, 0x02, 0x02, 0x00, 0xFF, 0x01, 0x01, 0xFF, 0xFF, 0xFF, 0xFF, 0x00,
  0xFF, 0x00, 0xFE, 0x01, 0x01, 0xFF, 0xFF, 0xFF, 0x00, 0x01, 0xFE, 0x01,
  0x02, 0x01, 0x00, 0x01, 0x01, 0x02, 0x00, 0x00, 0x01, 0xFE, 0xFF, 0xFE,
  0x00, 0xFF, 0xFF, 0x01, 0x00, 0xFE, 0xFE, 0x01, 0x01, 0x00, 0xFF, 0x02,
  0xFF, 0x00, 0x01, 0x00, 0x00, 0xFE, 0x01, 0xFF, 0x00, 0xFF, 0x01, 0xFF,
  0xFF, 0x00, 0x01, 0xFF, 0x01, 0x01, 0x01, 0x01, 0x00, 0x00, 0xFF, 0x01,
  0x01, 0x00, 0x00, 0x00, 0x01, 0x00, 0xFE, 0xFF, 0x00, 0xFF, 0x01, 0x00,
  0xFF, 0x01, 0xFF, 0xFE, 0x00, 0xFF, 0xFF, 0x00, 0x00, 0x01, 0xFE, 0xFF,
  0x01, 0x01, 0x00, 0xFF, 0xFF, 0x01, 0xFF, 0xFF, 0x01, 0x00, 0x00, 0xFE,
  0x00, 0x02, 0x02, 0x00, 0x00, 0x01, 0x00, 0xFE, 0x00, 0x00, 0xFF, 0x01,
  0xFF, 0x00, 0x01, 0x01, 0xFF, 0x01, 0xFE, 0xFF, 0xFF, 0x00, 0x00, 0x00,
  0x00, 0x01, 0xFE, 0xFE, 0x01, 0xFF, 0x00, 0xFE, 0xFF, 0x01, 0x01, 0x01,
  0x00, 0x01, 0xFF, 0x00, 0x01, 0x01, 0xFF, 0x00, 0xFF, 0xFE, 0x01, 0x01,
  0x01, 0x00, 0x00, 0xFF, 0xFE, 0xFF, 0x00, 0xFF, 0x01, 0xFF, 0x01, 0xFE,
  0x01, 0x00, 0x00, 0x01, 0x01, 0xFF, 0xFF, 0x01, 0x01, 0x00, 0x01, 0x00,
  0x00, 0xFF, 0x00, 0xFE, 0x00, 0xFE, 0x01, 0xFF, 0xFF, 0xFF, 0xFF, 0x00,
  0x00, 0x01, 0xFF, 0x01, 0xFF, 0x01, 0x01, 0xFE, 0x02, 0x01, 0x00, 0xFF,
  0xFF, 0x01, 0xFF, 0xFF, 0x01, 0xFF, 0x00, 0x00, 0x01, 0xFF, 0xFF, 0xFF,
  0x02, 0xFF, 0x00, 0xFF, 0xFF, 0xFF, 0x01, 0x01, 0x00, 0xFF, 0x00, 0x01,
  0x01, 0xFF, 0x01, 0x00, 0x01, 0x00, 0x00, 0xFF, 0x01, 0x01, 0x01, 0x00,
  0x01, 0xFF, 0x01, 0x02, 0x01, 0xFF, 0xFF, 0x01, 0xFF, 0xFF, 0xFE, 0xFF,
  0x00, 0xFF, 0x01, 0x00, 0x01, 0xFF, 0xFE, 0xFF, 0x00, 0xFF, 0x01, 0x01,
  0xFF, 0x01, 0x02, 0xFF, 0x00, 0xFE, 0xFE, 0xFE, 0x00, 0x01, 0xFF, 0xFF,
  0x00, 0x01, 0x00, 0x00, 0x01, 0x00, 0xFF, 0x00, 0x00, 0x00, 0xFE, 0x00,
  0x00, 0x00, 0x01, 0x01, 0xFF, 0x01, 0x00, 0xFF, 0x00, 0x00, 0x00, 0x01,
  0x00, 0xFF, 0xFF, 0xFF, 0xFF, 0x00, 0xFF, 0xFF, 0xFF, 0x00, 0xFE, 0x01,
  0xFF, 0x00, 0x00, 0x00, 0x01, 0xFF, 0xFF, 0x02, 0x00, 0xFF, 0xFF, 0xFE,
  0x00, 0xFE, 0x00, 0xFF, 0xFE, 0xFF, 0xFF, 0x00, 0x00, 0x01, 0x01, 0x00,
  0x02, 0x00, 0x00, 0x00, 0xFE, 0xFF, 0xFF, 0xFE, 0x01, 0xFE, 0xFE, 0x00,
  0xFE, 0x01, 0x01, 0x00, 0x01, 0x00, 0x00, 0x00, 0xFF, 0x01, 0xFF, 0x00,
  0xFF, 0xFF, 0xFF, 0x00, 0xFF, 0x00, 0x01, 0x00, 0x00, 0xFF, 0xFE, 0x00,
  0x01, 0x00, 0x01, 0x00, 0xFF, 0xFF, 0x00, 0x01, 0x00, 0x00, 0x01, 0x01,
  0xFE, 0x01, 0x00, 0xFF, 0xFF, 0x02, 0x01, 0x01, 0x00, 0x00, 0x00, 0x00,
  0x01, 0x02, 0xFF, 0xFE, 0xFF, 0x01, 0x01, 0xFF, 0x00, 0x01, 0xFF, 0xFF,
  0x00, 0xFE, 0xFE, 0x01, 0xFE, 0xFF, 0x01, 0xFF, 0x01, 0xFF, 0x01, 0xFF,
  0x00, 0xFF, 0xFF, 0x00, 0x01, 0x00, 0x00, 0x01, 0x00, 0x02, 0xFF, 0x01,
  0x00, 0xFF, 0xFF, 0x01, 0x00, 0x01, 0x00, 0xFF, 0x02, 0xFE, 0xFF, 0xFF,
  0x02, 0xFF, 0x01, 0xFF, 0xFF, 0xFF, 0x02, 0x00, 0x01, 0xFF, 0x01, 0x01,
  0x01, 0x00, 0x00, 0xFF, 0xFF, 0xFF, 0x00, 0x01, 0xFF, 0x01, 0xFF, 0x01,
  0xFF, 0x01, 0x01, 0xFF, 0xFF, 0xFF, 0x00, 0xFF, 0xFF, 0x00, 0xFF, 0xFF,
  0x01, 0x01, 0x00, 0x00, 0xFF, 0x00, 0xFF, 0x01, 0xFE, 0xFE, 0x00, 0x00,
  0x00, 0xFF, 0xFF, 0x01, 0xFF, 0x01, 0xFF, 0x00, 0x01, 0x00, 0xFE, 0x00,
  0xFF, 0xFF, 0xFE, 0xFF, 0x01, 0xFE, 0x00, 0xFF, 0xFF, 0x00, 0xFE, 0xFF,
  0xFF, 0xFF, 0x00, 0x00, 0x00, 0x00, 0x01, 0x01, 0x00, 0xFF, 0xFF, 0xFF,
  0x00, 0xFF, 0xFF, 0xFF, 0x01, 0xFF, 0xFF, 0xFF, 0x01, 0xFE, 0x00, 0xFF,
  0x01, 0x01, 0x01, 0x00, 0xFF, 0x01, 0xFF, 0xFE, 0x01, 0x02, 0x00, 0xFF,
  0x00, 0x00, 0x02, 0x02, 0x00, 0xFF, 0xFF, 0x01, 0xFF, 0x01, 0xFE, 0xFF,
  0x00, 0x01, 0x01, 0xFF, 0xFF, 0xFF, 0x01, 0x01, 0x01, 0x01, 0x01, 0x01,
  0x00, 0x00, 0x00, 0xFF, 0xFF, 0xFF, 0xFE, 0x00, 0x00, 0xFE, 0xFF, 0x01,
  0x00, 0x01, 0x01, 0x00, 0xFF, 0x00, 0x00, 0xFE, 0x00, 0x01, 0xFE, 0xFF,
  0x00, 0xFF, 0xFF, 0x01, 0x01, 0xFF, 0x00, 0x02, 0x01, 0x00, 0xFF, 0xFF,
  0x02, 0x01, 0x01, 0xFF, 0x00, 0xFF, 0xFF, 0xFF, 0xFF, 0x00, 0xFF, 0xFF,
  0xFF, 0x02, 0xFF, 0x00, 0x00, 0xFF, 0x00, 0x00, 0xFE, 0x01, 0x01, 0x01,
  0x00, 0x00, 0xFF, 0xFF, 0x00, 0x00, 0x00, 0xFF, 0x01, 0x01, 0xFF, 0xFE,
  0xFF, 0x01, 0x00, 0xFE, 0xFE, 0xFF, 0x01, 0x01, 0x00, 0x01, 0x00, 0x00,
  0xFF, 0x00, 0x00, 0x00, 0x00, 0xFE, 0xFF, 0x01, 0xFF, 0x00, 0xFF, 0x01,
  0xFE, 0x01, 0x01, 0xFF, 0x00, 0x00, 0x01, 0xFF, 0x00, 0x00, 0xFE, 0x00,
  0x00, 0xFF, 0xFF, 0x00, 0x00, 0x00, 0xFF, 0xFE, 0x00, 0xFF, 0x00, 0x01,
  0x00, 0xFF, 0x01, 0x00, 0x00, 0x00, 0xFF, 0x00, 0xFF, 0x00, 0xFE, 0x01,
  0x01, 0xFF, 0x02, 0xFE, 0x00, 0xFE, 0x01, 0x00, 0x01, 0x00, 0xFF, 0x02,
  0x01, 0xFF, 0xFF, 0xFF, 0x00, 0x01, 0x00, 0x00, 0x00, 0x00, 0x00, 0x00,
  0x00, 0xFF, 0x02, 0x00, 0x01, 0xFE, 0x01, 0xFF, 0x00, 0x00, 0x01, 0xFF,
  0x00, 0xFF, 0xFF, 0xFF, 0x00, 0x00, 0x01, 0x01, 0xFF, 0xFE, 0x01, 0xFF,
  0x00, 0x00, 0xFF, 0x00, 0xFF, 0x01, 0xFF, 0x01, 0x01, 0xFF, 0x01, 0x02,
  0x00, 0x01, 0x00, 0xFF, 0x00, 0xFF, 0x00, 0x01, 0x00, 0x01, 0xFF, 0xFF,
  0x00, 0x00, 0x00, 0xFF, 0xFE, 0x01, 0xFF, 0xFF, 0x01, 0x02, 0xFF, 0x01,
  0x00, 0xFF, 0x00, 0xFF, 0x01, 0x01, 0x01, 0x01, 0x00, 0x01, 0x01, 0xFF,
  0xFF, 0x00, 0x00, 0x00, 0x01, 0xFF, 0x01, 0x00, 0x00, 0xFF, 0x01, 0x00,
  0x01, 0x00, 0xFE, 0x02, 0x00, 0x00, 0x00, 0x01, 0xFF, 0xFF, 0xFF, 0xFF,
  0x01, 0x00, 0x00, 0x01, 0x00, 0xFF, 0xFF, 0xFE, 0x01, 0x02, 0x01, 0x01,
  0xFF, 0x00, 0xFF, 0xFF, 0x00, 0x00, 0xFF, 0xFF, 0xFF, 0xFE, 0xFE, 0x00,
  0x01, 0x01, 0xFE, 0x01, 0x01, 0xFE, 0x00, 0x00, 0x01, 0x00, 0xFF, 0xFF,
  0x01, 0x00, 0x01, 0x01, 0xFF, 0xFF, 0x01, 0x02, 0x00, 0x00, 0x01, 0x00,
  0xFF, 0x01, 0x00, 0x00, 0xFF, 0x01, 0x00, 0x00, 0x00, 0x00, 0x00, 0x01,
  0x01, 0xFF, 0x02, 0xFF, 0xFE, 0xFF, 0xFE, 0x01, 0xFE, 0x01, 0xFE, 0x01,
  0x01, 0xFF, 0xFF, 0x00, 0x01, 0x01, 0x01, 0x00, 0x01, 0xFF, 0xFE, 0x00,
  0xFF, 0x01, 0xFE, 0x00, 0xFF, 0x00, 0xFF, 0xFF, 0x01, 0x01, 0xFF, 0x01,
  0x00, 0x01, 0xFF, 0x01, 0xFF, 0x01, 0xFF, 0x01, 0xFF, 0x01, 0x00, 0x01,
  0xFF, 0x01, 0x00, 0x00, 0x01, 0x01, 0xFF, 0x01, 0x01, 0xFF, 0x01, 0xFF,
  0x01, 0x02, 0xFF, 0xFF, 0xFF, 0xFF, 0x01, 0x00, 0xFF, 0x01, 0x01, 0x02,
  0x00, 0xFF, 0x00, 0x01, 0x00, 0x00, 0xFF, 0xFF, 0x00, 0x01, 0x00, 0xFE,
  0xFF, 0x01, 0x00, 0x00, 0xFF, 0x00, 0x00, 0xFF, 0x01, 0x01, 0xFF, 0xFF,
  0x00, 0x01, 0x02, 0x01, 0xFF, 0x00, 0x01, 0x01, 0x02, 0x00, 0xFF, 0x00,
  0xFF, 0xFE, 0x02, 0xFF, 0x02, 0x00, 0x01, 0x01, 0x01, 0x01, 0x01, 0xFF,
  0x00, 0x00, 0x02, 0x00, 0xFF, 0x01, 0x01, 0x01, 0x00, 0xFF, 0x00, 0x01,
  0x01, 0x00, 0xFF, 0x01, 0xFF, 0x01, 0x00, 0x01, 0x01, 0x01, 0x00, 0xFE,
  0xFF, 0xFF, 0x01, 0xFE, 0x01, 0xFF, 0x00, 0x02, 0xFF, 0x01, 0xFE, 0x00,
  0x01, 0xFF, 0x01, 0xFE, 0xFF, 0xFF, 0x01, 0x00, 0xFF, 0xFE, 0xFF, 0xFF,
  0xFF, 0x00, 0x00, 0x00, 0xFF, 0x00, 0x01, 0x01, 0x01, 0x00, 0xFE, 0x01,
  0x00, 0x00, 0x01, 0xFE, 0x02, 0xFE, 0x00, 0x00, 0x01, 0x02, 0xFE, 0x01,
  0x01, 0x02, 0x01, 0xFE, 0xFF, 0x01, 0x00, 0xFF, 0xFF, 0xFF, 0xFE, 0x00,
  0xFF, 0x01, 0xFF, 0x01, 0x02, 0x00, 0x00, 0x00, 0x02, 0x00, 0xFF, 0x00,
  0x01, 0xFF, 0x01, 0xFF, 0x01, 0xFE, 0xFF, 0x01, 0x00, 0x01, 0xFE, 0x00,
  0x01, 0x00, 0x00, 0xFE, 0xFF, 0x01, 0xFF, 0xFF, 0x00, 0x01, 0x01, 0xFF,
  0x01, 0x01, 0xFF, 0xFE, 0x01, 0xFF, 0x00, 0x01, 0xFF, 0x01, 0xFF, 0xFF,
  0x00, 0x00, 0xFF, 0xFF, 0xFE, 0x00, 0xFF, 0xFF, 0x02, 0xFE, 0x00, 0x00,
  0x01, 0xFF, 0x00, 0x01, 0xFF, 0xFE, 0x01, 0x01, 0x01, 0x01, 0x00, 0x00,
  0x01, 0x00, 0xFF, 0x01, 0x02, 0x01, 0xFF, 0x01, 0xFF, 0x02, 0xFF, 0x00,
  0xFF, 0x01, 0xFF, 0x00, 0x00, 0xFF, 0x01, 0x01, 0xFF, 0x01, 0x01, 0x01,
  0x00, 0x00, 0x01, 0xFE, 0x01, 0x01, 0xFF, 0x00, 0x01, 0x00, 0x01, 0x01,
  0x01, 0x01, 0xFF, 0x01, 0x00, 0x00, 0xFF, 0xFF, 0x00, 0xFF, 0x01, 0xFF,
  0x01, 0x00, 0x00, 0xFE, 0x01, 0xFF, 0x01, 0x01, 0xFF, 0x00, 0x00, 0x00,
  0x00, 0x01, 0x01, 0x01, 0xFF, 0x01, 0x01, 0x00, 0x00, 0x00, 0xFE, 0x01,
  0x01, 0x00, 0x00, 0xFE, 0x00, 0xFE, 0x00, 0xFE, 0x00, 0x01, 0x00, 0xFF,
  0xFF, 0xFF, 0x00, 0x02, 0x00, 0x01, 0xFF, 0xFF, 0xFF, 0x00, 0x00, 0xFF,
  0xFF, 0x00, 0x01, 0x00, 0x00, 0xFF, 0x01, 0xFF, 0x01, 0x00, 0xFF, 0xFF,
  0x00, 0xFF, 0x01, 0xFF, 0x01, 0x00, 0xFF, 0x02, 0x00, 0x01, 0xFE, 0xFF,
  0x00, 0xFF, 0xFF, 0xFF, 0x01, 0x01, 0xFF, 0x00, 0x01, 0x01, 0x01, 0x01,
  0x01, 0xFF, 0x01, 0x00, 0x00, 0x00, 0x00, 0x00, 0x00, 0xFF, 0xFF, 0x00,
  0x00, 0x02, 0x01, 0x00, 0xFF, 0xFE, 0x02, 0xFE, 0x00, 0x00, 0x01, 0x00,
  0xFF, 0xFF, 0xFF, 0x01, 0xFE, 0xFF, 0x01, 0xFF, 0x00, 0x00, 0xFE, 0xFF,
  0x02, 0x01, 0x01, 0x01, 0x01, 0xFF, 0x01, 0x00, 0x01, 0x02, 0xFE, 0x00,
  0x01, 0x02, 0x00, 0x00, 0xFF, 0xFF, 0x00, 0xFF, 0x01, 0xFF, 0xFF, 0xFE,
  0x02, 0x01, 0x02, 0xFF, 0xFF, 0xFF, 0xFF, 0x01, 0x00, 0xFF, 0x01, 0x01,
  0xFF, 0x00, 0x01, 0x01, 0xFF, 0xFF, 0xFF, 0x02, 0x01, 0x01, 0x01, 0xFE,
  0xFF, 0x00, 0xFF, 0xFF, 0x02, 0xFE, 0x00, 0x00, 0x00, 0x00, 0x00, 0xFF,
  0x00, 0xFF, 0xFF, 0x01, 0x01, 0xFF, 0x00, 0x00, 0x01, 0xFF, 0x00, 0xFE,
  0x01, 0xFF, 0x00, 0x00, 0x02, 0x01, 0xFE, 0x00, 0x00, 0x01, 0x01, 0xFF,
  0x00, 0x00, 0x00, 0x01, 0x01, 0x01, 0xFF, 0xFF, 0x00, 0xFF, 0xFF, 0xFF,
  0x00, 0x01, 0x02, 0xFF, 0x00, 0xFF, 0xFF, 0x01, 0xFF, 0x01, 0x00, 0xFE,
  0x01, 0xFF, 0xFF, 0x00, 0x00, 0x02, 0x00, 0x00, 0x00, 0x00, 0xFF, 0x01,
  0x00, 0xFF, 0xFF, 0x01, 0x00, 0x00, 0xFF, 0xFE, 0x01, 0xFF, 0x00, 0xFF,
  0xFF, 0x00, 0x00, 0xFF, 0x00, 0x01, 0x00, 0xFF, 0xFF, 0x01, 0xFE, 0xFE,
  0xFF, 0x01, 0x01, 0x01, 0x00, 0x00, 0x01, 0x01, 0x02, 0x00, 0x01, 0xFF,
  0x00, 0xFF, 0x01, 0xFF, 0xFE, 0xFE, 0xFF, 0x02, 0x01, 0x01, 0x00, 0x01,
  0x02, 0xFF, 0x02, 0x00, 0xFF, 0x00, 0x01, 0xFE, 0xFF, 0x01, 0x01, 0x00,
  0xFF, 0x01, 0xFF, 0xFF, 0xFF, 0x00, 0x00, 0xFF, 0x01, 0x01, 0x00, 0x01,
  0x01, 0x01, 0xFF, 0xFF, 0xFF, 0xFF, 0xFF, 0x00, 0xFF, 0xFF, 0x00, 0x01,
  0x00, 0xFF, 0xFF, 0x01, 0x00, 0xFE, 0xFF, 0x02, 0x00, 0x00, 0x01, 0x00,
  0x01, 0x02, 0x01, 0x01, 0x01, 0x00, 0x00, 0x00, 0xFF, 0xFF, 0x00, 0x01,
  0x01, 0x01, 0xFF, 0xFF, 0xFF, 0x00, 0x01, 0x01, 0x00, 0xFE, 0xFF, 0xFF,
  0x02, 0x00, 0x01, 0x01, 0x01, 0x00, 0x02, 0x01, 0x00, 0xFF, 0xFE, 0xFE,
  0x00, 0x00, 0x01, 0x00, 0x00, 0xFF, 0x01, 0xFF, 0x01, 0xFF, 0x00, 0x00,
  0x00, 0xFF, 0x00, 0x01, 0x01, 0x01, 0x01, 0x01, 0x01, 0x00, 0xFF, 0x01,
  0x00, 0x01, 0xFE, 0x00, 0x00, 0x01, 0xFF, 0xFF, 0xFE, 0xFE, 0x01, 0xFF,
  0x01, 0x01, 0xFF, 0x01, 0x01, 0xFF, 0x01, 0x00, 0x01, 0x00, 0xFF, 0x01,
  0x01, 0xFF, 0xFF, 0x01, 0x01, 0x00, 0x00, 0xFF, 0x00, 0x01, 0xFE, 0x00,
  0x01, 0x01, 0xFF, 0x00, 0xFF, 0xFE, 0xFF, 0x00, 0x00, 0xFF, 0x01, 0xFF,
  0x01, 0x00, 0x01, 0x01, 0xFE, 0xFF, 0x01, 0xFF, 0xFF, 0xFE, 0x01, 0xFF,
  0xFF, 0xFF, 0xFF, 0xFF, 0xFF, 0x00, 0xFF, 0x01, 0x00, 0x01, 0x01, 0x00,
  0x00, 0x00, 0x01, 0xFF, 0xFE, 0xFF, 0x00, 0x01, 0x01, 0x01, 0xFE, 0xFF,
  0x00, 0x00, 0x00, 0x00, 0x01, 0x00, 0xFF, 0x01, 0x02, 0x01, 0x01, 0xFF,
  0x01, 0x00, 0x01, 0x01, 0xFE, 0x01, 0x01, 0xFF, 0xFE, 0x01, 0xFF, 0x00,
  0x00, 0x01, 0x01, 0x00, 0xFF, 0x01, 0xFE, 0xFE, 0xFE, 0x02, 0xFE, 0x01,
  0x01, 0xFF, 0x01, 0x01, 0xFF, 0xFF, 0x01, 0x00, 0x02, 0x00, 0x00, 0xFF,
  0xFF, 0x00, 0xFE, 0xFE, 0x01, 0xFF, 0x01, 0x00, 0xFF, 0xFF, 0xFE, 0xFF,
  0x01, 0x01, 0x00, 0xFF, 0xFE, 0xFE, 0xFE, 0x01, 0x01, 0x01, 0xFF, 0xFE,
  0xFF, 0x00, 0x00, 0x00, 0x01, 0xFF, 0x02, 0x01, 0x01, 0x00, 0x00, 0x01,
  0x01, 0x01, 0x02, 0xFF, 0x00, 0x01, 0xFF, 0x01, 0x00, 0x00, 0xFE, 0xFF,
  0x00, 0xFF, 0xFF, 0xFE, 0x01, 0x00, 0x01, 0x00, 0x01, 0x01, 0x00, 0x01,
  0xFF, 0x02, 0x01, 0x02, 0xFF, 0xFF, 0x00, 0xFF, 0x00, 0x00, 0x00, 0xFF,
  0xFF, 0x02, 0xFF, 0xFE, 0x01, 0x01, 0xFF, 0x01, 0x00, 0x01, 0x00, 0xFE,
  0xFE, 0x00, 0xFF, 0x00, 0x00, 0x02, 0xFF, 0xFE, 0x02, 0xFF, 0x00, 0xFF,
  0xFF, 0xFF, 0x00, 0x00, 0xFF, 0x00, 0x00, 0x00, 0x02, 0x01, 0x01, 0x00,
  0x00, 0xFF, 0x01, 0x01, 0xFF, 0xFF, 0x00, 0x01, 0x00, 0x01, 0xFE, 0x01,
  0x00, 0x01, 0x00, 0xFF, 0x01, 0x01, 0xFF, 0xFF, 0xFF, 0xFF, 0xFF, 0x00,
  0x02, 0x00, 0x00, 0xFF, 0xFE, 0xFF, 0xFE, 0x00, 0x02, 0x00, 0x01, 0x00,
  0x02, 0x01, 0x02, 0xFF, 0xFF, 0xFF, 0x00, 0xFF, 0x01, 0xFF, 0x00, 0xFF,
  0x00, 0xFF, 0x01, 0xFF, 0x01, 0x02, 0x00, 0xFF, 0x01, 0x00, 0xFE, 0xFF,
  0x00, 0xFF, 0x01, 0xFF, 0x01, 0xFE, 0x01, 0xFF, 0x01, 0x01, 0xFF, 0x00,
  0xFE, 0xFE, 0x01, 0x01, 0x01, 0xFF, 0x01, 0x00, 0x01, 0xFF, 0xFE, 0x01,
  0x00, 0x01, 0xFF, 0x00, 0x01, 0xFE, 0x00, 0xFF, 0x01, 0x00, 0xFE, 0xFF,
  0xFF, 0x00, 0xFF, 0x01, 0x01, 0xFE, 0x00, 0x01, 0xFF, 0x01, 0xFF, 0xFE,
  0x01, 0x00, 0xFE, 0x01, 0x00, 0x00, 0xFF, 0xFF, 0x00, 0x00, 0xFF, 0x00,
  0x02, 0x00, 0x01, 0x00, 0x01, 0xFF, 0xFE, 0xFF, 0x00, 0x01, 0xFF, 0x00,
  0x00, 0x00, 0xFF, 0x01, 0x00, 0xFF, 0xFE, 0xFF, 0x01, 0x01, 0x00, 0x01,
  0x01, 0x00, 0xFF, 0x00, 0x00, 0x02, 0x01, 0x02, 0x00, 0xFF, 0x00, 0xFF,
  0xFF, 0xFF, 0xFF, 0xFE, 0x00, 0xFE, 0x00, 0xFF, 0xFF, 0x01, 0xFE, 0xFF,
  0x01, 0x00, 0x01, 0xFF, 0xFF, 0xFE, 0xFF, 0xFF, 0x01, 0xFF, 0x01, 0x01,
  0x00, 0xFF, 0xFE, 0x01, 0xFF, 0xFF, 0x00, 0x00, 0xFF, 0x00, 0x00, 0x00,
  0x00, 0x01, 0xFF, 0xFE, 0x00, 0xFF, 0xFE, 0x00, 0x00, 0xFF, 0x00, 0x00,
  0xFF, 0x00, 0x01, 0xFF, 0x00, 0xFF, 0x00, 0xFF, 0xFF, 0x00, 0xFE, 0x00,
  0x00, 0x01, 0xFF, 0x00, 0x01, 0x00, 0x01, 0xFF, 0x00, 0xFF, 0xFF, 0x00,
  0x00, 0x00, 0xFF, 0x00, 0x00, 0x00, 0x00, 0xFE, 0x00, 0x02, 0x01, 0x00,
  0xFE, 0x00, 0x00, 0x01, 0x01, 0xFF, 0x01, 0xFE, 0xFF, 0x00, 0x00, 0x00,
  0xFF, 0x00, 0x00, 0x01, 0xFF, 0x00, 0x00, 0x01, 0x00, 0x01, 0x01, 0xFF,
  0x00, 0x00, 0x00, 0x01, 0x00, 0x00, 0xFF, 0x00, 0xFF, 0xFE, 0x00, 0x00,
  0xFF, 0x00, 0x00, 0xFF, 0x02, 0x01, 0x01, 0x01, 0x01, 0xFE, 0xFF, 0x00,
  0x01, 0x01, 0xFF, 0x00, 0x00, 0x00, 0xFF, 0x02, 0x00, 0xFF, 0xFF, 0x01,
  0xFF, 0x01, 0x02, 0x01, 0x01, 0xFF, 0x02, 0xFE, 0xFF, 0xFE, 0xFF, 0x00,
  0xFE, 0xFF, 0x00, 0x00, 0x00, 0x00, 0x01, 0xFF, 0x00, 0x00, 0xFF, 0xFE,
  0x00, 0x01, 0xFF, 0x01, 0x00, 0x01, 0xFF, 0xFF, 0x00, 0x00, 0x00, 0x01,
  0xFF, 0xFF, 0xFF, 0xFF, 0x01, 0xFF, 0x01, 0x00, 0xFF, 0x00, 0x01, 0x01,
  0x02, 0x00, 0xFF, 0x01, 0x01, 0xFF, 0xFF, 0xFF, 0x01, 0xFE, 0xFF, 0x01,
  0xFF, 0x00, 0xFE, 0xFF, 0xFF, 0xFF, 0x00, 0xFF, 0xFF, 0xFF, 0x00, 0xFF,
  0x02, 0x00, 0x01, 0xFE, 0x02, 0x00, 0xFF, 0x01, 0x01, 0x01, 0x00, 0x00,
  0xFF, 0xFE, 0x00, 0x00, 0x00, 0x00, 0x01, 0x00, 0x00, 0xFF, 0x00, 0xFF,
  0x00, 0xFF, 0xFF, 0xFE, 0x00, 0x00, 0x01, 0xFF, 0xFF, 0x00, 0x01, 0x01,
  0xFF, 0xFF, 0xFE, 0x00, 0x00, 0xFF, 0x00, 0x00, 0x00, 0x01, 0x00, 0xFF,
  0x01, 0x01, 0x00, 0x00, 0x01, 0x01, 0xFF, 0x01, 0x01, 0x00, 0x00, 0x01,
  0xFF, 0xFF, 0xFF, 0x01, 0xFF, 0x00, 0x01, 0xFF, 0x01, 0x01, 0xFF, 0x01,
  0x00, 0x00, 0x01, 0x00, 0x02, 0x00, 0x01, 0xFF, 0xFF, 0xFF, 0xFE, 0xFF,
  0x01, 0x01, 0x02, 0xFF, 0x01, 0x01, 0x00, 0xFF, 0xFF, 0x00, 0xFF, 0x01,
  0x00, 0x00, 0xFF, 0x01, 0x01, 0x01, 0xFF, 0x00, 0xFF, 0xFE, 0x01, 0x01,
  0x01, 0x01, 0xFE, 0x00, 0x00, 0x01, 0xFF, 0x01, 0x01, 0x00, 0xFE, 0xFF,
  0xFE, 0xFF, 0x00, 0xFE, 0xFF, 0x00, 0x01, 0xFF, 0xFF, 0x01, 0xFE, 0xFF,
  0x00, 0x01, 0x02, 0x01, 0xFE, 0x00, 0xFE, 0x01, 0x00, 0xFE, 0xFE, 0x00,
  0xFE, 0x01, 0x00, 0x00, 0x01, 0xFF, 0x01, 0x00, 0x02, 0xFF, 0x01, 0xFE,
  0x01, 0x01, 0x01, 0x01, 0x01, 0xFF, 0x01, 0x00, 0x00, 0xFF, 0x01, 0x01,
  0x01, 0x00, 0x00, 0xFF, 0x01, 0xFE, 0xFF, 0xFE, 0xFF, 0x02, 0x01, 0xFF,
  0x00, 0x00, 0x00, 0x00, 0xFE, 0x02, 0x00, 0x02, 0x01, 0x01, 0xFE, 0x01,
  0xFF, 0xFF, 0xFE, 0xFE, 0x01, 0x01, 0xFF, 0xFF, 0x01, 0xFF, 0x01, 0x02,
  0xFF, 0xFF, 0x01, 0xFF, 0x01, 0x01, 0x01, 0x00, 0x01, 0x01, 0x00, 0x00,
  0x00, 0xFF, 0x00, 0x00, 0x00, 0x01, 0xFF, 0xFF, 0x00, 0xFE, 0xFE, 0x00,
  0x01, 0x01, 0xFE, 0x00, 0xFF, 0xFF, 0x00, 0x01, 0xFF, 0xFE, 0x00, 0xFF,
  0xFF, 0xFE, 0xFE, 0x00, 0x01, 0xFF, 0x01, 0x00, 0x02, 0x00, 0x00, 0xFF,
  0x01, 0x00, 0x01, 0x00, 0x01, 0x02, 0xFE, 0x00, 0xFF, 0xFE, 0x01, 0xFE,
  0xFF, 0x01, 0x01, 0x01, 0xFF, 0x00, 0x00, 0x01, 0x01, 0x00, 0x00, 0x00,
  0x02, 0xFE, 0xFF, 0x01, 0x00, 0xFF, 0x01, 0x00, 0x00, 0xFF, 0x01, 0x01,
  0xFF, 0x00, 0x00, 0x00, 0x00, 0xFF, 0x00, 0xFF, 0xFE, 0x01, 0x00, 0x02,
  0x01, 0x00, 0x00, 0x01, 0xFF, 0x01, 0x00, 0x00, 0x00, 0x00, 0x00, 0xFE,
  0xFF, 0x00, 0xFF, 0x01, 0x02, 0x01, 0x01, 0x00, 0x01, 0x01, 0xFE, 0x01,
  0xFF, 0x02, 0xFF, 0x00, 0xFF, 0x01, 0x02, 0x01, 0xFE, 0xFF, 0x00, 0xFF,
  0xFE, 0x00, 0x00, 0xFF, 0xFF, 0xFE, 0xFF, 0x00, 0xFF, 0x00, 0x00, 0x00,
  0x00, 0x00, 0x00, 0x01, 0x00, 0xFF, 0xFE, 0x00, 0x01, 0x01, 0xFF, 0x01,
  0x00, 0x01, 0xFF, 0xFE, 0x00, 0x01, 0x00, 0xFE, 0x01, 0xFF, 0x00, 0x00,
  0xFF, 0xFF, 0x02, 0x01, 0x01, 0x00, 0xFE, 0x00, 0xFF, 0x00, 0xFE, 0xFE,
  0x02, 0xFF, 0xFE, 0x01, 0xFF, 0xFE, 0x00, 0x00, 0x00, 0x00, 0xFE, 0x00,
  0x01, 0xFF, 0x02, 0x01, 0x01, 0xFF, 0x01, 0x01, 0x00, 0xFF, 0xFF, 0x00,
  0xFF, 0xFF, 0x02, 0x01, 0x00, 0x00, 0x01, 0xFE, 0xFF, 0x01, 0x01, 0x01,
  0xFF, 0x01, 0xFF, 0xFF, 0x00, 0xFE, 0xFE, 0x01, 0x00, 0xFF, 0xFF, 0x01,
  0x00, 0xFF, 0x00, 0xFE, 0xFF, 0xFE, 0x01, 0x01, 0xFF, 0x00, 0x00, 0x00,
  0xFF, 0x00, 0xFF, 0x00, 0xFF, 0xFF, 0xFE, 0xFF, 0x01, 0x01, 0xFF, 0xFF,
  0x01, 0x01, 0x01, 0x00, 0x01, 0xFE, 0x00, 0x00, 0xFE, 0xFF, 0x00, 0x01,
  0x02, 0xFE, 0x00, 0xFF, 0x01, 0x00, 0xFF, 0xFF, 0x00, 0xFF, 0xFF, 0xFE,
  0xFF, 0x00, 0x01, 0xFF, 0x00, 0x01, 0xFF, 0xFE, 0x02, 0x00, 0x00, 0xFE,
  0x01, 0x00, 0x01, 0x01, 0x00, 0x02, 0x00, 0xFE, 0x01, 0x01, 0x01, 0x01,
  0xFF, 0xFE, 0x01, 0xFF, 0x01, 0x00, 0xFF, 0xFE, 0x01, 0x02, 0xFE, 0x01,
  0x00, 0xFF, 0x01, 0xFF, 0xFF, 0xFF, 0x00, 0x00, 0x01, 0x00, 0x01, 0x01,
  0xFF, 0x01, 0x01, 0x00, 0x00, 0x01, 0x01, 0x00, 0x01, 0x01, 0x00, 0xFF,
  0x01, 0x01, 0x01, 0xFE, 0xFE, 0x01, 0x01, 0xFF, 0x00, 0xFF, 0x01, 0x01,
  0xFF, 0x02, 0xFF, 0x01, 0x01, 0x01, 0x02, 0x00, 0x01, 0x00, 0x01, 0x01,
  0xFF, 0xFF, 0x01, 0x01, 0xFF, 0x01, 0x01, 0xFE, 0x01, 0x01, 0xFE, 0xFE,
  0xFF, 0x00, 0x01, 0x01, 0x00, 0xFF, 0xFF, 0x00, 0x00, 0x01, 0xFE, 0x01,
  0x00, 0x00, 0x01, 0xFE, 0x00, 0x00, 0x01, 0x01, 0xFF, 0xFF, 0x01, 0xFE,
  0xFE, 0x00, 0x01, 0xFE, 0x00, 0xFF, 0x01, 0x00, 0xFF, 0xFF, 0x01, 0xFE,
  0x01, 0xFE, 0xFE, 0x00, 0x00, 0x01, 0xFF, 0xFE, 0x00, 0x01, 0xFE, 0x01,
  0x01, 0x01, 0x01, 0xFF, 0x01, 0x01, 0x01, 0x01, 0x00, 0xFF, 0xFF, 0x00,
  0x01, 0x01, 0x01, 0x02, 0xFF, 0x00, 0xFF, 0xFF, 0xFF, 0xFF, 0x01, 0x01,
  0xFF, 0xFF, 0x01, 0x00, 0x00, 0xFF, 0x01, 0x01, 0xFF, 0xFF, 0x01, 0xFF,
  0x01, 0x00, 0x01, 0xFF, 0x01, 0x00, 0xFF, 0x01, 0x01, 0x00, 0xFF, 0xFF,
  0xFF, 0x01, 0xFF, 0xFE, 0xFF, 0xFF, 0x01, 0x01, 0x00, 0xFF, 0x00, 0xFF,
  0xFF, 0x00, 0x01, 0x02, 0x00, 0x01, 0x01, 0x00, 0x00, 0x00, 0x01, 0xFF,
  0xFF, 0x01, 0x01, 0x01, 0x01, 0x00, 0xFF, 0x01, 0xFF, 0x01, 0x01, 0x00,
  0x01, 0x00, 0xFF, 0xFE, 0x01, 0x01, 0x01, 0x00, 0x00, 0xFF, 0x01, 0x01,
  0x00, 0xFE, 0x00, 0xFF, 0x02, 0x01, 0x00, 0xFF, 0x01, 0x01, 0x01, 0x00,
  0x00, 0x01, 0xFF, 0x00, 0x00, 0xFF, 0x00, 0xFF, 0xFF, 0xFF, 0x01, 0xFF,
  0x02, 0x00, 0x01, 0xFF, 0xFF, 0x00, 0xFF, 0x00, 0xFE, 0x00, 0xFF, 0xFF,
  0x01, 0xFF, 0x00, 0x01, 0xFF, 0xFF, 0x00, 0x01, 0xFE, 0x00, 0x00, 0x01,
  0x01, 0x00, 0xFE, 0x00, 0xFE, 0xFE, 0x00, 0x01, 0xFF, 0xFE, 0x00, 0x01,
  0xFF, 0xFE, 0x00, 0x01, 0xFF, 0x00, 0x00, 0x01, 0x01, 0x01, 0xFF, 0xFF,
  0x01, 0x00, 0xFF, 0x01, 0x00, 0x00, 0x00, 0xFF, 0x00, 0x01, 0x01, 0xFF,
  0x00, 0x01, 0x00, 0x00, 0x01, 0xFF, 0x01, 0x01, 0x01, 0xFF, 0x00, 0xFF,
  0xFF, 0x01, 0xFF, 0x00, 0x01, 0x00, 0x01, 0xFE, 0x01, 0x00, 0x00, 0xFF,
  0x01, 0x00, 0xFF, 0xFE, 0xFE, 0xFF, 0xFF, 0x01, 0x00, 0xFE, 0xFF, 0x00,
  0x01, 0x00, 0x01, 0x00, 0x01, 0x01, 0x00, 0xFF, 0xFE, 0xFF, 0x00, 0xFF,
  0xFF, 0x01, 0x02, 0x02, 0xFF, 0xFF, 0x01, 0x01, 0x01, 0x00, 0xFE, 0xFE,
  0x00, 0x00, 0x00, 0x00, 0xFF, 0xFF, 0x01, 0x00, 0x00, 0x00, 0x00, 0x01,
  0x01, 0x01, 0x01, 0x01, 0x00, 0xFF, 0x01, 0x00, 0x01, 0x01, 0x00, 0xFF,
  0x00, 0xFF, 0x00, 0x00, 0x01, 0x00, 0xFF, 0xFF, 0x01, 0x01, 0x00, 0x01,
  0x01, 0xFE, 0xFF, 0x02, 0x00, 0x01, 0x00, 0xFF, 0xFF, 0x00, 0x01, 0xFF,
  0x01, 0xFF, 0x01, 0x01, 0xFE, 0x01, 0x00, 0xFE, 0x02, 0x01, 0x00, 0x01,
  0xFF, 0x01, 0xFF, 0xFF, 0x00, 0x00, 0x01, 0x00, 0xFF, 0x00, 0x00, 0x01,
  0x00, 0xFE, 0xFF, 0xFE, 0x02, 0xFF, 0x00, 0xFF, 0x00, 0x00, 0x01, 0x00,
  0x02, 0x00, 0x00, 0x00, 0x01, 0x00, 0x00, 0x01, 0xFF, 0x01, 0xFE, 0xFF,
  0xFF, 0x01, 0x01, 0x00, 0x00, 0x00, 0x00, 0xFF, 0x02, 0x00, 0xFE, 0xFF,
  0xFF, 0xFF, 0x01, 0x00, 0x00, 0x01, 0x00, 0x00, 0x01, 0x01, 0x00, 0x00,
  0x00, 0xFF, 0xFF, 0xFE, 0x00, 0x01, 0xFF, 0xFE, 0xFF, 0x00, 0x00, 0x01,
  0x01, 0x00, 0x00, 0x00, 0x00, 0x00, 0xFF, 0xFE, 0xFF, 0x00, 0x00, 0xFE,
  0xFF, 0x01, 0x01, 0xFF, 0x00, 0x00, 0xFF, 0xFE, 0xFE, 0x01, 0xFE, 0x01,
  0x01, 0x01, 0x01, 0xFF, 0xFF, 0x01, 0xFF, 0xFE, 0xFF, 0x00, 0xFF, 0xFE,
  0x01, 0x01, 0x00, 0x01, 0xFF, 0x01, 0x01, 0xFE, 0x00, 0x00, 0x01, 0xFF,
  0x01, 0x01, 0xFF, 0xFF, 0x00, 0x01, 0x01, 0x01, 0xFF, 0xFE, 0x01, 0xFE,
  0x01, 0xFF, 0x00, 0xFF, 0xFF, 0xFE, 0xFF, 0xFE, 0x01, 0xFF, 0xFF, 0x01,
  0x00, 0xFE, 0xFF, 0xFE, 0x01, 0xFF, 0xFE, 0x02, 0x00, 0x01, 0xFF, 0xFF,
  0x00, 0x00, 0xFE, 0xFF, 0x01, 0x01, 0x00, 0x01, 0x01, 0xFF, 0xFE, 0xFF,
  0xFF, 0xFE, 0x00, 0x02, 0x01, 0xFF, 0x00, 0x00, 0x00, 0xFF, 0x00, 0xFE,
  0xFE, 0x01, 0x00, 0x00, 0x01, 0x00, 0x02, 0xFE, 0xFF, 0x00, 0xFF, 0x01,
  0x00, 0xFE, 0xFE, 0x02, 0x00, 0x01, 0x01, 0x01, 0xFF, 0x00, 0xFF, 0x01,
  0x00, 0x01, 0x01, 0x00, 0x01, 0x01, 0x01, 0x00, 0xFF, 0xFF, 0xFF, 0x00,
  0x01, 0xFF, 0x00, 0x00, 0x00, 0xFF, 0x00, 0xFF, 0x00, 0x01, 0xFE, 0x01,
  0x00, 0xFF, 0x01, 0x01, 0xFF, 0xFF, 0x00, 0x01, 0xFE, 0x01, 0xFE, 0x01,
  0xFF, 0x00, 0xFF, 0xFF, 0xFF, 0x02, 0x01, 0x01, 0x01, 0x01, 0xFF, 0x01,
  0x01, 0x01, 0x01, 0x00, 0x01, 0xFE, 0xFF, 0xFE, 0xFF, 0xFF, 0xFE, 0xFF,
  0xFF, 0xFF, 0xFF, 0x00, 0x01, 0x00, 0xFF, 0xFF, 0xFF, 0x01, 0xFE, 0xFF,
  0xFF, 0x00, 0x00, 0xFE, 0x00, 0x01, 0x01, 0x01, 0x00, 0xFF, 0xFF, 0x00,
  0x00, 0xFF, 0x02, 0x00, 0xFF, 0x00, 0x00, 0xFF, 0xFF, 0xFE, 0x00, 0xFE,
  0xFF, 0x00, 0x01, 0x00, 0x02, 0xFF, 0xFE, 0x00, 0x00, 0x00, 0xFF, 0x01,
  0x00, 0x01, 0x00, 0xFF, 0xFF, 0xFF, 0x01, 0x01, 0x00, 0x00, 0x01, 0xFF,
  0x00, 0x00, 0xFF, 0xFE, 0xFF, 0xFE, 0xFF, 0x01, 0x01, 0xFF, 0xFE, 0x02,
  0xFF, 0xFE, 0x01, 0x01, 0x00, 0x00, 0xFF, 0xFE, 0x01, 0x01, 0xFF, 0xFE,
  0x00, 0xFF, 0x00, 0x00, 0x02, 0xFF, 0xFF, 0x01, 0x01, 0x01, 0x01, 0x00,
  0x00, 0x01, 0xFF, 0x01, 0xFF, 0x01, 0x00, 0xFE, 0x01, 0x01, 0x00, 0x00,
  0xFF, 0xFF, 0x02, 0x00, 0x00, 0xFF, 0x00, 0xFE, 0x01, 0x02, 0xFF, 0xFF,
  0xFF, 0x00, 0x00, 0x01, 0xFF, 0xFF, 0xFF, 0x01, 0x02, 0xFF, 0x01, 0x00,
  0xFF, 0x01, 0x00, 0x00, 0x00, 0x00, 0x00, 0x01, 0xFF, 0xFF, 0xFE, 0x01,
  0x01, 0xFF, 0xFF, 0x01, 0xFF, 0xFE, 0x00, 0xFF, 0x00, 0xFF, 0xFE, 0xFF,
  0x00, 0x00, 0x00, 0xFE, 0x01, 0xFE, 0x00, 0xFF, 0xFF, 0xFF, 0x00, 0x00,
  0x00, 0xFF, 0x00, 0x01, 0xFE, 0x01, 0x01, 0xFF, 0xFE, 0x00, 0xFF, 0xFE,
  0xFF, 0xFF, 0xFF, 0xFF, 0x01, 0x00, 0x00, 0xFF, 0xFE, 0x00, 0x00, 0x00,
  0xFF, 0xFF, 0x01, 0xFF, 0x00, 0xFF, 0xFF, 0xFF, 0xFF, 0xFF, 0xFF, 0xFF,
  0x00, 0xFF, 0xFF, 0x00, 0x00, 0xFF, 0x01, 0x01, 0x01, 0xFF, 0xFF, 0x01,
  0xFF, 0x01, 0xFF, 0x00, 0x00, 0xFE, 0x01, 0x01, 0xFF, 0x01, 0xFE, 0x00,
  0x01, 0xFE, 0x00, 0x01, 0x01, 0xFF, 0x00, 0xFF, 0x00, 0x01, 0x01, 0x01,
  0x00, 0xFF, 0xFF, 0xFF, 0xFE, 0x00, 0xFF, 0x01, 0x01, 0x01, 0xFE, 0x01,
  0x01, 0xFE, 0xFF, 0x00, 0xFE, 0x01, 0x00, 0xFE, 0x00, 0xFF, 0x01, 0xFF,
  0xFE, 0x01, 0x02, 0x00, 0x00, 0xFF, 0xFF, 0x01, 0xFF, 0xFF, 0x01, 0xFF,
  0x01, 0xFF, 0x00, 0xFF, 0x01, 0xFE, 0x01, 0x00, 0xFF, 0x01, 0x00, 0x00,
  0xFF, 0xFE, 0x00, 0x01, 0x00, 0xFF, 0x00, 0x00, 0x00, 0x00, 0x00, 0x01,
  0x00, 0xFF, 0x00, 0xFF, 0x01, 0x01, 0xFF, 0xFF, 0x00, 0x00, 0x01, 0xFF,
  0x01, 0xFF, 0x00, 0xFF, 0x01, 0xFF, 0xFF, 0xFF, 0x01, 0x01, 0xFF, 0x01,
  0x00, 0xFF, 0xFF, 0x00, 0xFF, 0xFE, 0xFE, 0x00, 0xFF, 0x01, 0x00, 0xFF,
  0x00, 0xFF, 0xFF, 0x01, 0x00, 0x00, 0x00, 0x01, 0x00, 0xFE, 0x00, 0x00,
  0xFF, 0xFF, 0x00, 0xFF, 0x00, 0x01, 0x00, 0xFE, 0x01, 0x01, 0x01, 0x01,
  0x01, 0x00, 0xFF, 0xFE, 0xFF, 0xFF, 0xFE, 0x00, 0x01, 0x00, 0xFF, 0x01,
  0xFF, 0x01, 0x01, 0x01, 0x01, 0xFE, 0xFF, 0xFF, 0xFF, 0xFE, 0xFE, 0x00,
  0x01, 0x01, 0xFF, 0xFF, 0x00, 0x00, 0x00, 0x00, 0x02, 0x01, 0xFF, 0x01,
  0x01, 0xFF, 0xFF, 0xFF, 0x00, 0x00, 0xFF, 0xFF, 0x01, 0x00, 0x01, 0xFE,
  0x01, 0xFF, 0x01, 0x01, 0x01, 0x00, 0x01, 0xFF, 0x01, 0xFF, 0xFF, 0x00,
  0xFF, 0xFE, 0xFF, 0xFF, 0x01, 0xFF, 0xFE, 0x00, 0x00, 0x00, 0x01, 0xFF,
  0xFF, 0xFF, 0xFF, 0xFF, 0x00, 0xFF, 0xFF, 0xFF, 0x00, 0x00, 0x00, 0xFE,
  0xFF, 0x00, 0x01, 0xFF, 0xFF, 0xFF, 0x00, 0xFF, 0x01, 0x01, 0xFF, 0x01,
  0x02, 0xFF, 0x00, 0x00, 0x01, 0xFF, 0xFF, 0xFF, 0x01, 0xFF, 0x00, 0xFF,
  0x00, 0x01, 0x00, 0xFF, 0x00, 0xFF, 0xFE, 0xFE, 0x00, 0xFF, 0x01, 0xFF,
  0xFF, 0xFE, 0x00, 0x01, 0xFE, 0x00, 0x00, 0x00, 0xFF, 0x00, 0x00, 0x00,
  0xFF, 0xFF, 0xFF, 0xFF, 0x01, 0xFF, 0x01, 0xFF, 0x00, 0x02, 0x00, 0x01,
  0x01, 0x00, 0x00, 0x01, 0x01, 0x00, 0xFF, 0xFF, 0x00, 0x00, 0xFF, 0x01,
  0x00, 0xFF, 0x00, 0x01, 0x01, 0x00, 0xFF, 0x00, 0xFF, 0xFF, 0x00, 0x00,
  0x02, 0x01, 0x00, 0xFF, 0xFF, 0x00, 0x01, 0xFF, 0xFF, 0x00, 0x01, 0x00,
  0x02, 0xFF, 0xFF, 0x00, 0xFE, 0xFE, 0xFF, 0xFE, 0x01, 0xFE, 0xFF, 0xFE,
  0x00, 0xFF, 0xFE, 0xFF, 0x01, 0x01, 0xFF, 0xFE, 0xFF, 0x00, 0xFF, 0x01,
  0x00, 0xFF, 0xFF, 0xFF, 0x01, 0x01, 0x01, 0x00, 0xFF, 0x00, 0x00, 0x01,
  0xFF, 0x00, 0xFF, 0xFE, 0x01, 0x00, 0x01, 0x00, 0xFF, 0x01, 0xFF, 0x00,
  0xFF, 0x01, 0x01, 0xFE, 0x02, 0x00, 0x02, 0x00, 0x01, 0x00, 0x01, 0xFF,
  0x01, 0x00, 0x00, 0xFF, 0xFE, 0x01, 0xFF, 0x01, 0x00, 0xFF, 0x01, 0xFE,
  0x00, 0x01, 0x01, 0xFE, 0x00, 0x01, 0x00, 0x01, 0xFF, 0xFF, 0xFF, 0x01,
  0xFF, 0x02, 0xFF, 0x01, 0x00, 0x01, 0x01, 0x00, 0xFE, 0xFF, 0x01, 0x00,
  0x01, 0xFF, 0xFF, 0xFF, 0xFF, 0xFF, 0xFF, 0x01, 0xFE, 0x01, 0x00, 0x02,
  0x02, 0x00, 0x02, 0x01, 0x00, 0xFE, 0x01, 0x01, 0x01, 0x01, 0x01, 0xFF,
  0x01, 0xFF, 0x00, 0xFF, 0x01, 0xFF, 0x01, 0x01, 0xFF, 0x01, 0x01, 0x00,
  0xFF, 0x00, 0xFF, 0x02, 0x00, 0x00, 0x01, 0x01, 0x01, 0x01, 0xFF, 0xFE,
  0xFE, 0x01, 0x01, 0xFF, 0x01, 0xFF, 0x00, 0x00, 0x01, 0xFF, 0x01, 0xFF,
  0xFE, 0x01, 0x01, 0xFF, 0x00, 0xFF, 0xFF, 0x01, 0x01, 0x00, 0xFF, 0xFF,
  0x00, 0x00, 0x00, 0xFE, 0xFE, 0xFF, 0xFF, 0x00, 0x00, 0x01, 0x00, 0xFF,
  0x01, 0x00, 0x00, 0xFF, 0xFF, 0x00, 0xFF, 0x00, 0x01, 0x01, 0xFF, 0x00,
  0x01, 0x01, 0x01, 0x01, 0xFF, 0x00, 0xFF, 0x00, 0xFE, 0x00, 0x00, 0x01,
  0x00, 0xFE, 0xFF, 0x00, 0xFE, 0x00, 0x01, 0x00, 0x00, 0xFE, 0xFF, 0x00,
  0xFF, 0x01, 0x01, 0xFF, 0x00, 0xFE, 0x01, 0x01, 0x01, 0x00, 0xFF, 0x01,
  0x01, 0x01, 0x00, 0x01, 0x01, 0x01, 0xFF, 0xFF, 0xFE, 0xFF, 0xFF, 0xFF,
  0xFF, 0x01, 0x00, 0x01, 0x00, 0xFF, 0x00, 0x00, 0x02, 0x00, 0xFF, 0x00,
  0xFE, 0x01, 0x01, 0x01, 0x00, 0x00, 0x01, 0x01, 0x00, 0x00, 0xFF, 0xFF,
  0x02, 0xFF, 0x01, 0xFE, 0xFE, 0x00, 0x01, 0xFF, 0xFF, 0xFE, 0xFE, 0x01,
  0xFF, 0xFF, 0x00, 0x01, 0xFF, 0x00, 0xFE, 0x00, 0xFF, 0x00, 0xFF, 0x01,
  0xFF, 0x01, 0xFF, 0x01, 0x00, 0x01, 0x00, 0xFF, 0x02, 0xFF, 0x00, 0xFF,
  0xFE, 0xFF, 0xFF, 0xFF, 0x00, 0x01, 0x00, 0x01, 0xFF, 0x01, 0x00, 0xFE,
  0x01, 0xFF, 0xFE, 0xFF, 0x00, 0x00, 0x00, 0xFE, 0x00, 0xFF, 0xFE, 0xFF,
  0x01, 0x00, 0x01, 0xFF, 0xFF, 0x00, 0x00, 0x02, 0x01, 0xFF, 0x01, 0x01,
  0x00, 0x00, 0xFF, 0xFF, 0x01, 0xFF, 0xFF, 0x00, 0x00, 0x01, 0xFF, 0xFF,
  0xFF, 0x01, 0x00, 0x00, 0xFF, 0x01, 0x01, 0xFE, 0x00, 0xFF, 0xFF, 0xFE,
  0x01, 0x02, 0x02, 0x00, 0x00, 0x01, 0x00, 0xFF, 0xFF, 0x00, 0xFF, 0xFE,
  0xFF, 0xFF, 0x01, 0x01, 0xFF, 0x00, 0xFF, 0x01, 0x00, 0xFF, 0x01, 0xFE,
  0x01, 0x00, 0xFF, 0xFF, 0x01, 0xFE, 0x01, 0x01, 0xFF, 0xFF, 0xFF, 0x01,
  0xFF, 0xFF, 0xFF, 0x02, 0x01, 0x01, 0xFF, 0xFF, 0x00, 0x00, 0x00, 0x01,
  0xFE, 0xFF, 0x01, 0x00, 0xFF, 0xFF, 0xFF, 0x00, 0x02, 0x01, 0xFF, 0x00,
  0xFF, 0x00, 0x00, 0x01, 0xFF, 0xFE, 0x01, 0xFF, 0xFF, 0xFE, 0x00, 0x00,
  0xFF, 0x00, 0xFE, 0xFF, 0x00, 0x01, 0x00, 0x00, 0x00, 0x01, 0xFF, 0xFF,
  0xFF, 0x01, 0x02, 0x01, 0xFE, 0x02, 0x01, 0xFF, 0x00, 0x00, 0x01, 0x01,
  0x00, 0x00, 0x02, 0x00, 0xFF, 0x01, 0xFF, 0xFF, 0xFE, 0xFF, 0xFF, 0x01,
  0x01, 0x01, 0xFF, 0x00, 0x00, 0x00, 0xFE, 0xFF, 0x01, 0xFE, 0x01, 0xFF,
  0x01, 0xFF, 0x00, 0xFF, 0x01, 0x01, 0x01, 0xFE, 0x01, 0x01, 0xFF, 0x01,
  0xFF, 0x01, 0x01, 0x02, 0xFE, 0x00, 0xFE, 0x00, 0x01, 0x01, 0x01, 0x00,
  0x01, 0x01, 0x01, 0x00, 0x01, 0xFF, 0x00, 0xFE, 0x00, 0x01, 0xFF, 0x00,
  0xFF, 0x01, 0x01, 0xFF, 0xFF, 0x00, 0xFF, 0xFF, 0xFF, 0x00, 0x00, 0x01,
  0x01, 0x01, 0x00, 0xFF, 0xFF, 0x00, 0x00, 0x00, 0x01, 0xFF, 0xFF, 0x01,
  0x00, 0xFE, 0x01, 0xFF, 0xFF, 0xFF, 0xFF, 0xFF, 0x02, 0x01, 0x01, 0x00,
  0x00, 0xFF, 0xFF, 0x00, 0xFF, 0x00, 0x01, 0xFF, 0xFE, 0xFF, 0x01, 0x00,
  0xFF, 0x01, 0x01, 0xFF, 0x00, 0x02, 0xFE, 0x01, 0x00, 0xFF, 0x01, 0xFE,
  0x00, 0xFF, 0xFF, 0x00, 0x00, 0x01, 0x01, 0x01, 0x02, 0x01, 0x01, 0x00,
  0x00, 0xFF, 0xFE, 0x00, 0xFE, 0x02, 0x00, 0xFF, 0xFF, 0x00, 0x00, 0x00,
  0x02, 0x01, 0xFF, 0x00, 0x01, 0x00, 0xFF, 0xFE, 0xFF, 0x01, 0xFE, 0xFF,
  0x00, 0x00, 0xFF, 0x00, 0xFE, 0xFF, 0x01, 0xFF, 0x01, 0x01, 0xFF, 0x01,
  0xFF, 0xFF, 0xFF, 0xFF, 0x01, 0xFE, 0x01, 0x01, 0x00, 0xFF, 0x01, 0x00,
  0x00, 0x01, 0x00, 0x00, 0x01, 0x00, 0x01, 0xFF, 0xFE, 0x00, 0x01, 0xFF,
  0x01, 0x00, 0xFF, 0x00, 0x01, 0x00, 0x00, 0xFF, 0xFF, 0x02, 0xFF, 0xFF,
  0xFE, 0xFF, 0xFF, 0xFE, 0x01, 0xFF, 0x00, 0x01, 0x00, 0xFE, 0xFE, 0x01,
  0x00, 0x01, 0x01, 0x00, 0xFE, 0x00, 0x00, 0xFF, 0x01, 0xFF, 0x01, 0x00,
  0xFF, 0xFF, 0x00, 0xFF, 0xFE, 0x01, 0xFE, 0xFF, 0x00, 0x00, 0xFF, 0x01,
  0xFF, 0x00, 0xFF, 0xFF, 0x00, 0x00, 0x01, 0xFF, 0x00, 0x00, 0x01, 0xFF,
  0xFF, 0xFF, 0xFF, 0x01, 0xFE, 0x00, 0xFF, 0x00, 0x00, 0x00, 0xFF, 0x00,
  0xFF, 0x01, 0xFF, 0x01, 0xFE, 0x00, 0x01, 0x00, 0xFF, 0x00, 0x01, 0x00,
  0x01, 0xFE, 0x01, 0x01, 0x01, 0x00, 0xFF, 0x00, 0xFF, 0x01, 0x00, 0xFF,
  0xFF, 0x01, 0x01, 0x01, 0x01, 0x00, 0x01, 0xFF, 0xFF, 0x00, 0x01, 0x00,
  0x00, 0xFF, 0x00, 0xFF, 0x00, 0x01, 0xFE, 0x01, 0x02, 0x01, 0x00, 0xFE,
  0x00, 0x00, 0x00, 0x00, 0x00, 0x01, 0x01, 0x00, 0xFF, 0x01, 0xFE, 0x00,
  0xFF, 0xFF, 0x00, 0x01, 0x00, 0x01, 0x00, 0xFF, 0x01, 0x01, 0x00, 0x01,
  0x01, 0xFF, 0x00, 0xFE, 0xFF, 0xFF, 0x00, 0x00, 0xFF, 0x01, 0x00, 0x02,
  0x00, 0xFE, 0x00, 0xFF, 0xFF, 0x01, 0xFF, 0x00, 0xFF, 0x01, 0x01, 0x01,
  0x00, 0xFE, 0xFE, 0x01, 0xFF, 0xFF, 0x01, 0x01, 0x00, 0xFF, 0xFF, 0xFF,
  0x01, 0x00, 0x00, 0x01, 0x00, 0xFF, 0x01, 0xFF, 0xFF, 0xFF, 0x00, 0xFF,
  0xFF, 0xFF, 0xFF, 0x00, 0x01, 0xFF, 0x01, 0x00, 0x00, 0x01, 0x00, 0x02,
  0x01, 0xFF, 0x00, 0x01, 0x01, 0x01, 0x00, 0x00, 0x00, 0x00, 0xFE, 0x00,
  0x01, 0xFF, 0x00, 0xFF, 0xFF, 0x01, 0xFF, 0xFE, 0x00, 0xFF, 0x01, 0x00,
  0xFF, 0x00, 0x00, 0x01, 0x01, 0x00, 0x01, 0xFF, 0x00, 0xFF, 0xFF, 0x00,
  0xFE, 0xFF, 0x01, 0xFE, 0xFF, 0x01, 0x00, 0xFE, 0x01, 0x00, 0x00, 0x01,
  0xFF, 0x01, 0x02, 0x01, 0x00, 0x00, 0xFF, 0x00, 0x01, 0x00, 0xFF, 0xFE,
  0xFE, 0xFE, 0xFE, 0xFF, 0xFF, 0xFF, 0x01, 0xFE, 0xFF, 0xFF, 0x00, 0xFF,
  0x01, 0x00, 0x01, 0x01, 0x00, 0xFE, 0x00, 0xFE, 0x00, 0x00, 0x01, 0xFE,
  0x00, 0x00, 0x01, 0xFF, 0x01, 0x00, 0xFF, 0xFE, 0x01, 0xFF, 0x01, 0x01,
  0x00, 0x00, 0x01, 0xFE, 0xFF, 0x02, 0x01, 0xFF, 0x00, 0x01, 0xFF, 0x00,
  0x01, 0x01, 0x00, 0xFF, 0x01, 0xFF, 0x00, 0x01, 0x01, 0x01, 0x01, 0x00,
  0x01, 0x00, 0x00, 0xFF, 0xFF, 0xFF, 0x00, 0x00, 0xFF, 0xFE, 0xFF, 0xFE,
  0xFF, 0x00, 0x01, 0xFE, 0xFF, 0xFF, 0x02, 0xFE, 0x00, 0xFF, 0xFF, 0x00,
  0x01, 0x00, 0x01, 0x00, 0x00, 0x01, 0x00, 0xFE, 0xFF, 0xFE, 0xFF, 0x01,
  0x00, 0x01, 0x01, 0x00, 0x01, 0x01, 0xFF, 0xFE, 0x00, 0x01, 0xFF, 0x00,
  0x00, 0xFF, 0xFE, 0x01, 0xFE, 0xFE, 0x01, 0x00, 0xFF, 0xFF, 0xFF, 0x00,
  0x01, 0x00, 0x01, 0xFE, 0x01, 0xFE, 0xFF, 0xFF, 0xFF, 0x01, 0xFF, 0x00,
  0x01, 0xFE, 0xFF, 0x00, 0x01, 0x01, 0xFE, 0x02, 0x00, 0x00, 0xFF, 0xFE,
  0x00, 0x00, 0xFF, 0x01, 0x01, 0x01, 0xFF, 0x00, 0xFF, 0x01, 0x00, 0xFF,
  0x01, 0xFE, 0x01, 0xFF, 0x00, 0x01, 0x01, 0x00, 0x01, 0x01, 0x00, 0x01,
  0x01, 0x01, 0x00, 0xFE, 0xFE, 0xFF, 0x00, 0x00, 0x00, 0x00, 0x00, 0x02,
  0x00, 0x00, 0xFF, 0xFF, 0x01, 0xFF, 0x00, 0xFE, 0x00, 0xFF, 0xFF, 0xFF,
  0x01, 0x02, 0x01, 0xFF, 0x01, 0xFE, 0x00, 0xFF, 0xFF, 0x00, 0xFF, 0x00,
  0x00, 0xFF, 0x01, 0xFF, 0x01, 0x00, 0xFF, 0x01, 0x00, 0x00, 0x01, 0xFF,
  0xFF, 0x00, 0x02, 0x01, 0xFF, 0x01, 0xFF, 0xFE, 0x00, 0x00, 0xFF, 0x00,
  0x00, 0xFF, 0x00, 0xFF, 0xFF, 0xFF, 0xFF, 0x00, 0x01, 0x00, 0xFE, 0xFF,
  0x00, 0x00, 0xFF, 0xFF, 0x01, 0xFF, 0x01, 0x00, 0xFF, 0xFF, 0x01, 0xFF,
  0xFF, 0x01, 0x00, 0xFF, 0xFF, 0xFF, 0xFE, 0xFE, 0xFF, 0xFE, 0xFF, 0x01,
  0x00, 0x01, 0xFF, 0xFF, 0xFF, 0xFE, 0x00, 0x00, 0xFF, 0xFF, 0xFF, 0x02,
  0x01, 0x00, 0xFF, 0xFF, 0xFF, 0xFF, 0x00, 0x00, 0x01, 0x00, 0xFE, 0xFF,
  0x00, 0xFF, 0xFF, 0x01, 0x01, 0x00, 0x01, 0x00, 0x01, 0xFF, 0x01, 0x02,
  0xFF, 0xFE, 0xFF, 0x01, 0xFF, 0x00, 0x00, 0x01, 0x01, 0x01, 0x01, 0xFF,
  0x01, 0xFF, 0xFF, 0xFF, 0x00, 0x01, 0x00, 0x00, 0xFF, 0x00, 0xFE, 0xFF,
  0xFE, 0x00, 0x00, 0xFF, 0x01, 0xFF, 0x01, 0x01, 0xFF, 0xFF, 0xFF, 0x00,
  0x00, 0x01, 0xFE, 0x00, 0x01, 0x01, 0xFF, 0xFE, 0xFE, 0x00, 0x01, 0x00,
  0xFF, 0x00, 0x01, 0xFF, 0x00, 0x01, 0xFE, 0xFF, 0x01, 0xFE, 0xFF, 0x00,
  0x02, 0xFF, 0xFF, 0x00, 0xFF, 0xFF, 0x01, 0xFE, 0x00, 0x00, 0x00, 0x00,
  0x00, 0x00, 0x01, 0xFF, 0x00, 0x00, 0xFF, 0x01, 0x01, 0xFF, 0xFF, 0xFF,
  0x01, 0x01, 0xFF, 0x00, 0x01, 0xFF, 0x01, 0x00, 0xFF, 0xFF, 0xFE, 0xFF,
  0x02, 0x00, 0x00, 0x02, 0x00, 0xFF, 0x00, 0xFF, 0xFF, 0x00, 0x01, 0xFE,
  0x00, 0x01, 0x00, 0x00, 0x02, 0xFF, 0x01, 0xFF, 0x00, 0x01, 0xFF, 0x01,
  0xFF, 0xFF, 0x01, 0x00, 0x00, 0x00, 0x00, 0x00, 0x00, 0xFE, 0xFF, 0x00,
  0xFF, 0x01, 0xFF, 0xFE, 0x00, 0xFE, 0x01, 0xFE, 0x01, 0x00, 0x01, 0x01,
  0x01, 0x01, 0xFF, 0x00, 0x01, 0xFF, 0xFF, 0x00, 0x01, 0xFE, 0xFE, 0xFF,
  0x00, 0x00, 0x01, 0x00, 0x01, 0x01, 0xFF, 0xFE, 0x01, 0x00, 0xFF, 0x00,
  0x00, 0xFE, 0xFF, 0x00, 0xFF, 0x00, 0x01, 0x02, 0xFF, 0x00, 0xFF, 0xFF,
  0x00, 0x01, 0x00, 0xFF, 0x02, 0xFE, 0xFF, 0xFF, 0xFF, 0xFE, 0x01, 0x00,
  0x00, 0x00, 0x00, 0x01, 0x01, 0xFE, 0x00, 0xFF, 0xFF, 0x01, 0x00, 0x01,
  0xFF, 0xFF, 0x00, 0xFF, 0x01, 0x01, 0x00, 0x01, 0x01, 0x00, 0xFE, 0xFF,
  0x01, 0xFF, 0x01, 0xFF, 0xFF, 0x01, 0xFE, 0xFF, 0xFF, 0xFF, 0x01, 0x01,
  0x00, 0x02, 0x00, 0x01, 0x01, 0xFF, 0x01, 0x01, 0x00, 0xFF, 0xFF, 0x01,
  0x01, 0xFF, 0x00, 0xFF, 0x00, 0xFE, 0x01, 0xFF, 0xFF, 0xFF, 0x00, 0x00,
  0x01, 0xFE, 0x01, 0xFF, 0x00, 0x00, 0x01, 0xFF, 0x00, 0xFF, 0x01, 0xFF,
  0xFF, 0xFF, 0xFE, 0xFE, 0xFE, 0xFF, 0x00, 0xFE, 0xFF, 0x01, 0xFE, 0xFF,
  0xFE, 0x00, 0x02, 0x01, 0xFF, 0xFE, 0x02, 0x01, 0xFF, 0xFE, 0xFF, 0xFE,
  0x01, 0xFF, 0x01, 0x00, 0xFF, 0x00, 0x01, 0x00, 0x00, 0xFF, 0x01, 0x01,
  0x01, 0x01, 0xFF, 0xFF, 0x00, 0xFF, 0x01, 0x01, 0x01, 0x01, 0x01, 0x00,
  0x00, 0x00, 0x00, 0x00, 0xFF, 0x00, 0xFF, 0xFF, 0xFF, 0xFF, 0xFF, 0x00,
  0x00, 0xFF, 0x01, 0xFF, 0x01, 0x00, 0xFE, 0x00, 0x02, 0x01, 0x01, 0x00,
  0x02, 0x01, 0xFF, 0xFF, 0xFE, 0x01, 0x01, 0x01, 0xFE, 0x00, 0x00, 0xFF,
  0x00, 0x01, 0x01, 0x01, 0x00, 0xFF, 0xFE, 0x01, 0xFF, 0xFF, 0xFF, 0x00,
  0x01, 0x01, 0xFE, 0x00, 0xFF, 0x00, 0xFF, 0x01, 0xFF, 0x00, 0xFE, 0x01,
  0xFF, 0xFF, 0xFF, 0xFF, 0x01, 0x01, 0xFF, 0xFF, 0x02, 0x01, 0xFF, 0xFF,
  0x01, 0xFF, 0x01, 0xFF, 0x01, 0x01, 0x00, 0xFF, 0x00, 0x00, 0x01, 0x01,
  0x01, 0xFF, 0xFF, 0x00, 0x01, 0x00, 0x00, 0x00, 0x01, 0xFF, 0xFE, 0x01,
  0xFE, 0x00, 0x00, 0xFF, 0x01, 0xFF, 0xFF, 0x02, 0xFF, 0xFE, 0x00, 0x01,
  0x00, 0xFF, 0x02, 0x01, 0x01, 0xFE, 0xFE, 0x01, 0x01, 0x00, 0x02, 0xFF,
  0xFF, 0x01, 0x01, 0x00, 0x00, 0x02, 0x01, 0x01, 0xFF, 0x00, 0x00, 0x00,
  0xFF, 0xFF, 0xFF, 0x00, 0x01, 0x00, 0xFF, 0x00, 0x01, 0x01, 0xFF, 0xFE,
  0x00, 0x00, 0xFF, 0x00, 0x01, 0xFE, 0xFF, 0x01, 0xFE, 0x01, 0x01, 0x01,
  0x00, 0x01, 0xFF, 0xFF, 0xFF, 0x00, 0x00, 0xFF, 0x01, 0xFF, 0x00, 0x00,
  0x02, 0x00, 0x00, 0x00, 0x00, 0x00, 0x01, 0xFF, 0x01, 0x01, 0x01, 0x01,
  0x02, 0x00, 0x01, 0xFF, 0x01, 0x00, 0x01, 0x00, 0x00, 0x01, 0xFE, 0x01,
  0x01, 0x00, 0xFF, 0x00, 0xFE, 0x02, 0xFF, 0x01, 0x00, 0x01, 0xFF, 0x00,
  0x00, 0x01, 0xFF, 0x00, 0xFF, 0xFE, 0x00, 0xFE, 0xFF, 0x01, 0xFF, 0x01,
  0xFF, 0x01, 0x00, 0x00, 0xFF, 0xFF, 0x00, 0x00, 0x01, 0x00, 0xFF, 0xFE,
  0x00, 0xFF, 0x01, 0x01, 0x00, 0xFF, 0xFF, 0xFF, 0x02, 0x02, 0xFF, 0x00,
  0x00, 0xFE, 0xFF, 0x00, 0x00, 0x00, 0x01, 0x00, 0x00, 0x01, 0x00, 0xFF,
  0x01, 0x01, 0x00, 0x02, 0x02, 0x01, 0x01, 0x01, 0x00, 0xFF, 0xFE, 0xFF,
  0x00, 0xFF, 0x01, 0x00, 0x01, 0x00, 0x00, 0xFF, 0x00, 0xFF, 0xFE, 0xFE,
  0xFF, 0xFE, 0xFF, 0x01, 0xFF, 0x01, 0xFE, 0x02, 0xFE, 0xFF, 0x01, 0xFE,
  0xFF, 0x00, 0x01, 0x00, 0xFE, 0x02, 0xFE, 0x01, 0xFE, 0x00, 0x00, 0x00,
  0x01, 0xFE, 0x01, 0x00, 0x01, 0xFE, 0xFF, 0xFF, 0x00, 0x01, 0x01, 0x00,
  0x01, 0xFE, 0xFF, 0x00, 0x01, 0x00, 0xFE, 0xFF, 0x00, 0xFF, 0xFF, 0xFE,
  0x00, 0x01, 0x01, 0x00, 0xFF, 0x01, 0xFE, 0x01, 0xFF, 0xFE, 0xFF, 0xFF,
  0x01, 0xFE, 0x00, 0x00, 0xFF, 0xFF, 0x00, 0x00, 0xFF, 0x01, 0x00, 0xFE,
  0x00, 0x00, 0x00, 0x00, 0x00, 0x00, 0x00, 0x01, 0x00, 0x00, 0xFF, 0xFE,
  0x00, 0x00, 0x01, 0x01, 0xFE, 0xFF, 0xFF, 0x01, 0x01, 0xFF, 0x00, 0xFE,
  0x01, 0xFF, 0xFF, 0xFF, 0x00, 0x00, 0x00, 0x02, 0x00, 0x01, 0xFF, 0x01,
  0xFF, 0xFE, 0x01, 0x01, 0x01, 0xFF, 0xFF, 0xFF, 0xFF, 0x00, 0xFF, 0xFE,
  0x02, 0x02, 0x02, 0x01, 0x00, 0xFE, 0xFF, 0x01, 0xFF, 0x01, 0x00, 0xFF,
  0xFF, 0x00, 0x01, 0xFF, 0x00, 0xFF, 0x00, 0x00, 0xFE, 0x01, 0x01, 0xFF,
  0xFF, 0x00, 0xFF, 0x00, 0xFF, 0xFF, 0x01, 0x00, 0xFF, 0x01, 0x00, 0x00,
  0x00, 0x01, 0x00, 0xFF, 0x01, 0x00, 0x00, 0xFF, 0xFF, 0x00, 0x00, 0xFF,
  0x01, 0xFE, 0xFF, 0xFE, 0x01, 0x00, 0x00, 0xFE, 0x00, 0x01, 0x00, 0x00,
  0x01, 0x01, 0x00, 0xFF, 0xFF, 0xFF, 0xFF, 0x01, 0xFF, 0xFF, 0xFF, 0x00,
  0x00, 0x01, 0xFF, 0xFF, 0xFE, 0xFE, 0x01, 0x01, 0xFF, 0x01, 0x00, 0x02,
  0x00, 0x00, 0x01, 0x01, 0x01, 0xFF, 0x01, 0x01, 0x00, 0x01, 0x00, 0xFE,
  0x00, 0x01, 0x01, 0xFF, 0x01, 0xFE, 0xFF, 0x02, 0xFF, 0x00, 0x00, 0x00,
  0xFF, 0x01, 0xFF, 0x01, 0x00, 0xFF, 0xFF, 0x00, 0x00, 0xFF, 0xFF, 0xFE,
  0x01, 0x01, 0xFF, 0xFE, 0xFF, 0xFF, 0x00, 0x00, 0x02, 0x01, 0xFF, 0xFF,
  0x02, 0xFF, 0xFF, 0x01, 0x00, 0xFF, 0x01, 0xFF, 0x01, 0xFF, 0x01, 0x01,
  0xFE, 0x01, 0xFF, 0x01, 0xFF, 0xFF, 0x00, 0xFF, 0x00, 0x00, 0x00, 0x00,
  0x01, 0xFF, 0x00, 0x01, 0x00, 0xFF, 0xFE, 0xFF, 0x01, 0x00, 0x01, 0xFE,
  0x00, 0xFF, 0x01, 0x01, 0x00, 0xFF, 0x01, 0x01, 0xFF, 0x00, 0x01, 0x01,
  0xFF, 0xFF, 0xFF, 0x00, 0x01, 0x00, 0xFE, 0x00, 0x01, 0xFF, 0x02, 0xFF,
  0x00, 0x01, 0xFF, 0x00, 0xFF, 0x00, 0xFF, 0x02, 0x00, 0xFF, 0xFF, 0xFF,
  0x01, 0x01, 0x01, 0x02, 0xFF, 0xFF, 0x00, 0x02, 0xFE, 0xFE, 0x00, 0xFF,
  0x00, 0x00, 0xFE, 0x00, 0xFF, 0xFE, 0x01, 0x02, 0x01, 0x01, 0xFE, 0xFF,
  0xFF, 0x01, 0x00, 0x01, 0x01, 0xFF, 0x00, 0x01, 0x01, 0x01, 0xFE, 0x01,
  0x01, 0x01, 0xFE, 0x01, 0xFF, 0x00, 0x01, 0x01, 0xFF, 0x01, 0xFF, 0x00,
  0x00, 0x00, 0x00, 0x00, 0x00, 0x01, 0x01, 0xFF, 0xFF, 0xFF, 0x01, 0x01,
  0x00, 0x00, 0xFF, 0xFE, 0x01, 0xFF, 0x00, 0xFE, 0x00, 0x00, 0x01, 0xFF,
  0xFE, 0x00, 0xFF, 0x02, 0x01, 0xFF, 0x00, 0x01, 0x00, 0x00, 0xFF, 0xFF,
  0x01, 0xFF, 0xFF, 0x01, 0xFF, 0x00, 0xFF, 0xFF, 0x00, 0xFE, 0xFF, 0x00,
  0xFF, 0xFF, 0x00, 0x01, 0x01, 0x00, 0xFF, 0x00, 0x00, 0x00, 0x01, 0xFE,
  0x01, 0x01, 0x01, 0x01, 0x02, 0xFE, 0x00, 0x01, 0x01, 0x01, 0x01, 0x00,
  0xFF, 0x02, 0xFE, 0x01, 0x01, 0x01, 0x01, 0xFF, 0xFF, 0x00, 0xFF, 0xFE,
  0x00, 0xFF, 0x02, 0x01, 0x01, 0x00, 0xFF, 0x00, 0xFF, 0x02, 0xFE, 0xFF,
  0xFF, 0xFF, 0xFF, 0x01, 0xFF, 0xFF, 0x00, 0x01, 0x01, 0xFE, 0xFF, 0xFE,
  0xFE, 0x00, 0x01, 0x00, 0x01, 0x00, 0xFF, 0x01, 0x01, 0xFF, 0x00, 0x00,
  0x00, 0xFE, 0x01, 0x02, 0xFE, 0x00, 0xFE, 0x00, 0xFE, 0xFF, 0x01, 0xFE,
  0x01, 0xFF, 0xFF, 0x00, 0xFF, 0xFE, 0x02, 0xFF, 0xFF, 0x00, 0xFF, 0x01,
  0x01, 0xFF, 0x00, 0x02, 0x01, 0x00, 0xFF, 0x01, 0x01, 0xFF, 0xFF, 0xFE,
  0x00, 0x00, 0xFF, 0xFF, 0x02, 0xFF, 0x00, 0xFF, 0xFE, 0xFF, 0xFF, 0xFF,
  0xFF, 0x01, 0x01, 0xFF, 0x00, 0xFE, 0xFF, 0xFF, 0x01, 0x00, 0x00, 0xFE,
  0x01, 0xFF, 0xFF, 0xFF, 0x00, 0x01, 0x00, 0x00, 0x00, 0xFF, 0x01, 0xFE,
  0xFF, 0xFF, 0x01, 0xFF, 0x01, 0xFF, 0x00, 0xFF, 0xFE, 0x00, 0x00, 0x00,
  0x00, 0x00, 0x02, 0x00, 0xFE, 0x01, 0x01, 0xFF, 0x01, 0xFF, 0xFF, 0x01,
  0x01, 0xFE, 0x00, 0xFF, 0x00, 0xFF, 0xFF, 0xFE, 0xFE, 0xFE, 0x00, 0x00,
  0xFF, 0xFE, 0x01, 0xFF, 0x00, 0xFE, 0x00, 0x01, 0xFF, 0x00, 0xFF, 0xFF,
  0x00, 0xFE, 0xFE, 0xFF, 0x00, 0xFF, 0x00, 0x00, 0x00, 0xFF, 0x01, 0xFF,
  0x01, 0x00, 0x00, 0x00, 0xFF, 0xFF, 0xFE, 0xFE, 0xFF, 0x01, 0x00, 0x00,
  0x00, 0xFE, 0xFF, 0xFF, 0x00, 0x00, 0x00, 0xFE, 0xFF, 0xFF, 0x00, 0xFF,
  0x01, 0x01, 0xFF, 0x01, 0x01, 0xFE, 0x00, 0x00, 0x01, 0xFE, 0x01, 0x01,
  0x01, 0x00, 0xFE, 0x01, 0xFE, 0xFF, 0x00, 0x01, 0x01, 0x01, 0xFF, 0xFE,
  0xFF, 0x01, 0xFF, 0x00, 0xFF, 0x01, 0x00, 0x02, 0x02, 0x00, 0xFF, 0x01,
  0xFE, 0xFF, 0xFE, 0xFF, 0x02, 0xFF, 0xFE, 0x01, 0x01, 0x01, 0x02, 0x01,
  0xFF, 0x00, 0x00, 0x00, 0x00, 0x00, 0x01, 0xFF, 0x00, 0x00, 0x01, 0x00,
  0x01, 0x02, 0x00, 0xFE, 0x01, 0x01, 0xFF, 0xFF, 0x01, 0x00, 0xFF, 0x00,
  0x01, 0x02, 0x01, 0xFF, 0x00, 0xFE, 0xFF, 0xFF, 0x00, 0x01, 0xFF, 0x00,
  0x00, 0x00, 0x01, 0x01, 0x01, 0x01, 0x00, 0xFE, 0xFF, 0x01, 0x02, 0xFF,
  0x01, 0xFE, 0x01, 0xFF, 0xFF, 0x00, 0x02, 0x00, 0x01, 0x00, 0x00, 0x01,
  0xFF, 0xFF, 0x02, 0xFF, 0x00, 0xFF, 0x01, 0xFF, 0x01, 0xFF, 0x01, 0xFE,
  0xFF, 0x00, 0x00, 0x00, 0xFF, 0xFE, 0x00, 0xFF, 0x00, 0xFF, 0xFF, 0x00,
  0xFE, 0x01, 0xFF, 0xFF, 0x01, 0xFF, 0xFF, 0x00, 0xFF, 0x00, 0x00, 0xFF,
  0x01, 0x00, 0x00, 0x01, 0x02, 0xFE, 0xFF, 0xFF, 0xFF, 0x01, 0xFF, 0x00,
  0xFE, 0xFF, 0xFF, 0x01, 0x01, 0xFF, 0xFF, 0x01, 0xFF, 0x00, 0xFE, 0x00,
  0x01, 0xFF, 0x02, 0x02, 0x00, 0x00, 0x00, 0x01, 0x00, 0xFF, 0xFF, 0xFF,
  0xFF, 0x00, 0x00, 0x00, 0xFF, 0x02, 0x00, 0x01, 0x01, 0x02, 0x01, 0xFF,
  0xFF, 0x00, 0x01, 0xFF, 0x00, 0xFE, 0x01, 0xFF, 0x01, 0xFF, 0x01, 0xFF,
  0xFF, 0xFF, 0x01, 0x01, 0xFF, 0x00, 0xFF, 0xFE, 0x01, 0xFF, 0x01, 0x01,
  0x00, 0x00, 0x00, 0x01, 0xFE, 0x01, 0x00, 0x01, 0xFF, 0x01, 0x02, 0xFF,
  0xFF, 0x01, 0x00, 0x00, 0x00, 0x01, 0xFE, 0xFF, 0x00, 0x01, 0x02, 0xFF,
  0xFF, 0x00, 0xFF, 0xFF, 0xFF, 0xFF, 0x01, 0x00, 0x01, 0x01, 0xFF, 0x01,
  0x01, 0x00, 0xFF, 0x01, 0x01, 0xFF, 0x00, 0x00, 0xFF, 0x00, 0xFF, 0x01,
  0x01, 0xFF, 0x00, 0xFF, 0xFF, 0x00, 0x00, 0x01, 0xFF, 0xFE, 0x01, 0xFE,
  0x01, 0x01, 0xFF, 0xFE, 0x01, 0x01, 0x01, 0x00, 0xFF, 0xFF, 0x02, 0xFE,
  0xFF, 0x01, 0xFF, 0x00, 0xFF, 0x01, 0xFF, 0xFF, 0xFF, 0x02, 0xFE, 0xFF,
  0x01, 0x00, 0x01, 0x00, 0x01, 0x01, 0xFF, 0xFF, 0x02, 0x00, 0x01, 0xFE,
  0xFF, 0x01, 0xFF, 0x01, 0xFF, 0x01, 0xFF, 0xFF, 0xFF, 0x02, 0x01, 0x00,
  0x01, 0xFE, 0x01, 0x00, 0x01, 0x01, 0x00, 0xFF, 0x00, 0xFE, 0xFF, 0x00,
  0x00, 0x00, 0x01, 0x00, 0x01, 0xFE, 0xFF, 0xFF, 0x00, 0x00, 0x02, 0x00,
  0xFF, 0x00, 0x02, 0x00, 0x01, 0x01, 0x01, 0x02, 0x00, 0xFF, 0xFF, 0x00,
  0xFF, 0x01, 0x00, 0x01, 0x01, 0xFE, 0xFF, 0x01, 0xFF, 0x00, 0xFF, 0xFF,
  0x01, 0x01, 0x00, 0x01, 0x01, 0x01, 0xFE, 0xFF, 0xFF, 0x01, 0xFE, 0x01,
  0x01, 0x01, 0x01, 0x00, 0x01, 0xFE, 0x02, 0x01, 0xFE, 0x01, 0xFF, 0x00,
  0xFF, 0x00, 0x01, 0x00, 0xFF, 0xFF, 0xFF, 0xFE, 0xFE, 0x00, 0xFF, 0xFF,
  0x00, 0x00, 0x01, 0xFF, 0xFF, 0x00, 0x01, 0x02, 0x01, 0xFE, 0xFF, 0x01,
  0xFF, 0xFF, 0xFF, 0x01, 0xFF, 0xFE, 0xFE, 0xFF, 0xFF, 0x01, 0xFE, 0x01,
  0x01, 0x01, 0x01, 0x01, 0x01, 0x00, 0x01, 0x01, 0x01, 0xFF, 0x01, 0x01,
  0xFF, 0xFF, 0xFF, 0x01, 0x01, 0xFF, 0x00, 0xFF, 0x01, 0x00, 0x01, 0xFF,
  0xFF, 0x00, 0x01, 0xFF, 0xFF, 0x01, 0x02, 0x01, 0xFF, 0x01, 0xFF, 0xFF,
  0x01, 0x00, 0xFE, 0xFF, 0x01, 0xFF, 0xFE, 0x01, 0x01, 0x01, 0xFF, 0xFF,
  0xFF, 0xFF, 0x01, 0xFF, 0x00, 0x00, 0xFF, 0x01, 0xFF, 0xFF, 0x00, 0xFF,
  0x01, 0x02, 0x01, 0xFF, 0xFF, 0xFF, 0x00, 0x01, 0xFF, 0x01, 0x00, 0x01,
  0xFF, 0x01, 0x02, 0x01, 0x00, 0xFF, 0x00, 0x01, 0xFF, 0xFF, 0x01, 0x02,
  0xFF, 0xFF, 0xFF, 0xFF, 0xFF, 0xFF, 0xFE, 0x02, 0xFF, 0xFF, 0x01, 0xFF,
  0x01, 0x01, 0x02, 0x00, 0x01, 0x01, 0xFF, 0x00, 0x01, 0x01, 0x01, 0x01,
  0x01, 0xFF, 0x01, 0x00, 0x00, 0xFE, 0x00, 0x00, 0x01, 0x00, 0x01, 0xFF,
  0xFE, 0xFF, 0x01, 0xFF, 0x02, 0xFE, 0xFF, 0xFF, 0x01, 0x01, 0x00, 0x00,
  0x01, 0xFF, 0xFF, 0xFF, 0x00, 0xFF, 0xFF, 0x02, 0x00, 0xFE, 0xFF, 0xFF,
  0x01, 0xFE, 0xFF, 0xFF, 0x00, 0x00, 0xFF, 0x00, 0xFE, 0xFE, 0x01, 0x00,
  0x02, 0xFF, 0x00, 0x01, 0xFE, 0xFF, 0x01, 0x00, 0x00, 0x00, 0x00, 0xFE,
  0xFF, 0x01, 0xFE, 0xFE, 0x00, 0x00, 0x01, 0xFE, 0x00, 0x01, 0x01, 0x01,
  0x00, 0xFF, 0x01, 0xFE, 0x01, 0x00, 0xFE, 0x01, 0x00, 0x01, 0xFF, 0x00,
  0x00, 0xFF, 0x01, 0x01, 0xFF, 0x00, 0xFF, 0xFF, 0x00, 0x01, 0x00, 0x00,
  0x01, 0x01, 0xFF, 0xFF, 0x00, 0x01, 0xFE, 0x01, 0xFF, 0xFE, 0xFF, 0xFE,
  0x01, 0xFF, 0x01, 0x00, 0x00, 0x01, 0xFF, 0xFF, 0x01, 0x00, 0x00, 0xFF,
  0x01, 0x00, 0xFF, 0x02, 0x00, 0xFF, 0xFE, 0x02, 0x01, 0xFF, 0x01, 0x00,
  0x01, 0xFF, 0x00, 0x01, 0xFE, 0xFE, 0x00, 0x00, 0x02, 0x01, 0xFF, 0xFE,
  0x01, 0x01, 0xFE, 0x01, 0x01, 0x01, 0xFE, 0xFF, 0xFF, 0xFF, 0xFF, 0xFF,
  0xFF, 0xFF, 0x00, 0x01, 0xFE, 0x00, 0x01, 0xFF, 0xFF, 0x00, 0x00, 0xFF,
  0x01, 0x01, 0xFF, 0xFE, 0x01, 0xFF, 0xFE, 0x01, 0x00, 0x01, 0xFF, 0x01,
  0x00, 0x00, 0x01, 0x00, 0xFF, 0x00, 0x01, 0x01, 0xFF, 0xFF, 0x01, 0x01,
  0x00, 0x00, 0x01, 0x00, 0xFF, 0x01, 0xFF, 0xFF, 0x01, 0xFF, 0x00, 0x01,
  0x01, 0xFF, 0x00, 0x00, 0xFF, 0xFF, 0x01, 0x00, 0x00, 0x01, 0x00, 0xFF,
  0x00, 0x02, 0x01, 0x01, 0x01, 0xFF, 0x00, 0x00, 0x02, 0x01, 0xFF, 0xFF,
  0x00, 0x00, 0x01, 0x02, 0xFE, 0x00, 0xFF, 0x02, 0xFF, 0xFF, 0xFF, 0x01,
  0x02, 0x01, 0x00, 0x01, 0xFF, 0xFF, 0xFE, 0x00, 0x02, 0x00, 0xFF, 0xFF,
  0x01, 0x02, 0x01, 0x01, 0xFF, 0x01, 0xFF, 0x02, 0x00, 0x00, 0x01, 0xFF,
  0x00, 0x00, 0x00, 0x00, 0x01, 0x00, 0xFF, 0x00, 0x01, 0x00, 0xFE, 0x01,
  0x02, 0x00, 0xFF, 0xFF, 0x00, 0x00, 0x01, 0xFF, 0x02, 0x01, 0x01, 0xFF,
  0x01, 0xFF, 0xFF, 0x01, 0x00, 0x02, 0xFF, 0x02, 0x00, 0x01, 0x00, 0x01,
  0x01, 0x00, 0xFF, 0x00, 0x02, 0x00, 0x00, 0x01, 0xFE, 0x00, 0xFF, 0xFF,
  0xFF, 0x00, 0x01, 0x00, 0x01, 0x01, 0xFE, 0x00, 0xFF, 0x00, 0xFF, 0x00,
  0xFF, 0x01, 0x01, 0x00, 0xFF, 0x01, 0x00, 0x01, 0xFE, 0x00, 0xFE, 0xFE,
  0xFF, 0xFF, 0x00, 0x00, 0xFF, 0xFE, 0xFE, 0xFF, 0xFF, 0xFE, 0xFF, 0x00,
  0xFF, 0xFE, 0xFF, 0xFF, 0x00, 0x01, 0x01, 0xFF, 0x01, 0x00, 0xFF, 0x01,
  0x01, 0x00, 0xFE, 0xFF, 0xFE, 0x00, 0x00, 0x01, 0x01, 0xFE, 0x01, 0xFF,
  0xFF, 0xFF, 0x01, 0xFF, 0x01, 0xFE, 0x01, 0x01, 0x01, 0xFF, 0x01, 0xFF,
  0xFF, 0xFF, 0x01, 0x00, 0xFF, 0x00, 0xFF, 0x01, 0xFF, 0x02, 0x02, 0x00,
  0x00, 0x00, 0xFE, 0x00, 0xFF, 0xFE, 0x00, 0x00, 0x01, 0xFF, 0xFF, 0x01,
  0x00, 0x00, 0x01, 0x00, 0x01, 0xFF, 0x00, 0xFF, 0xFF, 0xFF, 0x00, 0xFE,
  0xFE, 0x00, 0x00, 0x01, 0x00, 0xFE, 0xFF, 0x01, 0x01, 0xFF, 0x01, 0xFF,
  0x00, 0x02, 0x01, 0x00, 0x00, 0x01, 0xFE, 0x02, 0x01, 0x00, 0x01, 0xFF,
  0x01, 0xFF, 0x00, 0xFF, 0x00, 0xFF, 0x02, 0x01, 0x01, 0xFF, 0xFE, 0x02,
  0x02, 0xFF, 0x00, 0x00, 0xFF, 0x01, 0x01, 0x01, 0x01, 0x00, 0x02, 0xFF,
  0xFF, 0x00, 0xFF, 0x02, 0x02, 0xFF, 0x01, 0x00, 0xFF, 0xFF, 0x02, 0xFF,
  0x00, 0x01, 0xFE, 0x00, 0xFF, 0x00, 0x01, 0x00, 0x01, 0xFF, 0x01, 0xFF,
  0x00, 0x01, 0xFF, 0xFF, 0x00, 0xFE, 0x01, 0x01, 0x00, 0xFF, 0xFF, 0xFF,
  0xFF, 0x01, 0x01, 0xFF, 0x01, 0x01, 0x00, 0xFF, 0xFF, 0x00, 0x00, 0xFF,
  0xFF, 0xFF, 0xFF, 0x00, 0xFF, 0xFE, 0xFF, 0xFF, 0x00, 0x00, 0x00, 0xFF,
  0x00, 0x02, 0xFF, 0xFF, 0x00, 0x01, 0xFE, 0xFE, 0x01, 0xFF, 0x00, 0xFE,
  0x01, 0x00, 0xFF, 0x01, 0x00, 0xFF, 0x01, 0x00, 0x01, 0x01, 0x00, 0xFF,
  0xFF, 0xFF, 0xFF, 0x01, 0xFF, 0x01, 0xFE, 0xFF, 0x01, 0x00, 0x00, 0xFF,
  0x00, 0xFF, 0x00, 0xFF, 0x00, 0xFE, 0x01, 0xFF, 0x00, 0x00, 0x02, 0x00,
  0xFF, 0xFF, 0xFF, 0x01, 0xFF, 0xFF, 0xFF, 0xFE, 0x00, 0xFE, 0x01, 0xFE,
  0x00, 0x00, 0x00, 0x01, 0xFF, 0x01, 0x02, 0xFF, 0xFF, 0x00, 0xFF, 0x00,
  0xFF, 0xFE, 0xFF, 0xFF, 0x01, 0xFF, 0xFF, 0xFE, 0xFF, 0xFF, 0xFF, 0x00,
  0xFF, 0x01, 0x01, 0xFF, 0xFE, 0x00, 0x01, 0x01, 0x00, 0xFF, 0x00, 0x00,
  0x01, 0x00, 0x01, 0xFF, 0x00, 0x01, 0xFE, 0xFF, 0x01, 0xFE, 0xFF, 0x00,
  0xFE, 0x01, 0x02, 0x01, 0xFF, 0xFF, 0xFF, 0x00, 0x00, 0x00, 0xFF, 0xFF,
  0xFE, 0xFE, 0x01, 0xFF, 0x00, 0xFF, 0x00, 0xFE, 0xFF, 0xFF, 0x00, 0xFF,
  0xFE, 0xFF, 0x01, 0x00, 0x02, 0xFF, 0xFF, 0xFE, 0x01, 0x01, 0xFF, 0xFF,
  0x00, 0x00, 0x01, 0x01, 0xFF, 0x01, 0xFE, 0x01, 0x00, 0xFF, 0x01, 0x00,
  0x00, 0x00, 0x01, 0x02, 0x01, 0x00, 0x01, 0x01, 0x01, 0x00, 0xFF, 0x01,
  0x00, 0x01, 0xFE, 0x00, 0xFF, 0x01, 0x01, 0x01, 0x00, 0xFF, 0x01, 0xFE,
  0xFF, 0x00, 0x01, 0xFE, 0x00, 0xFF, 0x00, 0x00, 0x01, 0x01, 0xFF, 0xFF,
  0x00, 0x01, 0x00, 0xFF, 0x01, 0xFF, 0x01, 0xFF, 0x01, 0xFF, 0x01, 0x00,
  0x01, 0xFF, 0x01, 0xFF, 0x01, 0xFF, 0x01, 0x00, 0xFF, 0xFF, 0x01, 0xFF,
  0x00, 0x00, 0x00, 0x01, 0x00, 0xFF, 0x00, 0x00, 0x00, 0x02, 0x01, 0x00,
  0x00, 0x02, 0x01, 0xFF, 0x01, 0x00, 0xFE, 0x01, 0xFE, 0xFE, 0x01, 0x02,
  0x01, 0x01, 0x00, 0x01, 0xFE, 0xFE, 0xFF, 0x00, 0xFF, 0x01, 0x01, 0xFF,
  0x01, 0x00, 0x01, 0xFF, 0x01, 0xFF, 0x00, 0xFF, 0x00, 0x01, 0x00, 0xFF,
  0x01, 0x01, 0xFF, 0x00, 0xFF, 0x01, 0x00, 0x02, 0x01, 0xFF, 0xFF, 0xFF,
  0x01, 0xFF, 0xFE, 0x00, 0xFE, 0xFE, 0x00, 0xFF, 0x01, 0xFE, 0x01, 0xFE,
  0x00, 0x01, 0x00, 0x00, 0xFE, 0xFF, 0x00, 0x01, 0x00, 0xFF, 0xFE, 0x00,
  0xFF, 0x00, 0xFF, 0x01, 0xFF, 0xFF, 0x00, 0x00, 0xFE, 0x00, 0xFF, 0x00,
  0x01, 0xFF, 0x01, 0xFF, 0x00, 0xFF, 0x00, 0xFF, 0xFE, 0x01, 0x01, 0xFE,
  0x01, 0x02, 0xFF, 0x00, 0x01, 0x00, 0x01, 0x00, 0x00, 0xFF, 0x00, 0x02,
  0x01, 0x00, 0x00, 0xFF, 0x00, 0xFF, 0xFF, 0xFF, 0xFE, 0x02, 0x01, 0xFF,
  0xFF, 0xFF, 0x01, 0x01, 0x01, 0x00, 0x00, 0xFF, 0xFF, 0x00, 0x01, 0x00,
  0x00, 0x00, 0xFE, 0xFF, 0x00, 0x00, 0x00, 0xFE, 0x00, 0x01, 0xFF, 0x00,
  0x01, 0xFF, 0xFF, 0xFF, 0x00, 0xFF, 0x00, 0x02, 0x01, 0x00, 0x02, 0x00,
  0xFE, 0x01, 0x00, 0x01, 0x01, 0x00, 0xFF, 0x00, 0x00, 0x00, 0x02, 0xFE,
  0xFF, 0x00, 0x00, 0xFF, 0x00, 0xFE, 0x00, 0x00, 0xFF, 0x01, 0x00, 0x01,
  0x00, 0x00, 0xFF, 0x01, 0x00, 0x01, 0xFF, 0x00, 0x01, 0xFF, 0xFF, 0xFE,
  0xFF, 0xFF, 0x01, 0x00, 0x01, 0xFE, 0x01, 0x01, 0xFF, 0xFF, 0xFF, 0x01,
  0x01, 0x00, 0xFE, 0x00, 0x02, 0xFF, 0x00, 0x02, 0x01, 0xFF, 0xFE, 0xFE,
  0x00, 0xFF, 0x00, 0x00, 0xFF, 0x00, 0x02, 0x01, 0x01, 0x01, 0xFF, 0xFF,
  0xFF, 0xFF, 0x00, 0xFE, 0x02, 0x01, 0x01, 0xFF, 0xFF, 0x01, 0xFF, 0xFE,
  0xFF, 0xFF, 0xFF, 0x00, 0x00, 0xFE, 0xFF, 0x00, 0xFF, 0x01, 0xFF, 0x00,
  0x01, 0x01, 0xFE, 0xFE, 0x01, 0xFF, 0x00, 0x00, 0xFF, 0x00, 0xFF, 0xFE,
  0x00, 0x02, 0x01, 0x02, 0x00, 0xFF, 0xFF, 0x00, 0xFF, 0xFF, 0x01, 0x01,
  0x00, 0x01, 0xFF, 0xFF, 0x00, 0x00, 0xFF, 0x00, 0x02, 0x00, 0x00, 0x00,
  0x00, 0xFF, 0x02, 0x01, 0x02, 0xFF, 0x00, 0xFF, 0x02, 0xFF, 0x01, 0xFF,
  0xFF, 0xFF, 0x01, 0x01, 0x01, 0x00, 0x01, 0x00, 0xFF, 0xFF, 0x00, 0xFE,
  0x01, 0x02, 0x00, 0x02, 0x00, 0xFF, 0x00, 0x00, 0xFF, 0x02, 0xFF, 0x01,
  0x00, 0xFF, 0x02, 0x00, 0x00, 0x00, 0x00, 0x00, 0xFF, 0xFF, 0x00, 0x00,
  0xFE, 0x02, 0xFF, 0x01, 0x02, 0x00, 0x00, 0x01, 0x00, 0x01, 0x01, 0x00,
  0x00, 0xFF, 0x01, 0x01, 0xFF, 0x01, 0xFE, 0x01, 0x00, 0x00, 0xFF, 0xFE,
  0x00, 0x01, 0x01, 0x02, 0x01, 0x01, 0xFF, 0x01, 0xFF, 0xFE, 0x01, 0xFF,
  0x02, 0xFF, 0x01, 0xFF, 0x01, 0x01, 0xFE, 0x00, 0x01, 0xFF, 0xFF, 0xFF,
  0x01, 0x02, 0x00, 0x00, 0xFF, 0xFF, 0xFF, 0x01, 0x01, 0x01, 0x02, 0x00,
  0x01, 0x02, 0x01, 0x00, 0x01, 0xFF, 0xFF, 0x01, 0xFF, 0x00, 0x02, 0xFF,
  0xFF, 0x02, 0x01, 0x00, 0x00, 0x01, 0x00, 0x00, 0xFF, 0xFF, 0xFE, 0xFF,
  0x02, 0x02, 0x00, 0x00, 0x01, 0x01, 0xFF, 0xFF, 0x01, 0xFF, 0x02, 0xFF,
  0xFF, 0xFF, 0x01, 0x01, 0x01, 0x01, 0x00, 0xFF, 0xFF, 0xFF, 0x00, 0x00,
  0x01, 0x01, 0x01, 0x02, 0x00, 0x01, 0x00, 0xFF, 0x00, 0xFF, 0x01, 0x00,
  0x00, 0x01, 0xFF, 0x00, 0x01, 0x00, 0x00, 0x01, 0xFF, 0xFF, 0xFF, 0x00,
  0x01, 0x02, 0x01, 0xFF, 0x00, 0xFF, 0x00, 0x01, 0x00, 0x00, 0x00, 0xFF,
  0x00, 0x00, 0xFF, 0xFE, 0x02, 0xFF, 0x02, 0xFF, 0x00, 0x01, 0x00, 0xFF,
  0xFE, 0x01, 0x00, 0x01, 0x00, 0xFF, 0x01, 0x00, 0xFE, 0x00, 0x02, 0xFF,
  0xFF, 0x00, 0x00, 0x02, 0x01, 0xFE, 0xFF, 0x00, 0x02, 0xFF, 0x00, 0x00,
  0x00, 0x01, 0xFF, 0x00, 0x01, 0x02, 0x00, 0xFE, 0x00, 0x02, 0xFE, 0x00,
  0xFF, 0x01, 0x00, 0xFF, 0x01, 0xFF, 0x02, 0x00, 0xFF, 0xFF, 0x00, 0xFF,
  0xFF, 0xFE, 0xFF, 0x01, 0x01, 0x00, 0xFE, 0x00, 0x01, 0x00, 0x00, 0x00,
  0x01, 0x01, 0x00, 0x02, 0x02, 0xFF, 0x00, 0xFE, 0x00, 0xFE, 0xFE, 0x01,
  0xFF, 0xFF, 0x01, 0x02, 0x00, 0x01, 0x00, 0x00, 0xFF, 0xFF, 0x00, 0xFE,
  0x00, 0x00, 0x01, 0x00, 0xFE, 0x00, 0x00, 0xFF, 0x00, 0xFF, 0x00, 0x00,
  0x02, 0x01, 0x01, 0x02, 0xFF, 0x01, 0x00, 0x02, 0x02, 0xFF, 0x01, 0x00,
  0xFF, 0x00, 0x00, 0x02, 0x01, 0x00, 0xFF, 0x01, 0x02, 0xFF, 0x01, 0xFF,
  0xFF, 0xFF, 0x01, 0xFE, 0xFF, 0x01, 0xFE, 0xFE, 0xFF, 0x00, 0x01, 0x00,
  0x01, 0xFF, 0xFE, 0xFF, 0x00, 0xFF, 0x01, 0x01, 0xFF, 0xFF, 0x01, 0x00,
  0x00, 0xFF, 0x00, 0x00, 0x01, 0x00, 0xFF, 0xFF, 0xFF, 0x02, 0x00, 0x01,
  0x01, 0x02, 0xFF, 0x01, 0x00, 0xFE, 0x00, 0xFF, 0xFF, 0xFF, 0x01, 0xFF,
  0xFF, 0x01, 0x00, 0xFF, 0x00, 0xFF, 0x00, 0x01, 0x00, 0x00, 0xFF, 0xFF,
  0x00, 0x00, 0x01, 0x01, 0x01, 0xFF, 0xFF, 0x02, 0x01, 0xFF, 0x00, 0x00,
  0x00, 0xFF, 0xFF, 0xFE, 0x01, 0xFF, 0x00, 0x00, 0xFF, 0xFF, 0xFF, 0x01,
  0xFF, 0xFF, 0x02, 0x00, 0x00, 0xFE, 0xFF, 0xFE, 0xFF, 0x00, 0xFF, 0x01,
  0xFF, 0xFE, 0x00, 0x00, 0x02, 0x01, 0x00, 0x00, 0x00, 0x01, 0xFF, 0xFE,
  0xFF, 0xFF, 0xFE, 0x01, 0xFF, 0x00, 0x01, 0x00, 0x00, 0xFF, 0xFF, 0xFF,
  0xFF, 0x02, 0x00, 0xFE, 0x01, 0xFF, 0xFE, 0x01, 0xFF, 0xFF, 0x01, 0x00,
  0x00, 0x00, 0xFF, 0x01, 0xFF, 0xFF, 0x00, 0x00, 0x00, 0xFF, 0xFF, 0xFF,
  0x02, 0x01, 0x01, 0xFE, 0x00, 0xFF, 0xFE, 0x01, 0x01, 0xFF, 0x00, 0x00,
  0x01, 0x01, 0x00, 0x00, 0xFF, 0x00, 0x00, 0xFF, 0xFF, 0xFF, 0xFF, 0x00,
  0x00, 0xFF, 0x02, 0x02, 0x00, 0x01, 0x00, 0xFF, 0x01, 0xFF, 0xFF, 0x00,
  0x01, 0x00, 0x01, 0x00, 0x00, 0xFE, 0x00, 0x01, 0xFF, 0xFF, 0xFF, 0xFF,
  0xFF, 0xFF, 0x00, 0xFF, 0xFF, 0x00, 0xFF, 0x00, 0x00, 0x01, 0xFF, 0x00,
  0x00, 0xFF, 0x00, 0x00, 0xFF, 0xFE, 0x00, 0xFF, 0x01, 0x02, 0xFE, 0x01,
  0xFF, 0x02, 0x00, 0x00, 0xFE, 0xFF, 0x01, 0x00, 0xFF, 0x00, 0x00, 0xFF,
  0x02, 0x01, 0x02, 0x00, 0x00, 0x00, 0x00, 0xFF, 0xFF, 0x01, 0x01, 0x02,
  0xFF, 0xFF, 0xFF, 0x01, 0x00, 0x00, 0xFE, 0x00, 0x01, 0x00, 0x00, 0xFF,
  0x00, 0x00, 0xFF, 0xFF, 0xFE, 0xFF, 0xFF, 0x00, 0xFF, 0xFF, 0x00, 0xFF,
  0x02, 0x02, 0xFE, 0x00, 0x01, 0x01, 0xFF, 0x00, 0xFF, 0xFF, 0xFF, 0xFE,
  0x00, 0x00, 0xFF, 0x00, 0xFF, 0xFE, 0x00, 0x01, 0xFE, 0x01, 0x01, 0x00,
  0xFF, 0x00, 0x01, 0x01, 0x00, 0xFF, 0x00, 0xFE, 0x02, 0x01, 0x02, 0x00,
  0xFF, 0x01, 0x01, 0x01, 0x01, 0xFF, 0x00, 0x01, 0x01, 0x00, 0x00, 0xFF,
  0x00, 0x00, 0x00, 0xFF, 0xFF, 0x01, 0x01, 0x01, 0x01, 0xFF, 0x01, 0xFE,
  0x01, 0xFF, 0x01, 0x01, 0xFF, 0xFF, 0xFF, 0xFF, 0xFF, 0x01, 0xFF, 0xFF,
  0xFE, 0x01, 0xFF, 0x00, 0x01, 0x00, 0xFE, 0xFE, 0x01, 0x00, 0xFF, 0xFF,
  0x01, 0xFE, 0xFF, 0xFF, 0x00, 0xFF, 0xFF, 0xFF, 0xFF, 0x01, 0xFF, 0x00,
  0xFF, 0x00, 0x01, 0x00, 0x00, 0x00, 0x00, 0x00, 0x01, 0x01, 0xFF, 0x00,
  0xFF, 0xFF, 0xFF, 0x01, 0x01, 0xFF, 0xFF, 0x01, 0xFF, 0x01, 0x01, 0xFF,
  0x01, 0x00, 0x01, 0x00, 0x01, 0x00, 0xFF, 0x00, 0x01, 0xFF, 0xFF, 0xFE,
  0xFF, 0x02, 0xFF, 0x00, 0x00, 0xFF, 0x01, 0x02, 0x02, 0xFF, 0x01, 0xFF,
  0xFF, 0xFE, 0x01, 0xFF, 0x00, 0x00, 0xFF, 0xFF, 0xFE, 0x00, 0x00, 0x00,
